{
  "version": "1.0",
  "truncation": null,
  "padding": null,
  "added_tokens": [
    {
      "id": 0,
      "content": "[UNK]",
      "single_word": false,
      "lstrip": false,
      "rstrip": false,
      "normalized": false,
      "special": true
    },
    {
      "id": 1,
      "content": "[CLS]",
      "single_word": false,
      "lstrip": false,
      "rstrip": false,
      "normalized": false,
      "special": true
    },
    {
      "id": 2,
      "content": "[SEP]",
      "single_word": false,
      "lstrip": false,
      "rstrip": false,
      "normalized": false,
      "special": true
    },
    {
      "id": 3,
      "content": "[PAD]",
      "single_word": false,
      "lstrip": false,
      "rstrip": false,
      "normalized": false,
      "special": true
    },
    {
      "id": 4,
      "content": "[MASK]",
      "single_word": false,
      "lstrip": false,
      "rstrip": false,
      "normalized": false,
      "special": true
    }
  ],
  "normalizer": null,
  "pre_tokenizer": {
    "type": "Whitespace"
  },
  "post_processor": null,
  "decoder": null,
  "model": {
    "type": "WordPiece",
    "unk_token": "[UNK]",
    "continuing_subword_prefix": "##",
    "max_input_chars_per_word": 100,
    "vocab": {
      "[UNK]": 0,
      "[CLS]": 1,
      "[SEP]": 2,
      "[PAD]": 3,
      "[MASK]": 4,
      "!": 5,
      "\"": 6,
      "#": 7,
      "$": 8,
      "%": 9,
      "&": 10,
      "'": 11,
      "(": 12,
      ")": 13,
      "*": 14,
      "+": 15,
      ",": 16,
      "-": 17,
      ".": 18,
      "/": 19,
      "0": 20,
      "1": 21,
      "2": 22,
      "3": 23,
      "4": 24,
      "5": 25,
      "6": 26,
      "7": 27,
      "8": 28,
      "9": 29,
      ":": 30,
      ";": 31,
      "<": 32,
      "=": 33,
      ">": 34,
      "?": 35,
      "@": 36,
      "[": 37,
      "\\": 38,
      "]": 39,
      "^": 40,
      "_": 41,
      "`": 42,
      "a": 43,
      "b": 44,
      "c": 45,
      "d": 46,
      "e": 47,
      "f": 48,
      "g": 49,
      "h": 50,
      "i": 51,
      "j": 52,
      "k": 53,
      "l": 54,
      "m": 55,
      "n": 56,
      "o": 57,
      "p": 58,
      "q": 59,
      "r": 60,
      "s": 61,
      "t": 62,
      "u": 63,
      "v": 64,
      "w": 65,
      "x": 66,
      "y": 67,
      "z": 68,
      "{": 69,
      "|": 70,
      "}": 71,
      "~": 72,
      "": 73,
      "": 74,
      "": 75,
      "": 76,
      "": 77,
      "": 78,
      "": 79,
      "": 80,
      "": 81,
      "": 82,
      "": 83,
      "": 84,
      "¡": 85,
      "¢": 86,
      "£": 87,
      "¤": 88,
      "¦": 89,
      "§": 90,
      "¨": 91,
      "©": 92,
      "ª": 93,
      "«": 94,
      "¬": 95,
      "­": 96,
      "®": 97,
      "¯": 98,
      "°": 99,
      "±": 100,
      "²": 101,
      "³": 102,
      "´": 103,
      "µ": 104,
      "¶": 105,
      "·": 106,
      "¸": 107,
      "¹": 108,
      "º": 109,
      "»": 110,
      "¼": 111,
      "½": 112,
      "¾": 113,
      "¿": 114,
      "×": 115,
      "ß": 116,
      "à": 117,
      "á": 118,
      "â": 119,
      "ã": 120,
      "ä": 121,
      "å": 122,
      "æ": 123,
      "ç": 124,
      "è": 125,
      "é": 126,
      "ê": 127,
      "ë": 128,
      "ì": 129,
      "í": 130,
      "î": 131,
      "ï": 132,
      "ð": 133,
      "ñ": 134,
      "ò": 135,
      "ó": 136,
      "ô": 137,
      "õ": 138,
      "ö": 139,
      "÷": 140,
      "ø": 141,
      "ù": 142,
      "ú": 143,
      "û": 144,
      "ü": 145,
      "ý": 146,
      "þ": 147,
      "ÿ": 148,
      "ā": 149,
      "ă": 150,
      "ą": 151,
      "ć": 152,
      "ċ": 153,
      "č": 154,
      "ď": 155,
      "đ": 156,
      "ē": 157,
      "ė": 158,
      "ę": 159,
      "ě": 160,
      "ğ": 161,
      "ģ": 162,
      "ħ": 163,
      "ĩ": 164,
      "ī": 165,
      "ı": 166,
      "ķ": 167,
      "ļ": 168,
      "ľ": 169,
      "ł": 170,
      "ń": 171,
      "ņ": 172,
      "ň": 173,
      "ŋ": 174,
      "ō": 175,
      "ŏ": 176,
      "ő": 177,
      "œ": 178,
      "ŕ": 179,
      "ř": 180,
      "ś": 181,
      "ş": 182,
      "š": 183,
      "ţ": 184,
      "ť": 185,
      "ũ": 186,
      "ū": 187,
      "ŭ": 188,
      "ů": 189,
      "ŵ": 190,
      "ź": 191,
      "ż": 192,
      "ž": 193,
      "ơ": 194,
      "ư": 195,
      "ǎ": 196,
      "ǐ": 197,
      "ǒ": 198,
      "ǔ": 199,
      "ǧ": 200,
      "ǫ": 201,
      "ș": 202,
      "ț": 203,
      "ɒ": 204,
      "ɓ": 205,
      "ɔ": 206,
      "ə": 207,
      "ɛ": 208,
      "ɜ": 209,
      "ɪ": 210,
      "ɹ": 211,
      "ɾ": 212,
      "ʁ": 213,
      "ʊ": 214,
      "ʋ": 215,
      "ʔ": 216,
      "ʰ": 217,
      "ʲ": 218,
      "ʷ": 219,
      "ʹ": 220,
      "ʻ": 221,
      "ʼ": 222,
      "ʾ": 223,
      "ʿ": 224,
      "ˇ": 225,
      "ˈ": 226,
      "ˊ": 227,
      "ˋ": 228,
      "ˌ": 229,
      "ː": 230,
      "˚": 231,
      "˜": 232,
      "ˡ": 233,
      "́": 234,
      "̄": 235,
      "̇": 236,
      "̍": 237,
      "̤": 238,
      "̧": 239,
      "̨": 240,
      "ά": 241,
      "έ": 242,
      "ή": 243,
      "ί": 244,
      "α": 245,
      "β": 246,
      "γ": 247,
      "δ": 248,
      "ε": 249,
      "η": 250,
      "θ": 251,
      "ι": 252,
      "κ": 253,
      "λ": 254,
      "μ": 255,
      "ν": 256,
      "ξ": 257,
      "ο": 258,
      "π": 259,
      "ρ": 260,
      "ς": 261,
      "σ": 262,
      "τ": 263,
      "υ": 264,
      "φ": 265,
      "χ": 266,
      "ψ": 267,
      "ω": 268,
      "ό": 269,
      "ύ": 270,
      "ώ": 271,
      "ϕ": 272,
      "а": 273,
      "б": 274,
      "в": 275,
      "г": 276,
      "д": 277,
      "е": 278,
      "ж": 279,
      "з": 280,
      "и": 281,
      "й": 282,
      "к": 283,
      "л": 284,
      "м": 285,
      "н": 286,
      "о": 287,
      "п": 288,
      "р": 289,
      "с": 290,
      "т": 291,
      "у": 292,
      "ф": 293,
      "х": 294,
      "ц": 295,
      "ч": 296,
      "ш": 297,
      "щ": 298,
      "ы": 299,
      "ь": 300,
      "э": 301,
      "ю": 302,
      "я": 303,
      "ђ": 304,
      "є": 305,
      "і": 306,
      "ї": 307,
      "ј": 308,
      "њ": 309,
      "ћ": 310,
      "ґ": 311,
      "қ": 312,
      "ү": 313,
      "ұ": 314,
      "ә": 315,
      "ӱ": 316,
      "ա": 317,
      "բ": 318,
      "ե": 319,
      "թ": 320,
      "ի": 321,
      "լ": 322,
      "կ": 323,
      "հ": 324,
      "ղ": 325,
      "մ": 326,
      "յ": 327,
      "ն": 328,
      "ո": 329,
      "ռ": 330,
      "ս": 331,
      "վ": 332,
      "տ": 333,
      "ր": 334,
      "ց": 335,
      "ւ": 336,
      "փ": 337,
      "օ": 338,
      "ֆ": 339,
      "ָ": 340,
      "ׁ": 341,
      "א": 342,
      "ב": 343,
      "ג": 344,
      "ד": 345,
      "ה": 346,
      "ו": 347,
      "ח": 348,
      "י": 349,
      "כ": 350,
      "ל": 351,
      "מ": 352,
      "ן": 353,
      "נ": 354,
      "ס": 355,
      "ע": 356,
      "פ": 357,
      "ץ": 358,
      "צ": 359,
      "ר": 360,
      "ש": 361,
      "ת": 362,
      "،": 363,
      "ء": 364,
      "آ": 365,
      "أ": 366,
      "إ": 367,
      "ئ": 368,
      "ا": 369,
      "ب": 370,
      "ة": 371,
      "ت": 372,
      "ث": 373,
      "ج": 374,
      "ح": 375,
      "خ": 376,
      "د": 377,
      "ذ": 378,
      "ر": 379,
      "ز": 380,
      "س": 381,
      "ش": 382,
      "ص": 383,
      "ض": 384,
      "ط": 385,
      "ظ": 386,
      "ع": 387,
      "غ": 388,
      "ـ": 389,
      "ف": 390,
      "ق": 391,
      "ك": 392,
      "ل": 393,
      "م": 394,
      "ن": 395,
      "ه": 396,
      "و": 397,
      "ى": 398,
      "ي": 399,
      "ً": 400,
      "َ": 401,
      "ُ": 402,
      "ِ": 403,
      "ّ": 404,
      "ْ": 405,
      "ٓ": 406,
      "١": 407,
      "٨": 408,
      "ٰ": 409,
      "ٱ": 410,
      "پ": 411,
      "چ": 412,
      "ژ": 413,
      "ک": 414,
      "گ": 415,
      "ہ": 416,
      "ۆ": 417,
      "ی": 418,
      "ە": 419,
      "ۚ": 420,
      "۟": 421,
      "ۢ": 422,
      "ۥ": 423,
      "ं": 424,
      "ः": 425,
      "अ": 426,
      "आ": 427,
      "इ": 428,
      "उ": 429,
      "ओ": 430,
      "क": 431,
      "ख": 432,
      "ग": 433,
      "च": 434,
      "छ": 435,
      "ज": 436,
      "ट": 437,
      "ण": 438,
      "त": 439,
      "थ": 440,
      "द": 441,
      "ध": 442,
      "न": 443,
      "प": 444,
      "ब": 445,
      "भ": 446,
      "म": 447,
      "य": 448,
      "र": 449,
      "ल": 450,
      "व": 451,
      "श": 452,
      "ष": 453,
      "स": 454,
      "ह": 455,
      "़": 456,
      "ा": 457,
      "ि": 458,
      "ी": 459,
      "ु": 460,
      "ू": 461,
      "ृ": 462,
      "े": 463,
      "ै": 464,
      "ो": 465,
      "्": 466,
      "।": 467,
      "०": 468,
      "२": 469,
      "ং": 470,
      "আ": 471,
      "ই": 472,
      "ও": 473,
      "ক": 474,
      "খ": 475,
      "গ": 476,
      "ঙ": 477,
      "চ": 478,
      "ছ": 479,
      "জ": 480,
      "ঞ": 481,
      "ট": 482,
      "ণ": 483,
      "ত": 484,
      "থ": 485,
      "দ": 486,
      "ধ": 487,
      "ন": 488,
      "প": 489,
      "ব": 490,
      "ভ": 491,
      "ম": 492,
      "য": 493,
      "র": 494,
      "ল": 495,
      "শ": 496,
      "ষ": 497,
      "স": 498,
      "হ": 499,
      "়": 500,
      "া": 501,
      "ি": 502,
      "ী": 503,
      "ু": 504,
      "ূ": 505,
      "ৃ": 506,
      "ে": 507,
      "ৈ": 508,
      "ো": 509,
      "্": 510,
      "ਂ": 511,
      "ਆ": 512,
      "ਓ": 513,
      "ਗ": 514,
      "ਚ": 515,
      "ਜ": 516,
      "ਣ": 517,
      "ਥ": 518,
      "ਨ": 519,
      "ਪ": 520,
      "ਬ": 521,
      "ਮ": 522,
      "ਰ": 523,
      "ਲ": 524,
      "ਵ": 525,
      "ਾ": 526,
      "ੀ": 527,
      "ੁ": 528,
      "ੇ": 529,
      "ੈ": 530,
      "ੰ": 531,
      "ੱ": 532,
      "ક": 533,
      "ગ": 534,
      "જ": 535,
      "ત": 536,
      "ર": 537,
      "લ": 538,
      "ા": 539,
      "ી": 540,
      "ુ": 541,
      "ો": 542,
      "க": 543,
      "த": 544,
      "ப": 545,
      "ம": 546,
      "ய": 547,
      "ல": 548,
      "ா": 549,
      "ி": 550,
      "ொ": 551,
      "்": 552,
      "ಕ": 553,
      "ಟ": 554,
      "ಡ": 555,
      "ಣ": 556,
      "ಪ": 557,
      "ರ": 558,
      "ಲ": 559,
      "ಶ": 560,
      "ಾ": 561,
      "ೀ": 562,
      "್": 563,
      "ം": 564,
      "ച": 565,
      "ഞ": 566,
      "ര": 567,
      "സ": 568,
      "ാ": 569,
      "്": 570,
      "ක": 571,
      "ජ": 572,
      "න": 573,
      "ප": 574,
      "ම": 575,
      "ර": 576,
      "ල": 577,
      "ෂ": 578,
      "ස": 579,
      "්": 580,
      "ා": 581,
      "ි": 582,
      "ු": 583,
      "ෙ": 584,
      "ก": 585,
      "ค": 586,
      "ง": 587,
      "จ": 588,
      "ช": 589,
      "ญ": 590,
      "ณ": 591,
      "ท": 592,
      "ธ": 593,
      "น": 594,
      "บ": 595,
      "ป": 596,
      "ผ": 597,
      "พ": 598,
      "ภ": 599,
      "ม": 600,
      "ร": 601,
      "ล": 602,
      "ว": 603,
      "ศ": 604,
      "ส": 605,
      "ห": 606,
      "ฬ": 607,
      "อ": 608,
      "ะ": 609,
      "า": 610,
      "ิ": 611,
      "ุ": 612,
      "ู": 613,
      "เ": 614,
      "แ": 615,
      "โ": 616,
      "ไ": 617,
      "่": 618,
      "้": 619,
      "์": 620,
      "ກ": 621,
      "ດ": 622,
      "ອ": 623,
      "ີ": 624,
      "ເ": 625,
      "ແ": 626,
      "່": 627,
      "້": 628,
      "ር": 629,
      "ሳ": 630,
      "ስ": 631,
      "ቂ": 632,
      "ኢ": 633,
      "ኣ": 634,
      "ወ": 635,
      "ያ": 636,
      "ይ": 637,
      "ፍ": 638,
      "ᏹ": 639,
      "ᛖ": 640,
      "ᵇ": 641,
      "ᵉ": 642,
      "ḍ": 643,
      "ḥ": 644,
      "ḩ": 645,
      "ḵ": 646,
      "ḻ": 647,
      "ṁ": 648,
      "ṃ": 649,
      "ṅ": 650,
      "ṇ": 651,
      "ṛ": 652,
      "ṟ": 653,
      "ṣ": 654,
      "ṭ": 655,
      "ṯ": 656,
      "ẓ": 657,
      "ẕ": 658,
      "ạ": 659,
      "ả": 660,
      "ấ": 661,
      "ầ": 662,
      "ậ": 663,
      "ắ": 664,
      "ặ": 665,
      "ẽ": 666,
      "ế": 667,
      "ề": 668,
      "ể": 669,
      "ễ": 670,
      "ệ": 671,
      "ỉ": 672,
      "ọ": 673,
      "ỏ": 674,
      "ố": 675,
      "ồ": 676,
      "ổ": 677,
      "ỗ": 678,
      "ộ": 679,
      "ớ": 680,
      "ờ": 681,
      "ở": 682,
      "ợ": 683,
      "ụ": 684,
      "ủ": 685,
      "ứ": 686,
      "ừ": 687,
      "ử": 688,
      "ữ": 689,
      "ự": 690,
      "ỳ": 691,
      "ἀ": 692,
      "ἑ": 693,
      "ἔ": 694,
      "ἡ": 695,
      "ὐ": 696,
      "ὤ": 697,
      "ὦ": 698,
      "ὰ": 699,
      "ά": 700,
      "ί": 701,
      "ᾳ": 702,
      "ῖ": 703,
      "​": 704,
      "‌": 705,
      "‎": 706,
      "‐": 707,
      "‑": 708,
      "–": 709,
      "—": 710,
      "―": 711,
      "‘": 712,
      "’": 713,
      "“": 714,
      "”": 715,
      "„": 716,
      "†": 717,
      "•": 718,
      "…": 719,
      "‭": 720,
      "′": 721,
      "″": 722,
      "⁄": 723,
      "⁺": 724,
      "⁻": 725,
      "₀": 726,
      "₁": 727,
      "₂": 728,
      "₃": 729,
      "₄": 730,
      "₅": 731,
      "₆": 732,
      "₈": 733,
      "₤": 734,
      "₦": 735,
      "€": 736,
      "₹": 737,
      "№": 738,
      "™": 739,
      "⅘": 740,
      "⅛": 741,
      "→": 742,
      "∈": 743,
      "−": 744,
      "√": 745,
      "∞": 746,
      "∼": 747,
      "≈": 748,
      "≔": 749,
      "≤": 750,
      "≥": 751,
      "⊂": 752,
      "⊆": 753,
      "⋅": 754,
      "⌀": 755,
      "①": 756,
      "②": 757,
      "③": 758,
      "④": 759,
      "⑤": 760,
      "⑥": 761,
      "⑦": 762,
      "◾": 763,
      "★": 764,
      "☆": 765,
      "♠": 766,
      "♣": 767,
      "♥": 768,
      "♦": 769,
      "♪": 770,
      "♫": 771,
      "♬": 772,
      "⟨": 773,
      "⟩": 774,
      "⬄": 775,
      "⿰": 776,
      "⿱": 777,
      "⿺": 778,
      "、": 779,
      "《": 780,
      "》": 781,
      "「": 782,
      "」": 783,
      "『": 784,
      "』": 785,
      "あ": 786,
      "え": 787,
      "お": 788,
      "か": 789,
      "が": 790,
      "き": 791,
      "く": 792,
      "け": 793,
      "こ": 794,
      "ご": 795,
      "さ": 796,
      "ざ": 797,
      "し": 798,
      "す": 799,
      "せ": 800,
      "ぜ": 801,
      "た": 802,
      "ち": 803,
      "つ": 804,
      "づ": 805,
      "て": 806,
      "で": 807,
      "と": 808,
      "な": 809,
      "に": 810,
      "ね": 811,
      "の": 812,
      "は": 813,
      "ひ": 814,
      "び": 815,
      "ま": 816,
      "み": 817,
      "め": 818,
      "も": 819,
      "ゃ": 820,
      "や": 821,
      "ら": 822,
      "り": 823,
      "る": 824,
      "れ": 825,
      "ろ": 826,
      "わ": 827,
      "を": 828,
      "ん": 829,
      "ア": 830,
      "ィ": 831,
      "イ": 832,
      "ウ": 833,
      "ェ": 834,
      "エ": 835,
      "オ": 836,
      "カ": 837,
      "ガ": 838,
      "キ": 839,
      "ク": 840,
      "グ": 841,
      "ケ": 842,
      "コ": 843,
      "ゴ": 844,
      "サ": 845,
      "ザ": 846,
      "シ": 847,
      "ジ": 848,
      "ス": 849,
      "ズ": 850,
      "タ": 851,
      "ダ": 852,
      "ッ": 853,
      "テ": 854,
      "デ": 855,
      "ト": 856,
      "ド": 857,
      "ナ": 858,
      "ニ": 859,
      "バ": 860,
      "パ": 861,
      "ヒ": 862,
      "ビ": 863,
      "フ": 864,
      "ブ": 865,
      "プ": 866,
      "ベ": 867,
      "ペ": 868,
      "ホ": 869,
      "ボ": 870,
      "ポ": 871,
      "マ": 872,
      "ミ": 873,
      "ム": 874,
      "メ": 875,
      "モ": 876,
      "ャ": 877,
      "ヤ": 878,
      "ュ": 879,
      "ユ": 880,
      "ョ": 881,
      "ラ": 882,
      "リ": 883,
      "ル": 884,
      "ロ": 885,
      "ワ": 886,
      "ン": 887,
      "ヶ": 888,
      "・": 889,
      "ー": 890,
      "ㄌ": 891,
      "ㄑ": 892,
      "ㄒ": 893,
      "ㄓ": 894,
      "ㄕ": 895,
      "ㄘ": 896,
      "ㄚ": 897,
      "ㄢ": 898,
      "ㄣ": 899,
      "ㄤ": 900,
      "ㄧ": 901,
      "ㄨ": 902,
      "ㄩ": 903,
      "一": 904,
      "三": 905,
      "上": 906,
      "下": 907,
      "世": 908,
      "业": 909,
      "中": 910,
      "丸": 911,
      "久": 912,
      "亂": 913,
      "事": 914,
      "二": 915,
      "于": 916,
      "井": 917,
      "亡": 918,
      "京": 919,
      "人": 920,
      "介": 921,
      "仙": 922,
      "代": 923,
      "仲": 924,
      "伐": 925,
      "会": 926,
      "作": 927,
      "你": 928,
      "使": 929,
      "供": 930,
      "信": 931,
      "倉": 932,
      "値": 933,
      "倫": 934,
      "做": 935,
      "傳": 936,
      "元": 937,
      "光": 938,
      "公": 939,
      "共": 940,
      "关": 941,
      "兴": 942,
      "内": 943,
      "円": 944,
      "凱": 945,
      "刀": 946,
      "刃": 947,
      "分": 948,
      "刊": 949,
      "初": 950,
      "利": 951,
      "前": 952,
      "剣": 953,
      "力": 954,
      "务": 955,
      "動": 956,
      "勝": 957,
      "化": 958,
      "北": 959,
      "匯": 960,
      "區": 961,
      "十": 962,
      "協": 963,
      "南": 964,
      "博": 965,
      "卵": 966,
      "原": 967,
      "収": 968,
      "口": 969,
      "台": 970,
      "史": 971,
      "司": 972,
      "吉": 973,
      "名": 974,
      "后": 975,
      "味": 976,
      "命": 977,
      "和": 978,
      "啓": 979,
      "啦": 980,
      "喃": 981,
      "喇": 982,
      "喜": 983,
      "営": 984,
      "嘛": 985,
      "四": 986,
      "回": 987,
      "団": 988,
      "国": 989,
      "國": 990,
      "圖": 991,
      "土": 992,
      "在": 993,
      "均": 994,
      "城": 995,
      "培": 996,
      "堂": 997,
      "報": 998,
      "境": 999,
      "墨": 1000,
      "夏": 1001,
      "夕": 1002,
      "多": 1003,
      "大": 1004,
      "天": 1005,
      "夫": 1006,
      "央": 1007,
      "奈": 1008,
      "好": 1009,
      "子": 1010,
      "字": 1011,
      "存": 1012,
      "学": 1013,
      "守": 1014,
      "安": 1015,
      "完": 1016,
      "宗": 1017,
      "定": 1018,
      "宮": 1019,
      "實": 1020,
      "寿": 1021,
      "尹": 1022,
      "尾": 1023,
      "属": 1024,
      "山": 1025,
      "岁": 1026,
      "岛": 1027,
      "岡": 1028,
      "岩": 1029,
      "島": 1030,
      "崔": 1031,
      "川": 1032,
      "工": 1033,
      "巴": 1034,
      "市": 1035,
      "希": 1036,
      "帯": 1037,
      "幫": 1038,
      "干": 1039,
      "平": 1040,
      "幸": 1041,
      "幻": 1042,
      "広": 1043,
      "式": 1044,
      "弥": 1045,
      "彦": 1046,
      "御": 1047,
      "德": 1048,
      "心": 1049,
      "志": 1050,
      "忠": 1051,
      "念": 1052,
      "情": 1053,
      "想": 1054,
      "愛": 1055,
      "成": 1056,
      "我": 1057,
      "战": 1058,
      "戯": 1059,
      "戲": 1060,
      "戸": 1061,
      "扇": 1062,
      "才": 1063,
      "扬": 1064,
      "承": 1065,
      "技": 1066,
      "挂": 1067,
      "措": 1068,
      "揚": 1069,
      "摺": 1070,
      "敎": 1071,
      "敏": 1072,
      "教": 1073,
      "文": 1074,
      "斗": 1075,
      "新": 1076,
      "方": 1077,
      "日": 1078,
      "早": 1079,
      "旺": 1080,
      "昌": 1081,
      "時": 1082,
      "晃": 1083,
      "景": 1084,
      "智": 1085,
      "書": 1086,
      "會": 1087,
      "望": 1088,
      "朝": 1089,
      "木": 1090,
      "末": 1091,
      "本": 1092,
      "村": 1093,
      "束": 1094,
      "東": 1095,
      "松": 1096,
      "析": 1097,
      "染": 1098,
      "柚": 1099,
      "校": 1100,
      "桥": 1101,
      "森": 1102,
      "楊": 1103,
      "楼": 1104,
      "楽": 1105,
      "樂": 1106,
      "横": 1107,
      "次": 1108,
      "歌": 1109,
      "正": 1110,
      "步": 1111,
      "死": 1112,
      "民": 1113,
      "気": 1114,
      "水": 1115,
      "永": 1116,
      "江": 1117,
      "決": 1118,
      "沢": 1119,
      "河": 1120,
      "法": 1121,
      "活": 1122,
      "浦": 1123,
      "海": 1124,
      "清": 1125,
      "渋": 1126,
      "渡": 1127,
      "港": 1128,
      "湖": 1129,
      "漢": 1130,
      "漬": 1131,
      "澧": 1132,
      "濡": 1133,
      "火": 1134,
      "灯": 1135,
      "炊": 1136,
      "煮": 1137,
      "熱": 1138,
      "燃": 1139,
      "父": 1140,
      "物": 1141,
      "狙": 1142,
      "玉": 1143,
      "珍": 1144,
      "珪": 1145,
      "現": 1146,
      "球": 1147,
      "理": 1148,
      "琉": 1149,
      "生": 1150,
      "田": 1151,
      "由": 1152,
      "男": 1153,
      "町": 1154,
      "画": 1155,
      "畵": 1156,
      "疆": 1157,
      "疎": 1158,
      "発": 1159,
      "白": 1160,
      "的": 1161,
      "皇": 1162,
      "益": 1163,
      "盧": 1164,
      "県": 1165,
      "真": 1166,
      "知": 1167,
      "研": 1168,
      "破": 1169,
      "社": 1170,
      "祀": 1171,
      "神": 1172,
      "祥": 1173,
      "祭": 1174,
      "福": 1175,
      "稔": 1176,
      "稲": 1177,
      "積": 1178,
      "究": 1179,
      "笑": 1180,
      "第": 1181,
      "筆": 1182,
      "筑": 1183,
      "節": 1184,
      "系": 1185,
      "紅": 1186,
      "純": 1187,
      "素": 1188,
      "絵": 1189,
      "綱": 1190,
      "線": 1191,
      "縣": 1192,
      "结": 1193,
      "置": 1194,
      "美": 1195,
      "群": 1196,
      "義": 1197,
      "职": 1198,
      "股": 1199,
      "育": 1200,
      "能": 1201,
      "腕": 1202,
      "臨": 1203,
      "致": 1204,
      "臼": 1205,
      "興": 1206,
      "舞": 1207,
      "良": 1208,
      "芦": 1209,
      "花": 1210,
      "若": 1211,
      "英": 1212,
      "茶": 1213,
      "药": 1214,
      "莫": 1215,
      "藍": 1216,
      "藥": 1217,
      "藻": 1218,
      "虫": 1219,
      "蝶": 1220,
      "行": 1221,
      "街": 1222,
      "衫": 1223,
      "袁": 1224,
      "裕": 1225,
      "要": 1226,
      "観": 1227,
      "言": 1228,
      "記": 1229,
      "誌": 1230,
      "語": 1231,
      "議": 1232,
      "训": 1233,
      "讲": 1234,
      "谷": 1235,
      "豊": 1236,
      "象": 1237,
      "豫": 1238,
      "貞": 1239,
      "財": 1240,
      "賞": 1241,
      "赤": 1242,
      "赫": 1243,
      "起": 1244,
      "越": 1245,
      "蹴": 1246,
      "軍": 1247,
      "軒": 1248,
      "転": 1249,
      "轄": 1250,
      "轉": 1251,
      "辦": 1252,
      "辺": 1253,
      "込": 1254,
      "返": 1255,
      "进": 1256,
      "迫": 1257,
      "逆": 1258,
      "通": 1259,
      "週": 1260,
      "進": 1261,
      "遊": 1262,
      "運": 1263,
      "過": 1264,
      "道": 1265,
      "郎": 1266,
      "鄉": 1267,
      "鄰": 1268,
      "里": 1269,
      "野": 1270,
      "金": 1271,
      "鉄": 1272,
      "錦": 1273,
      "録": 1274,
      "鎮": 1275,
      "鑴": 1276,
      "長": 1277,
      "长": 1278,
      "開": 1279,
      "関": 1280,
      "问": 1281,
      "阪": 1282,
      "院": 1283,
      "霞": 1284,
      "靈": 1285,
      "青": 1286,
      "静": 1287,
      "面": 1288,
      "革": 1289,
      "韓": 1290,
      "音": 1291,
      "题": 1292,
      "風": 1293,
      "飯": 1294,
      "館": 1295,
      "香": 1296,
      "體": 1297,
      "高": 1298,
      "魁": 1299,
      "魚": 1300,
      "鮮": 1301,
      "鳥": 1302,
      "黃": 1303,
      "黄": 1304,
      "ꭴ": 1305,
      "ꭹ": 1306,
      "ꮅ": 1307,
      "ꮕ": 1308,
      "ꮝ": 1309,
      "ꮢ": 1310,
      "ꮣ": 1311,
      "ꯀ": 1312,
      "ꯁ": 1313,
      "ꯂ": 1314,
      "ꯃ": 1315,
      "ꯄ": 1316,
      "ꯅ": 1317,
      "ꯈ": 1318,
      "ꯉ": 1319,
      "ꯊ": 1320,
      "ꯍ": 1321,
      "ꯏ": 1322,
      "ꯑ": 1323,
      "ꯔ": 1324,
      "ꯕ": 1325,
      "ꯗ": 1326,
      "ꯜ": 1327,
      "ꯟ": 1328,
      "ꯡ": 1329,
      "ꯢ": 1330,
      "ꯣ": 1331,
      "ꯤ": 1332,
      "ꯥ": 1333,
      "ꯦ": 1334,
      "ꯧ": 1335,
      "ꯨ": 1336,
      "ꯩ": 1337,
      "가": 1338,
      "강": 1339,
      "괴": 1340,
      "국": 1341,
      "나": 1342,
      "널": 1343,
      "노": 1344,
      "대": 1345,
      "도": 1346,
      "두": 1347,
      "라": 1348,
      "란": 1349,
      "래": 1350,
      "럼": 1351,
      "리": 1352,
      "말": 1353,
      "매": 1354,
      "미": 1355,
      "민": 1356,
      "백": 1357,
      "보": 1358,
      "부": 1359,
      "불": 1360,
      "사": 1361,
      "산": 1362,
      "삼": 1363,
      "서": 1364,
      "선": 1365,
      "소": 1366,
      "술": 1367,
      "스": 1368,
      "승": 1369,
      "실": 1370,
      "아": 1371,
      "안": 1372,
      "애": 1373,
      "어": 1374,
      "옥": 1375,
      "왕": 1376,
      "우": 1377,
      "유": 1378,
      "윤": 1379,
      "이": 1380,
      "익": 1381,
      "일": 1382,
      "정": 1383,
      "제": 1384,
      "조": 1385,
      "중": 1386,
      "진": 1387,
      "창": 1388,
      "채": 1389,
      "최": 1390,
      "치": 1391,
      "코": 1392,
      "티": 1393,
      "포": 1394,
      "하": 1395,
      "한": 1396,
      "행": 1397,
      "헌": 1398,
      "혁": 1399,
      "협": 1400,
      "호": 1401,
      "화": 1402,
      "회": 1403,
      "휴": 1404,
      "희": 1405,
      "ﬂ": 1406,
      "︢": 1407,
      "ﺍ": 1408,
      "ﺒ": 1409,
      "ﻟ": 1410,
      "ﻨ": 1411,
      "ﻲ": 1412,
      "！": 1413,
      "（": 1414,
      "）": 1415,
      "，": 1416,
      "．": 1417,
      "２": 1418,
      "５": 1419,
      "？": 1420,
      "～": 1421,
      "�": 1422,
      "𐎹": 1423,
      "𒀸": 1424,
      "𒁺": 1425,
      "𒋗": 1426,
      "##a": 1427,
      "##n": 1428,
      "##t": 1429,
      "##o": 1430,
      "##m": 1431,
      "##s": 1432,
      "##i": 1433,
      "##k": 1434,
      "##e": 1435,
      "##4": 1436,
      "##6": 1437,
      "##h": 1438,
      "##r": 1439,
      "##v": 1440,
      "##p": 1441,
      "##z": 1442,
      "##l": 1443,
      "##g": 1444,
      "##w": 1445,
      "##ä": 1446,
      "##d": 1447,
      "##u": 1448,
      "##b": 1449,
      "##c": 1450,
      "##.": 1451,
      "##\"": 1452,
      "##q": 1453,
      "##f": 1454,
      "##y": 1455,
      "##τ": 1456,
      "##2": 1457,
      "##j": 1458,
      "##ե": 1459,
      "##ղ": 1460,
      "##ա": 1461,
      "##կ": 1462,
      "##ր": 1463,
      "##օ": 1464,
      "##ն": 1465,
      "##x": 1466,
      "##ı": 1467,
      "##1": 1468,
      "##0": 1469,
      "##3": 1470,
      "##5": 1471,
      "##7": 1472,
      "##ü": 1473,
      "##ş": 1474,
      "##8": 1475,
      "##*": 1476,
      "##ū": 1477,
      "##ā": 1478,
      "##ī": 1479,
      "##9": 1480,
      "##ع": 1481,
      "##ا": 1482,
      "##د": 1483,
      "##-": 1484,
      "##'": 1485,
      "##ú": 1486,
      "##è": 1487,
      "##;": 1488,
      "##)": 1489,
      "##,": 1490,
      "##<": 1491,
      "##í": 1492,
      "##é": 1493,
      "##ο": 1494,
      "##か": 1495,
      "##わ": 1496,
      "##観": 1497,
      "##光": 1498,
      "##協": 1499,
      "##会": 1500,
      "##à": 1501,
      "##â": 1502,
      "##ệ": 1503,
      "##ç": 1504,
      "##õ": 1505,
      "##&": 1506,
      "##ể": 1507,
      "##ح": 1508,
      "##ي": 1509,
      "##ï": 1510,
      "##ö": 1511,
      "##ō": 1512,
      "##ŋ": 1513,
      "##ê": 1514,
      "##?": 1515,
      "##а": 1516,
      "##р": 1517,
      "##к": 1518,
      "##о": 1519,
      "##в": 1520,
      "##и": 1521,
      "##ћ": 1522,
      "##у": 1523,
      "##т": 1524,
      "##я": 1525,
      "##ó": 1526,
      "##‘": 1527,
      "##": 1528,
      "##ř": 1529,
      "##ꯕ": 1530,
      "##ꯤ": 1531,
      "##ש": 1532,
      "##ר": 1533,
      "##א": 1534,
      "##ל": 1535,
      "##ñ": 1536,
      "##±": 1537,
      "##ن": 1538,
      "##گ": 1539,
      "##ى": 1540,
      "##ء": 1541,
      "##ł": 1542,
      "##ę": 1543,
      "##ш": 1544,
      "##α": 1545,
      "##=": 1546,
      "##š": 1547,
      "##ắ": 1548,
      "##á": 1549,
      "##ć": 1550,
      "##र": 1551,
      "##ी": 1552,
      "##म": 1553,
      "##良": 1554,
      "##漬": 1555,
      "##č": 1556,
      "##ő": 1557,
      "##و": 1558,
      "##ر": 1559,
      "##ی": 1560,
      "##ô": 1561,
      "##/": 1562,
      "##ș": 1563,
      "##山": 1564,
      "##城": 1565,
      "##博": 1566,
      "##物": 1567,
      "##館": 1568,
      "##с": 1569,
      "##ø": 1570,
      "##ở": 1571,
      "##ğ": 1572,
      "##̧": 1573,
      "##_": 1574,
      "##$": 1575,
      "##§": 1576,
      "##å": 1577,
      "##!": 1578,
      "##ộ": 1579,
      "###": 1580,
      "##ẕ": 1581,
      "##ャ": 1582,
      "##ガ": 1583,
      "##ー": 1584,
      "##ズ": 1585,
      "##中": 1586,
      "##湖": 1587,
      "##イ": 1588,
      "##ド": 1589,
      "##н": 1590,
      "##д": 1591,
      "##국": 1592,
      "##어": 1593,
      "##衫": 1594,
      "##ß": 1595,
      "##−": 1596,
      "##ứ": 1597,
      "##υ": 1598,
      "##ė": 1599,
      "##ה": 1600,
      "##י": 1601,
      "##נ": 1602,
      "##ו": 1603,
      "##η": 1604,
      "##ã": 1605,
      "##ÿ": 1606,
      "##ʻ": 1607,
      "##ा": 1608,
      "##स": 1609,
      "##ص": 1610,
      "##ف": 1611,
      "##ه": 1612,
      "##յ": 1613,
      "##ầ": 1614,
      "##î": 1615,
      "##º": 1616,
      "##ि": 1617,
      "##भ": 1618,
      "##ू": 1619,
      "##त": 1620,
      "##}": 1621,
      "##ē": 1622,
      "##ģ": 1623,
      "##ɪ": 1624,
      "##ɾ": 1625,
      "##ʲ": 1626,
      "##ˈ": 1627,
      "##ː": 1628,
      "##ə": 1629,
      "##+": 1630,
      "##ý": 1631,
      "##ì": 1632,
      "##化": 1633,
      "##誌": 1634,
      "##水": 1635,
      "##大": 1636,
      "##桥": 1637,
      "##ে": 1638,
      "##খ": 1639,
      "##‎": 1640,
      "##ś": 1641,
      "##ń": 1642,
      "##:": 1643,
      "##û": 1644,
      "##ム": 1645,
      "##ミ": 1646,
      "##ン": 1647,
      "##タ": 1648,
      "##ラ": 1649,
      "##ą": 1650,
      "##ž": 1651,
      "##ੱ": 1652,
      "##ਲ": 1653,
      "##ੀ": 1654,
      "##ਆ": 1655,
      "##ਂ": 1656,
      "##ʿ": 1657,
      "##”": 1658,
      "##ề": 1659,
      "##ư": 1660,
      "##β": 1661,
      "##æ": 1662,
      "##\\": 1663,
      "##ǎ": 1664,
      "##ṇ": 1665,
      "##ꯣ": 1666,
      "##ꯢ": 1667,
      "##і": 1668,
      "##ђ": 1669,
      "##ц": 1670,
      "##س": 1671,
      "##ت": 1672,
      "##य": 1673,
      "##ă": 1674,
      "##バ": 1675,
      "##ト": 1676,
      "##は": 1677,
      "##“": 1678,
      "##忠": 1679,
      "##夫": 1680,
      "##­": 1681,
      "##ꯥ": 1682,
      "##ꯡ": 1683,
      "##ǐ": 1684,
      "##海": 1685,
      "##(": 1686,
      "##樂": 1687,
      "##ò": 1688,
      "##—": 1689,
      "##ŭ": 1690,
      "##ț": 1691,
      "##き": 1692,
      "##込": 1693,
      "##み": 1694,
      "##ご": 1695,
      "##飯": 1696,
      "##川": 1697,
      "##ひ": 1698,
      "##ろ": 1699,
      "##し": 1700,
      "##キ": 1701,
      "##字": 1702,
      "##đ": 1703,
      "##莫": 1704,
      "##ź": 1705,
      "##ħ": 1706,
      "##ự": 1707,
      "##선": 1708,
      "##傳": 1709,
      "##्": 1710,
      "##न": 1711,
      "##ざ": 1712,
      "##ま": 1713,
      "##ユ": 1714,
      "##オ": 1715,
      "##창": 1716,
      "##익": 1717,
      "##": 1718,
      "##ʰ": 1719,
      "##व": 1720,
      "##ष": 1721,
      "##द": 1722,
      "##ꯟ": 1723,
      "##ꯊ": 1724,
      "##ꯏ": 1725,
      "##摺": 1726,
      "##絵": 1727,
      "##́": 1728,
      "##ľ": 1729,
      "##ţ": 1730,
      "##口": 1731,
      "##ヒ": 1732,
      "##デ": 1733,
      "##’": 1734,
      "##ς": 1735,
      "##ấ": 1736,
      "##ả": 1737,
      "##χ": 1738,
      "##ग": 1739,
      "##ो": 1740,
      "##|": 1741,
      "##μ": 1742,
      "##ύ": 1743,
      "##κ": 1744,
      "##λ": 1745,
      "##ι": 1746,
      "##@": 1747,
      "##球": 1748,
      "##ո": 1749,
      "##ւ": 1750,
      "##մ": 1751,
      "##բ": 1752,
      "##嘛": 1753,
      "##轉": 1754,
      "##世": 1755,
      "##辦": 1756,
      "##法": 1757,
      "##⁄": 1758,
      "##₁": 1759,
      "##₆": 1760,
      "##ો": 1761,
      "##ક": 1762,
      "##味": 1763,
      "##線": 1764,
      "##ј": 1765,
      "##œ": 1766,
      "##े": 1767,
      "##ż": 1768,
      "##ů": 1769,
      "##ঙ": 1770,
      "##্": 1771,
      "##গ": 1772,
      "##ী": 1773,
      "##ত": 1774,
      "##ل": 1775,
      "##ط": 1776,
      "##ŵ": 1777,
      "##θ": 1778,
      "##̇": 1779,
      "##¨": 1780,
      "##þ": 1781,
      "##ồ": 1782,
      "##م": 1783,
      "##ṃ": 1784,
      "##ỳ": 1785,
      "##も": 1786,
      "##ņ": 1787,
      "##金": 1788,
      "##ッ": 1789,
      "##̍": 1790,
      "##♠": 1791,
      "##َ": 1792,
      "##أ": 1793,
      "##ُ": 1794,
      "##۟": 1795,
      "##股": 1796,
      "##]": 1797,
      "##ಾ": 1798,
      "##ﬂ": 1799,
      "##​": 1800,
      "##ν": 1801,
      "##ớ": 1802,
      "##ḥ": 1803,
      "##藥": 1804,
      "##リ": 1805,
      "##ブ": 1806,
      "##プ": 1807,
      "##の": 1808,
      "##理": 1809,
      "##由": 1810,
      "##ب": 1811,
      "##ë": 1812,
      "##風": 1813,
      "##土": 1814,
      "##ӱ": 1815,
      "##ດ": 1816,
      "##່": 1817,
      "##ạ": 1818,
      "##진": 1819,
      "##혁": 1820,
      "##ữ": 1821,
      "##₀": 1822,
      "##[": 1823,
      "##ά": 1824,
      "##क": 1825,
      "##子": 1826,
      "##江": 1827,
      "##ア": 1828,
      "##ु": 1829,
      "##ट": 1830,
      "##м": 1831,
      "##前": 1832,
      "##煮": 1833,
      "##": 1834,
      "##х": 1835,
      "##е": 1836,
      "##й": 1837,
      "##ы": 1838,
      "##ε": 1839,
      "##°": 1840,
      "##ੇ": 1841,
      "##ਰ": 1842,
      "##松": 1843,
      "##愛": 1844,
      "##চ": 1845,
      "##ন": 1846,
      "##া": 1847,
      "##র": 1848,
      "##ꯩ": 1849,
      "##田": 1850,
      "##裕": 1851,
      "##次": 1852,
      "##ρ": 1853,
      "##ի": 1854,
      "##^": 1855,
      "##ك": 1856,
      "##ξ": 1857,
      "##থ": 1858,
      "##ण": 1859,
      "##ख": 1860,
      "##ह": 1861,
      "##ं": 1862,
      "##ṁ": 1863,
      "##議": 1864,
      "##事": 1865,
      "##堂": 1866,
      "##л": 1867,
      "##리": 1868,
      "##나": 1869,
      "##라": 1870,
      "##ж": 1871,
      "##れ": 1872,
      "##た": 1873,
      "##街": 1874,
      "##ừ": 1875,
      "##ʊ": 1876,
      "##ָ": 1877,
      "##ׁ": 1878,
      "##ꯅ": 1879,
      "##ꯨ": 1880,
      "##ध": 1881,
      "##प": 1882,
      "##ल": 1883,
      "##♣": 1884,
      "##ῖ": 1885,
      "##ě": 1886,
      "##ế": 1887,
      "##ꮅ": 1888,
      "##ꮢ": 1889,
      "##ꮝ": 1890,
      "##ꮣ": 1891,
      "##ꮕ": 1892,
      "##ᏹ": 1893,
      "##筆": 1894,
      "##啓": 1895,
      "##上": 1896,
      "##賞": 1897,
      "##¡": 1898,
      "##ْ": 1899,
      "##ِ": 1900,
      "##で": 1901,
      "##エ": 1902,
      "##ジ": 1903,
      "##ョ": 1904,
      "##ダ": 1905,
      "##ω": 1906,
      "##ό": 1907,
      "##ร": 1908,
      "##ุ": 1909,
      "##ง": 1910,
      "##เ": 1911,
      "##ท": 1912,
      "##พ": 1913,
      "##ม": 1914,
      "##ห": 1915,
      "##า": 1916,
      "##น": 1917,
      "##ค": 1918,
      "##ג": 1919,
      "##ת": 1920,
      "##ፍ": 1921,
      "##ወ": 1922,
      "##ር": 1923,
      "##ቂ": 1924,
      "##ð": 1925,
      "##ः": 1926,
      "##広": 1927,
      "##승": 1928,
      "##민": 1929,
      "##ꯔ": 1930,
      "##ꯧ": 1931,
      "##ꯍ": 1932,
      "##多": 1933,
      "##村": 1934,
      "##郎": 1935,
      "##ـ": 1936,
      "##ٰ": 1937,
      "##우": 1938,
      "##ج": 1939,
      "##ث": 1940,
      "##`": 1941,
      "##ロ": 1942,
      "##ペ": 1943,
      "##ニ": 1944,
      "##メ": 1945,
      "##ậ": 1946,
      "##ผ": 1947,
      "##่": 1948,
      "##ợ": 1949,
      "##ェ": 1950,
      "##ボ": 1951,
      "##ク": 1952,
      "##シ": 1953,
      "##グ": 1954,
      "##פ": 1955,
      "##г": 1956,
      "##π": 1957,
      "##稔": 1958,
      "##仲": 1959,
      "##ť": 1960,
      "##چ": 1961,
      "##ब": 1962,
      "##ರ": 1963,
      "##ಣ": 1964,
      "##ㄨ": 1965,
      "##ㄣ": 1966,
      "##さ": 1967,
      "##せ": 1968,
      "##昌": 1969,
      "##益": 1970,
      "##綱": 1971,
      "##行": 1972,
      "##實": 1973,
      "##圖": 1974,
      "##ิ": 1975,
      "##ญ": 1976,
      "##โ": 1977,
      "##%": 1978,
      "##©": 1979,
      "##غ": 1980,
      "##ة": 1981,
      "##ル": 1982,
      "##岡": 1983,
      "##ি": 1984,
      "##দ": 1985,
      "##ধ": 1986,
      "##ץ": 1987,
      "##ǒ": 1988,
      "##ュ": 1989,
      "##ザ": 1990,
      "##ὐ": 1991,
      "##ώ": 1992,
      "##ủ": 1993,
      "##₄": 1994,
      "##ّ": 1995,
      "##치": 1996,
      "##왕": 1997,
      "##ظ": 1998,
      "##志": 1999,
      "##和": 2000,
      "##彦": 2001,
      "##з": 2002,
      "##ỗ": 2003,
      "##ら": 2004,
      "##寿": 2005,
      "##司": 2006,
      "##在": 2007,
      "##四": 2008,
      "##方": 2009,
      "##£": 2010,
      "##강": 2011,
      "##행": 2012,
      "##실": 2013,
      "##도": 2014,
      "##沢": 2015,
      "##進": 2016,
      "##ワ": 2017,
      "##才": 2018,
      "##三": 2019,
      "##岁": 2020,
      "##药": 2021,
      "##ї": 2022,
      "##말": 2023,
      "##ল": 2024,
      "##幸": 2025,
      "##ǫ": 2026,
      "##б": 2027,
      "##ү": 2028,
      "##ф": 2029,
      "##ә": 2030,
      "##ス": 2031,
      "##フ": 2032,
      "##テ": 2033,
      "##ィ": 2034,
      "##п": 2035,
      "##ч": 2036,
      "##ь": 2037,
      "##ই": 2038,
      "##স": 2039,
      "##য": 2040,
      "##»": 2041,
      "##景": 2042,
      "##च": 2043,
      "##ີ": 2044,
      "##້": 2045,
      "##श": 2046,
      "##₂": 2047,
      "##ケ": 2048,
      "##に": 2049,
      "##迫": 2050,
      "##力": 2051,
      "##ポ": 2052,
      "##史": 2053,
      "##京": 2054,
      "##ù": 2055,
      "##づ": 2056,
      "##け": 2057,
      "##ৈ": 2058,
      "##ٱ": 2059,
      "##ٓ": 2060,
      "##ئ": 2061,
      "##越": 2062,
      "##亡": 2063,
      "##的": 2064,
      "##遊": 2065,
      "##戲": 2066,
      "##산": 2067,
      "##사": 2068,
      "##회": 2069,
      "##정": 2070,
      "##보": 2071,
      "##포": 2072,
      "##럼": 2073,
      "##純": 2074,
      "##ọ": 2075,
      "##ሳ": 2076,
      "##ይ": 2077,
      "##ያ": 2078,
      "##ስ": 2079,
      "##ṯ": 2080,
      "##干": 2081,
      "##挂": 2082,
      "##啦": 2083,
      "##ˌ": 2084,
      "##♫": 2085,
      "##ق": 2086,
      "##տ": 2087,
      "##ử": 2088,
      "##ش": 2089,
      "##御": 2090,
      "##़": 2091,
      "##스": 2092,
      "##코": 2093,
      "##아": 2094,
      "##լ": 2095,
      "##⿱": 2096,
      "##ǔ": 2097,
      "##敎": 2098,
      "##安": 2099,
      "##ṣ": 2100,
      "##¦": 2101,
      "##σ": 2102,
      "##έ": 2103,
      "##讲": 2104,
      "##ẓ": 2105,
      "##ṛ": 2106,
      "##す": 2107,
      "##る": 2108,
      "##生": 2109,
      "##人": 2110,
      "##ු": 2111,
      "##ර": 2112,
      "##න": 2113,
      "##ි": 2114,
      "##ම": 2115,
      "##ල": 2116,
      "##ศ": 2117,
      "##ธ": 2118,
      "##夕": 2119,
      "##介": 2120,
      "##ป": 2121,
      "##ล": 2122,
      "##ก": 2123,
      "##ơ": 2124,
      "##०": 2125,
      "##¶": 2126,
      "##名": 2127,
      "##喜": 2128,
      "##元": 2129,
      "##完": 2130,
      "##ň": 2131,
      "##知": 2132,
      "##>": 2133,
      "##ὰ": 2134,
      "##ᵇ": 2135,
      "##ˡ": 2136,
      "##ᵉ": 2137,
      "##매": 2138,
      "##画": 2139,
      "##あ": 2140,
      "##り": 2141,
      "##ম": 2142,
      "##國": 2143,
      "##語": 2144,
      "##ặ": 2145,
      "##卵": 2146,
      "##ẽ": 2147,
      "##ב": 2148,
      "##珍": 2149,
      "##赫": 2150,
      "##": 2151,
      "##内": 2152,
      "##ŏ": 2153,
      "##מ": 2154,
      "##ע": 2155,
      "##ꯄ": 2156,
      "##ṭ": 2157,
      "##ک": 2158,
      "##¾": 2159,
      "##×": 2160,
      "##ɜ": 2161,
      "##染": 2162,
      "##ু": 2163,
      "##ষ": 2164,
      "##ট": 2165,
      "##ή": 2166,
      "##²": 2167,
      "##蝶": 2168,
      "##楼": 2169,
      "##ち": 2170,
      "##ゃ": 2171,
      "##ん": 2172,
      "##হ": 2173,
      "##ੰ": 2174,
      "##ਜ": 2175,
      "##ਾ": 2176,
      "##ਬ": 2177,
      "##ㄧ": 2178,
      "##ㄢ": 2179,
      "##ˋ": 2180,
      "##ㄒ": 2181,
      "##ㄚ": 2182,
      "##ˊ": 2183,
      "##ㄕ": 2184,
      "##ز": 2185,
      "##ḩ": 2186,
      "##楽": 2187,
      "##ナ": 2188,
      "##务": 2189,
      "##院": 2190,
      "##关": 2191,
      "##于": 2192,
      "##进": 2193,
      "##一": 2194,
      "##步": 2195,
      "##做": 2196,
      "##好": 2197,
      "##宗": 2198,
      "##教": 2199,
      "##工": 2200,
      "##作": 2201,
      "##若": 2202,
      "##问": 2203,
      "##题": 2204,
      "##通": 2205,
      "##호": 2206,
      "##ব": 2207,
      "##প": 2208,
      "##ক": 2209,
      "##˜": 2210,
      "##ʾ": 2211,
      "##マ": 2212,
      "##カ": 2213,
      "##ۆ": 2214,
      "##ژ": 2215,
      "##ד": 2216,
      "##凱": 2217,
      "##·": 2218,
      "##ď": 2219,
      "##ί": 2220,
      "##ṅ": 2221,
      "##国": 2222,
      "##战": 2223,
      "##′": 2224,
      "##や": 2225,
      "##™": 2226,
      "##₃": 2227,
      "##{": 2228,
      "##थ": 2229,
      "##転": 2230,
      "##ḻ": 2231,
      "##̤": 2232,
      "##野": 2233,
      "##成": 2234,
      "##ช": 2235,
      "##ว": 2236,
      "##…": 2237,
      "##ぜ": 2238,
      "##社": 2239,
      "##現": 2240,
      "##象": 2241,
      "##آ": 2242,
      "##ً": 2243,
      "##ۢ": 2244,
      "##つ": 2245,
      "##µ": 2246,
      "##ಟ": 2247,
      "##ೀ": 2248,
      "##ಲ": 2249,
      "##್": 2250,
      "##–": 2251,
      "##թ": 2252,
      "##ս": 2253,
      "##ঞ": 2254,
      "##জ": 2255,
      "##ḵ": 2256,
      "##ụ": 2257,
      "##二": 2258,
      "##収": 2259,
      "##録": 2260,
      "##決": 2261,
      "##♪": 2262,
      "##軒": 2263,
      "##︢": 2264,
      "##ց": 2265,
      "##₈": 2266,
      "##魚": 2267,
      "##鮮": 2268,
      "##「": 2269,
      "##ʼ": 2270,
      "##天": 2271,
      "##จ": 2272,
      "##致": 2273,
      "##旺": 2274,
      "##บ": 2275,
      "##ู": 2276,
      "##ส": 2277,
      "##ා": 2278,
      "##ජ": 2279,
      "##ප": 2280,
      "##ක": 2281,
      "##්": 2282,
      "##ෂ": 2283,
      "##ۥ": 2284,
      "##ɛ": 2285,
      "##ੁ": 2286,
      "##ਗ": 2287,
      "##ਵ": 2288,
      "##술": 2289,
      "##래": 2290,
      "##文": 2291,
      "##週": 2292,
      "##刊": 2293,
      "##¬": 2294,
      "##½": 2295,
      "##ꯃ": 2296,
      "##魁": 2297,
      "##井": 2298,
      "##吉": 2299,
      "##ㄩ": 2300,
      "##ổ": 2301,
      "##ю": 2302,
      "##ะ": 2303,
      "##้": 2304,
      "##√": 2305,
      "##헌": 2306,
      "##な": 2307,
      "##こ": 2308,
      "##소": 2309,
      "##∞": 2310,
      "##珪": 2311,
      "##휴": 2312,
      "##": 2313,
      "##ח": 2314,
      "##ヶ": 2315,
      "##藻": 2316,
      "##音": 2317,
      "##ອ": 2318,
      "##ກ": 2319,
      "##ꯦ": 2320,
      "##ꯜ": 2321,
      "##ỏ": 2322,
      "##兴": 2323,
      "##岛": 2324,
      "##供": 2325,
      "##轄": 2326,
      "##市": 2327,
      "##疆": 2328,
      "##职": 2329,
      "##业": 2330,
      "##技": 2331,
      "##能": 2332,
      "##育": 2333,
      "##培": 2334,
      "##训": 2335,
      "##心": 2336,
      "##ொ": 2337,
      "##ல": 2338,
      "##்": 2339,
      "##巴": 2340,
      "##ố": 2341,
      "##ছ": 2342,
      "##台": 2343,
      "##ذ": 2344,
      "##ŕ": 2345,
      "##ᾳ": 2346,
      "##δ": 2347,
      "##ί": 2348,
      "##阪": 2349,
      "##괴": 2350,
      "##ਨ": 2351,
      "##ਓ": 2352,
      "##ਣ": 2353,
      "##٨": 2354,
      "##義": 2355,
      "##信": 2356,
      "##ﻟ": 2357,
      "##ﻨ": 2358,
      "##ﺒ": 2359,
      "##ﻲ": 2360,
      "##が": 2361,
      "##東": 2362,
      "##¼": 2363,
      "##♥": 2364,
      "##ờ": 2365,
      "##⟩": 2366,
      "##ฬ": 2367,
      "##ณ": 2368,
      "##์": 2369,
      "##ং": 2370,
      "##¢": 2371,
      "##木": 2372,
      "##と": 2373,
      "##稲": 2374,
      "##学": 2375,
      "##系": 2376,
      "##属": 2377,
      "##早": 2378,
      "##渋": 2379,
      "##谷": 2380,
      "##校": 2381,
      "##ෙ": 2382,
      "##ज": 2383,
      "##₅": 2384,
      "##ণ": 2385,
      "##を": 2386,
      "##開": 2387,
      "##ễ": 2388,
      "##式": 2389,
      "##ホ": 2390,
      "##ɔ": 2391,
      "##疎": 2392,
      "##逆": 2393,
      "##境": 2394,
      "##ね": 2395,
      "##返": 2396,
      "##活": 2397,
      "##燃": 2398,
      "##え": 2399,
      "##て": 2400,
      "##く": 2401,
      "##়": 2402,
      "##¹": 2403,
      "##结": 2404,
      "##애": 2405,
      "##란": 2406,
      "##க": 2407,
      "##ா": 2408,
      "##ப": 2409,
      "##ி": 2410,
      "##ய": 2411,
      "##ம": 2412,
      "##ɒ": 2413,
      "##ಕ": 2414,
      "##ಶ": 2415,
      "##♬": 2416,
      "##び": 2417,
      "##ো": 2418,
      "##‌": 2419,
      "##北": 2420,
      "##ỉ": 2421,
      "##ਥ": 2422,
      "##ṟ": 2423,
      "##̄": 2424,
      "##널": 2425,
      "##利": 2426,
      "##男": 2427,
      "##道": 2428,
      "##下": 2429,
      "##町": 2430,
      "##発": 2431,
      "##祥": 2432,
      "##民": 2433,
      "##革": 2434,
      "##命": 2435,
      "##軍": 2436,
      "##伐": 2437,
      "##শ": 2438,
      "##¤": 2439,
      "##喃": 2440,
      "##̨": 2441,
      "##～": 2442,
      "##森": 2443,
      "##ै": 2444,
      "##ĩ": 2445,
      "##ഞ": 2446,
      "##്": 2447,
      "##ച": 2448,
      "##ാ": 2449,
      "##ര": 2450,
      "##ം": 2451,
      "##⿺": 2452,
      "##티": 2453,
      "##港": 2454,
      "##幫": 2455,
      "##鑴": 2456,
      "##•": 2457,
      "##貞": 2458,
      "##皇": 2459,
      "##興": 2460,
      "##島": 2461,
      "##화": 2462,
      "##협": 2463,
      "##ৃ": 2464,
      "##ভ": 2465,
      "##浦": 2466,
      "##가": 2467,
      "##γ": 2468,
      "##ά": 2469,
      "##刃": 2470,
      "##刀": 2471,
      "##鳥": 2472,
      "##過": 2473,
      "##扇": 2474,
      "##モ": 2475,
      "##面": 2476,
      "##積": 2477,
      "##ੈ": 2478,
      "##♦": 2479,
      "##ુ": 2480,
      "##જ": 2481,
      "##ર": 2482,
      "##ા": 2483,
      "##ત": 2484,
      "##ી": 2485,
      "##横": 2486,
      "##ұ": 2487,
      "##আ": 2488,
      "##ʹ": 2489,
      "##𒋗": 2490,
      "##𒁺": 2491,
      "##ļ": 2492,
      "##φ": 2493,
      "##ʁ": 2494,
      "##њ": 2495,
      "##ㄤ": 2496,
      "##ũ": 2497,
      "##本": 2498,
      "##言": 2499,
      "##€": 2500,
      "##県": 2501,
      "##公": 2502,
      "##サ": 2503,
      "##중": 2504,
      "##ψ": 2505,
      "##畵": 2506,
      "##會": 2507,
      "##腕": 2508,
      "##خ": 2509,
      "##想": 2510,
      "##灯": 2511,
      "##火": 2512,
      "##ূ": 2513,
      "##尾": 2514,
      "##分": 2515,
      "##析": 2516,
      "##‐": 2517,
      "##अ": 2518,
      "##ċ": 2519,
      "##値": 2520,
      "##~": 2521,
      "##運": 2522,
      "##営": 2523,
      "##関": 2524,
      "##臨": 2525,
      "##時": 2526,
      "##措": 2527,
      "##置": 2528,
      "##戯": 2529,
      "##清": 2530,
      "##記": 2531,
      "##念": 2532,
      "##財": 2533,
      "##団": 2534,
      "##２": 2535,
      "##５": 2536,
      "##回": 2537,
      "##辺": 2538,
      "##高": 2539,
      "##原": 2540,
      "##ベ": 2541,
      "##情": 2542,
      "##報": 2543,
      "##倉": 2544,
      "##使": 2545,
      "##節": 2546,
      "##ʷ": 2547,
      "##ृ": 2548,
      "##ە": 2549,
      "##อ": 2550,
      "##共": 2551,
      "##央": 2552,
      "##": 2553,
      "##存": 2554,
      "##十": 2555,
      "##守": 2556,
      "##茶": 2557,
      "##ן": 2558,
      "##研": 2559,
      "##究": 2560,
      "##ˇ": 2561,
      "##祀": 2562,
      "##।": 2563,
      "##晃": 2564,
      "##笑": 2565,
      "##代": 2566,
      "##歌": 2567,
      "##豊": 2568,
      "##": 2569,
      "##神": 2570,
      "##素": 2571,
      "th": 2572,
      "the": 2573,
      "##er": 2574,
      "##in": 2575,
      "##ou": 2576,
      "##at": 2577,
      "##nd": 2578,
      "##on": 2579,
      "##re": 2580,
      "##an": 2581,
      "##ed": 2582,
      "##ing": 2583,
      "##en": 2584,
      "to": 2585,
      "##or": 2586,
      "##es": 2587,
      "you": 2588,
      "##ll": 2589,
      "and": 2590,
      "in": 2591,
      "of": 2592,
      "##ar": 2593,
      "##is": 2594,
      "##it": 2595,
      "##as": 2596,
      "##om": 2597,
      "wh": 2598,
      "it": 2599,
      "##ic": 2600,
      "##ow": 2601,
      "##et": 2602,
      "##al": 2603,
      "##ot": 2604,
      "that": 2605,
      "##le": 2606,
      "he": 2607,
      "be": 2608,
      "is": 2609,
      "##ve": 2610,
      "on": 2611,
      "##ut": 2612,
      "##ay": 2613,
      "##st": 2614,
      "re": 2615,
      "ha": 2616,
      "##ion": 2617,
      "##id": 2618,
      "##gh": 2619,
      "we": 2620,
      "was": 2621,
      "##se": 2622,
      "##ld": 2623,
      "##ent": 2624,
      "st": 2625,
      "##ac": 2626,
      "for": 2627,
      "sh": 2628,
      "##am": 2629,
      "##im": 2630,
      "##ly": 2631,
      "##ad": 2632,
      "##ir": 2633,
      "##ur": 2634,
      "##ver": 2635,
      "##oo": 2636,
      "##ere": 2637,
      "##ght": 2638,
      "an": 2639,
      "me": 2640,
      "do": 2641,
      "##ith": 2642,
      "##ke": 2643,
      "as": 2644,
      "##ch": 2645,
      "##all": 2646,
      "##th": 2647,
      "with": 2648,
      "se": 2649,
      "this": 2650,
      "what": 2651,
      "##ter": 2652,
      "##ro": 2653,
      "li": 2654,
      "so": 2655,
      "##ct": 2656,
      "go": 2657,
      "##ce": 2658,
      "are": 2659,
      "##ill": 2660,
      "not": 2661,
      "at": 2662,
      "##ight": 2663,
      "ch": 2664,
      "##ome": 2665,
      "have": 2666,
      "fr": 2667,
      "##il": 2668,
      "they": 2669,
      "but": 2670,
      "##ould": 2671,
      "ne": 2672,
      "##ant": 2673,
      "de": 2674,
      "##ust": 2675,
      "kn": 2676,
      "no": 2677,
      "##op": 2678,
      "##ain": 2679,
      "##ation": 2680,
      "his": 2681,
      "al": 2682,
      "there": 2683,
      "can": 2684,
      "..": 2685,
      "su": 2686,
      "##ri": 2687,
      "all": 2688,
      "mo": 2689,
      "##ea": 2690,
      "##est": 2691,
      "##ge": 2692,
      "my": 2693,
      "she": 2694,
      "know": 2695,
      "##and": 2696,
      "...": 2697,
      "##ers": 2698,
      "ab": 2699,
      "##ie": 2700,
      "##un": 2701,
      "##ul": 2702,
      "your": 2703,
      "##us": 2704,
      "##ol": 2705,
      "or": 2706,
      "don": 2707,
      "##pp": 2708,
      "one": 2709,
      "by": 2710,
      "com": 2711,
      "##out": 2712,
      "from": 2713,
      "con": 2714,
      "her": 2715,
      "##art": 2716,
      "tr": 2717,
      "up": 2718,
      "##ist": 2719,
      "##um": 2720,
      "##ess": 2721,
      "##her": 2722,
      "##ab": 2723,
      "wor": 2724,
      "like": 2725,
      "sa": 2726,
      "##ally": 2727,
      "had": 2728,
      "pl": 2729,
      "out": 2730,
      "##os": 2731,
      "him": 2732,
      "##ate": 2733,
      "if": 2734,
      "get": 2735,
      "##ard": 2736,
      "pro": 2737,
      "##ap": 2738,
      "ex": 2739,
      "##ook": 2740,
      "##ack": 2741,
      "sp": 2742,
      "##ood": 2743,
      "just": 2744,
      "##ig": 2745,
      "##ame": 2746,
      "who": 2747,
      "##em": 2748,
      "##res": 2749,
      "un": 2750,
      "about": 2751,
      "##ake": 2752,
      "##el": 2753,
      "##ive": 2754,
      "##ink": 2755,
      "##if": 2756,
      "did": 2757,
      "were": 2758,
      "here": 2759,
      "##ast": 2760,
      "##ck": 2761,
      "##ich": 2762,
      "##our": 2763,
      "19": 2764,
      "##au": 2765,
      "man": 2766,
      "##ong": 2767,
      "te": 2768,
      "##ound": 2769,
      "##ind": 2770,
      "ar": 2771,
      "##one": 2772,
      "well": 2773,
      "when": 2774,
      "##ity": 2775,
      "us": 2776,
      "now": 2777,
      "br": 2778,
      "some": 2779,
      "will": 2780,
      "en": 2781,
      "oh": 2782,
      "right": 2783,
      "##ry": 2784,
      "##ak": 2785,
      "##ort": 2786,
      "##ies": 2787,
      "le": 2788,
      "20": 2789,
      "lo": 2790,
      "yea": 2791,
      "how": 2792,
      "co": 2793,
      "would": 2794,
      "yeah": 2795,
      "tim": 2796,
      "##ber": 2797,
      "them": 2798,
      "ll": 2799,
      "want": 2800,
      "any": 2801,
      "am": 2802,
      "think": 2803,
      "##ish": 2804,
      "##ine": 2805,
      "##ect": 2806,
      "##ore": 2807,
      "##ag": 2808,
      "look": 2809,
      "then": 2810,
      "see": 2811,
      "pe": 2812,
      "got": 2813,
      "##ven": 2814,
      "##are": 2815,
      "bec": 2816,
      "which": 2817,
      "tw": 2818,
      "##ous": 2819,
      "cl": 2820,
      "gr": 2821,
      "has": 2822,
      "fe": 2823,
      "ag": 2824,
      "##ment": 2825,
      "ro": 2826,
      "##ud": 2827,
      "pr": 2828,
      "##own": 2829,
      "##itt": 2830,
      "say": 2831,
      "said": 2832,
      "##ough": 2833,
      "af": 2834,
      "ever": 2835,
      "##hing": 2836,
      "##ice": 2837,
      "##nt": 2838,
      "time": 2839,
      "ve": 2840,
      "##ure": 2841,
      "than": 2842,
      "##ery": 2843,
      "good": 2844,
      "come": 2845,
      "##ear": 2846,
      "bo": 2847,
      "##ther": 2848,
      "##ep": 2849,
      "where": 2850,
      "int": 2851,
      "qu": 2852,
      "##ip": 2853,
      "##ide": 2854,
      "##iv": 2855,
      "been": 2856,
      "##way": 2857,
      "##ia": 2858,
      "let": 2859,
      "their": 2860,
      "off": 2861,
      "peop": 2862,
      "er": 2863,
      "##ace": 2864,
      "people": 2865,
      "##ick": 2866,
      "##ian": 2867,
      "more": 2868,
      "##ire": 2869,
      "##qu": 2870,
      "mar": 2871,
      "##ause": 2872,
      "going": 2873,
      "could": 2874,
      "over": 2875,
      "##so": 2876,
      "ok": 2877,
      "##reat": 2878,
      "back": 2879,
      "bl": 2880,
      "##na": 2881,
      "very": 2882,
      "fir": 2883,
      "two": 2884,
      "##ach": 2885,
      "##age": 2886,
      "sc": 2887,
      "##ree": 2888,
      "##nder": 2889,
      "ad": 2890,
      "##ang": 2891,
      "##ite": 2892,
      "thing": 2893,
      "##ra": 2894,
      "yes": 2895,
      "work": 2896,
      "part": 2897,
      "first": 2898,
      "comp": 2899,
      "jo": 2900,
      "other": 2901,
      "too": 2902,
      "##act": 2903,
      "new": 2904,
      "every": 2905,
      "##mp": 2906,
      "##ount": 2907,
      "##other": 2908,
      "##ass": 2909,
      "po": 2910,
      "because": 2911,
      "##sel": 2912,
      "down": 2913,
      "##ase": 2914,
      "##ble": 2915,
      "##ary": 2916,
      "may": 2917,
      "after": 2918,
      "##ff": 2919,
      "year": 2920,
      "##ose": 2921,
      "##ue": 2922,
      "##omet": 2923,
      "also": 2924,
      "way": 2925,
      "##ans": 2926,
      "call": 2927,
      "##ated": 2928,
      "into": 2929,
      "##ance": 2930,
      "why": 2931,
      "okay": 2932,
      "our": 2933,
      "##orn": 2934,
      "##pt": 2935,
      "##alk": 2936,
      "gu": 2937,
      "only": 2938,
      "somet": 2939,
      "##per": 2940,
      "##ade": 2941,
      "##ions": 2942,
      "##od": 2943,
      "##ence": 2944,
      "day": 2945,
      "##ci": 2946,
      "##ittle": 2947,
      ".\"": 2948,
      "little": 2949,
      "bet": 2950,
      "act": 2951,
      "##iz": 2952,
      "take": 2953,
      "bu": 2954,
      "again": 2955,
      "ac": 2956,
      "per": 2957,
      "##ord": 2958,
      "--": 2959,
      "these": 2960,
      "##ater": 2961,
      "##ved": 2962,
      "play": 2963,
      "fl": 2964,
      "mu": 2965,
      "##co": 2966,
      "pre": 2967,
      "car": 2968,
      "##ild": 2969,
      "comm": 2970,
      "##ought": 2971,
      "##wn": 2972,
      "really": 2973,
      "dis": 2974,
      "##fe": 2975,
      "##urn": 2976,
      "cont": 2977,
      "tell": 2978,
      "##ub": 2979,
      "make": 2980,
      "##av": 2981,
      "fo": 2982,
      "need": 2983,
      "ser": 2984,
      "should": 2985,
      "##ty": 2986,
      "res": 2987,
      "wr": 2988,
      "does": 2989,
      "put": 2990,
      "##ath": 2991,
      "##ving": 2992,
      "##we": 2993,
      "thr": 2994,
      "##ress": 2995,
      "app": 2996,
      "under": 2997,
      "##self": 2998,
      "##fer": 2999,
      "##orm": 3000,
      "happ": 3001,
      "##fore": 3002,
      "201": 3003,
      "##ile": 3004,
      "something": 3005,
      "##able": 3006,
      "##thing": 3007,
      "cr": 3008,
      "##ens": 3009,
      "dr": 3010,
      "even": 3011,
      "ind": 3012,
      "##ied": 3013,
      "mean": 3014,
      "sm": 3015,
      "much": 3016,
      "##ft": 3017,
      "inter": 3018,
      "gon": 3019,
      "##end": 3020,
      "##ather": 3021,
      "##iss": 3022,
      "##int": 3023,
      "##ict": 3024,
      "##les": 3025,
      "##ical": 3026,
      "rep": 3027,
      "##ign": 3028,
      "count": 3029,
      "gonna": 3030,
      "##ory": 3031,
      "long": 3032,
      "##uck": 3033,
      "##ates": 3034,
      "hi": 3035,
      "ho": 3036,
      "##ail": 3037,
      "before": 3038,
      "##ult": 3039,
      "never": 3040,
      "made": 3041,
      "##ool": 3042,
      "its": 3043,
      "##oth": 3044,
      "great": 3045,
      "inc": 3046,
      "200": 3047,
      "talk": 3048,
      "many": 3049,
      "rem": 3050,
      "didn": 3051,
      "##land": 3052,
      "hel": 3053,
      "imp": 3054,
      "##red": 3055,
      "##amp": 3056,
      "most": 3057,
      "##iver": 3058,
      ",\"": 3059,
      "ke": 3060,
      "##man": 3061,
      "##ys": 3062,
      "hand": 3063,
      "##ks": 3064,
      "ph": 3065,
      "##og": 3066,
      "min": 3067,
      "mr": 3068,
      "exp": 3069,
      "uh": 3070,
      "bel": 3071,
      "##ations": 3072,
      "##ons": 3073,
      "la": 3074,
      "##ious": 3075,
      "three": 3076,
      "sch": 3077,
      "##ited": 3078,
      "##be": 3079,
      "old": 3080,
      "##ady": 3081,
      "##atch": 3082,
      "those": 3083,
      "##ually": 3084,
      "##ren": 3085,
      "##ting": 3086,
      "lea": 3087,
      "##ave": 3088,
      "str": 3089,
      "dif": 3090,
      "still": 3091,
      "through": 3092,
      "##00": 3093,
      "##ily": 3094,
      "life": 3095,
      "years": 3096,
      "##ouse": 3097,
      "help": 3098,
      "give": 3099,
      "##der": 3100,
      "##ves": 3101,
      "##ors": 3102,
      "##ull": 3103,
      "des": 3104,
      "##ition": 3105,
      "cour": 3106,
      "##du": 3107,
      "world": 3108,
      "love": 3109,
      "ple": 3110,
      "things": 3111,
      "##ward": 3112,
      "ear": 3113,
      "show": 3114,
      "ma": 3115,
      "hu": 3116,
      "thought": 3117,
      "pres": 3118,
      "##ix": 3119,
      "start": 3120,
      "last": 3121,
      "##ful": 3122,
      "##ise": 3123,
      "found": 3124,
      "##day": 3125,
      "ask": 3126,
      "must": 3127,
      "##cess": 3128,
      "##tain": 3129,
      "##ial": 3130,
      "called": 3131,
      "war": 3132,
      "##get": 3133,
      "away": 3134,
      "##air": 3135,
      "went": 3136,
      "home": 3137,
      "came": 3138,
      "##ces": 3139,
      "find": 3140,
      "##ried": 3141,
      "\"\"": 3142,
      "##ne": 3143,
      "pol": 3144,
      "used": 3145,
      "par": 3146,
      "##llow": 3147,
      "doing": 3148,
      "being": 3149,
      "##ince": 3150,
      "##oney": 3151,
      "att": 3152,
      "##gin": 3153,
      "form": 3154,
      "sl": 3155,
      "end": 3156,
      "rec": 3157,
      "spe": 3158,
      "mon": 3159,
      "nor": 3160,
      "wa": 3161,
      "night": 3162,
      "big": 3163,
      "##mm": 3164,
      "##oss": 3165,
      "such": 3166,
      "op": 3167,
      "fam": 3168,
      "high": 3169,
      "house": 3170,
      "el": 3171,
      "fin": 3172,
      "god": 3173,
      "##ents": 3174,
      "sou": 3175,
      "##eric": 3176,
      "wom": 3177,
      "sy": 3178,
      "own": 3179,
      "##ug": 3180,
      "\".": 3181,
      "##irl": 3182,
      "reg": 3183,
      "##ah": 3184,
      "##ened": 3185,
      "try": 3186,
      "cap": 3187,
      "##xt": 3188,
      "name": 3189,
      "18": 3190,
      "##vel": 3191,
      "eng": 3192,
      "sure": 3193,
      "id": 3194,
      "##ings": 3195,
      "gen": 3196,
      "##ced": 3197,
      "city": 3198,
      "lot": 3199,
      "hey": 3200,
      "americ": 3201,
      "##ange": 3202,
      "differ": 3203,
      "same": 3204,
      "##ction": 3205,
      "kind": 3206,
      "##lic": 3207,
      "mom": 3208,
      "won": 3209,
      "##ph": 3210,
      "care": 3211,
      "##gan": 3212,
      "##ope": 3213,
      "child": 3214,
      "sw": 3215,
      "##als": 3216,
      "head": 3217,
      "##form": 3218,
      "gl": 3219,
      "char": 3220,
      "##ody": 3221,
      "turn": 3222,
      "erm": 3223,
      "another": 3224,
      "supp": 3225,
      "kill": 3226,
      "rel": 3227,
      "##ways": 3228,
      "cent": 3229,
      "place": 3230,
      "cons": 3231,
      "num": 3232,
      "##aking": 3233,
      "##ever": 3234,
      "pers": 3235,
      "girl": 3236,
      "ah": 3237,
      "feel": 3238,
      "thank": 3239,
      "##ased": 3240,
      "might": 3241,
      "##ib": 3242,
      "four": 3243,
      "##ember": 3244,
      "school": 3245,
      "keep": 3246,
      "##iend": 3247,
      "stop": 3248,
      "##body": 3249,
      "##sh": 3250,
      "please": 3251,
      "use": 3252,
      "friend": 3253,
      "##ning": 3254,
      "dist": 3255,
      "ele": 3256,
      "around": 3257,
      "##ss": 3258,
      "set": 3259,
      "ev": 3260,
      "##oup": 3261,
      "sur": 3262,
      "dec": 3263,
      "ter": 3264,
      "anything": 3265,
      "always": 3266,
      "##atter": 3267,
      "##ute": 3268,
      "while": 3269,
      "nothing": 3270,
      "##ational": 3271,
      "##up": 3272,
      "run": 3273,
      "sor": 3274,
      "wait": 3275,
      "##ating": 3276,
      "king": 3277,
      "##ock": 3278,
      "##ower": 3279,
      "##uring": 3280,
      "better": 3281,
      "##dy": 3282,
      "##ew": 3283,
      "money": 3284,
      "left": 3285,
      "##cond": 3286,
      "dep": 3287,
      "mus": 3288,
      "##lish": 3289,
      "##ru": 3290,
      "bit": 3291,
      "acc": 3292,
      "met": 3293,
      "states": 3294,
      "##ell": 3295,
      "real": 3296,
      "cle": 3297,
      "far": 3298,
      "second": 3299,
      "##ank": 3300,
      "united": 3301,
      "inst": 3302,
      "##led": 3303,
      "inv": 3304,
      "##ms": 3305,
      "##ash": 3306,
      "##sp": 3307,
      "\",": 3308,
      "##lud": 3309,
      "belie": 3310,
      "##ween": 3311,
      "list": 3312,
      "col": 3313,
      "em": 3314,
      "ret": 3315,
      "different": 3316,
      "between": 3317,
      "mem": 3318,
      "sir": 3319,
      "bre": 3320,
      "born": 3321,
      "bus": 3322,
      "ey": 3323,
      "done": 3324,
      "next": 3325,
      "point": 3326,
      "##akes": 3327,
      "told": 3328,
      "known": 3329,
      "##ular": 3330,
      "sorry": 3331,
      "199": 3332,
      "##ott": 3333,
      "##io": 3334,
      "stud": 3335,
      "both": 3336,
      "water": 3337,
      "men": 3338,
      "unt": 3339,
      "word": 3340,
      "sub": 3341,
      "ob": 3342,
      "##gr": 3343,
      "##aught": 3344,
      "ass": 3345,
      "##mo": 3346,
      "sing": 3347,
      "state": 3348,
      "miss": 3349,
      "best": 3350,
      "##ness": 3351,
      "father": 3352,
      "book": 3353,
      "##ident": 3354,
      "##ird": 3355,
      "##ale": 3356,
      "person": 3357,
      "##az": 3358,
      "gre": 3359,
      "##ics": 3360,
      "##ible": 3361,
      "follow": 3362,
      "add": 3363,
      "##cial": 3364,
      ").": 3365,
      "each": 3366,
      "coll": 3367,
      "##my": 3368,
      "che": 3369,
      "includ": 3370,
      "##ng": 3371,
      "took": 3372,
      "actually": 3373,
      "later": 3374,
      "once": 3375,
      "##ts": 3376,
      "##ason": 3377,
      "mother": 3378,
      "lar": 3379,
      "sim": 3380,
      "during": 3381,
      "hell": 3382,
      "until": 3383,
      "##ier": 3384,
      "##te": 3385,
      "##side": 3386,
      "since": 3387,
      "),": 3388,
      "bar": 3389,
      "##ual": 3390,
      "##aster": 3391,
      "course": 3392,
      "##ames": 3393,
      "produ": 3394,
      "pop": 3395,
      "##ject": 3396,
      "##hn": 3397,
      "everything": 3398,
      "pass": 3399,
      "wee": 3400,
      "number": 3401,
      "##ister": 3402,
      "gener": 3403,
      "##ered": 3404,
      "south": 3405,
      "commun": 3406,
      "##ivers": 3407,
      "med": 3408,
      "##ling": 3409,
      "?\"": 3410,
      "boy": 3411,
      "dad": 3412,
      "hard": 3413,
      "##let": 3414,
      "mm": 3415,
      "doesn": 3416,
      "saw": 3417,
      "north": 3418,
      "seem": 3419,
      "##ative": 3420,
      "fun": 3421,
      "##ton": 3422,
      "small": 3423,
      "##gg": 3424,
      "five": 3425,
      "american": 3426,
      "maybe": 3427,
      "light": 3428,
      "##cept": 3429,
      "##oun": 3430,
      "##cy": 3431,
      "open": 3432,
      "##its": 3433,
      "##ities": 3434,
      "john": 3435,
      "##olog": 3436,
      "young": 3437,
      "stand": 3438,
      "room": 3439,
      "stay": 3440,
      "red": 3441,
      "##ross": 3442,
      "ap": 3443,
      "today": 3444,
      "family": 3445,
      "##eak": 3446,
      "##vie": 3447,
      "ed": 3448,
      "six": 3449,
      "##vern": 3450,
      "##ner": 3451,
      "underst": 3452,
      "##ision": 3453,
      "##ont": 3454,
      "chr": 3455,
      "enough": 3456,
      "##ures": 3457,
      "##cer": 3458,
      "pub": 3459,
      "##ric": 3460,
      "wanted": 3461,
      "sit": 3462,
      "hal": 3463,
      "##ars": 3464,
      "loc": 3465,
      "son": 3466,
      "##row": 3467,
      "remember": 3468,
      "nice": 3469,
      "air": 3470,
      "dire": 3471,
      "bad": 3472,
      "##uth": 3473,
      "hum": 3474,
      "leave": 3475,
      "art": 3476,
      "else": 3477,
      "##ane": 3478,
      "##ark": 3479,
      "isn": 3480,
      "looking": 3481,
      "cur": 3482,
      "198": 3483,
      "##oy": 3484,
      "without": 3485,
      "cal": 3486,
      "mil": 3487,
      "govern": 3488,
      "##ired": 3489,
      "##gether": 3490,
      "mind": 3491,
      "together": 3492,
      "law": 3493,
      "##osed": 3494,
      "##ctor": 3495,
      "##ger": 3496,
      "##ins": 3497,
      "huh": 3498,
      "against": 3499,
      "hold": 3500,
      "sk": 3501,
      "##ten": 3502,
      "bro": 3503,
      "proble": 3504,
      "fact": 3505,
      "##ork": 3506,
      "har": 3507,
      "main": 3508,
      "##ead": 3509,
      "side": 3510,
      "meet": 3511,
      "##iet": 3512,
      "quite": 3513,
      "##ny": 3514,
      "seen": 3515,
      "rest": 3516,
      "tri": 3517,
      "##ution": 3518,
      "trans": 3519,
      "few": 3520,
      "live": 3521,
      "land": 3522,
      "became": 3523,
      "says": 3524,
      "##ared": 3525,
      "town": 3526,
      "read": 3527,
      "pret": 3528,
      "##yp": 3529,
      "##ee": 3530,
      "move": 3531,
      "hear": 3532,
      "pri": 3533,
      "ger": 3534,
      "coming": 3535,
      "though": 3536,
      "fil": 3537,
      "kid": 3538,
      "team": 3539,
      "##ably": 3540,
      "##ific": 3541,
      "times": 3542,
      "stre": 3543,
      "##wh": 3544,
      "import": 3545,
      "sign": 3546,
      "ra": 3547,
      "watch": 3548,
      "children": 3549,
      "univers": 3550,
      "##sw": 3551,
      "group": 3552,
      "10": 3553,
      "bab": 3554,
      "##ned": 3555,
      "died": 3556,
      "believe": 3557,
      "face": 3558,
      "197": 3559,
      "##cc": 3560,
      "morn": 3561,
      "compan": 3562,
      "prov": 3563,
      "##iness": 3564,
      "near": 3565,
      "understand": 3566,
      "##att": 3567,
      "mill": 3568,
      "cor": 3569,
      "##ines": 3570,
      "walk": 3571,
      "##ife": 3572,
      "emp": 3573,
      "order": 3574,
      "hur": 3575,
      "quest": 3576,
      "##less": 3577,
      "music": 3578,
      "woman": 3579,
      "sec": 3580,
      "yet": 3581,
      "##ime": 3582,
      "##oc": 3583,
      "dri": 3584,
      "wo": 3585,
      "##ote": 3586,
      "build": 3587,
      "power": 3588,
      "line": 3589,
      "morning": 3590,
      "ext": 3591,
      "win": 3592,
      "##fect": 3593,
      "getting": 3594,
      "happened": 3595,
      "##ury": 3596,
      "job": 3597,
      "fuck": 3598,
      "bas": 3599,
      "rele": 3600,
      "cer": 3601,
      "##ps": 3602,
      "death": 3603,
      "beh": 3604,
      "ste": 3605,
      "sle": 3606,
      "pa": 3607,
      "##ung": 3608,
      "days": 3609,
      "!\"": 3610,
      "interest": 3611,
      "##bers": 3612,
      "##ised": 3613,
      "##mber": 3614,
      "game": 3615,
      "country": 3616,
      "whole": 3617,
      "heart": 3618,
      "having": 3619,
      "tom": 3620,
      "##ense": 3621,
      "resp": 3622,
      "##anna": 3623,
      "foot": 3624,
      "sort": 3625,
      "##ral": 3626,
      "conf": 3627,
      "##by": 3628,
      "lead": 3629,
      "eyes": 3630,
      "record": 3631,
      "heard": 3632,
      "ge": 3633,
      "poss": 3634,
      "asked": 3635,
      "fore": 3636,
      "shall": 3637,
      "##eter": 3638,
      "plan": 3639,
      "##ush": 3640,
      "half": 3641,
      "exc": 3642,
      "##son": 3643,
      "prob": 3644,
      "black": 3645,
      "soon": 3646,
      "christ": 3647,
      "##ters": 3648,
      "eat": 3649,
      "hour": 3650,
      "pay": 3651,
      "song": 3652,
      "wind": 3653,
      "##ets": 3654,
      "##uff": 3655,
      "##ants": 3656,
      "serv": 3657,
      "##ital": 3658,
      "gi": 3659,
      "dead": 3660,
      "##ient": 3661,
      "##ta": 3662,
      "##ither": 3663,
      "cre": 3664,
      "##stem": 3665,
      "##ments": 3666,
      "##ina": 3667,
      "answ": 3668,
      "speak": 3669,
      "##ism": 3670,
      "offic": 3671,
      "himself": 3672,
      "##ists": 3673,
      "sn": 3674,
      "##amed": 3675,
      "ca": 3676,
      "matter": 3677,
      "gave": 3678,
      "county": 3679,
      "ye": 3680,
      "##iam": 3681,
      "##ized": 3682,
      "important": 3683,
      "however": 3684,
      "##ready": 3685,
      "##ature": 3686,
      "bring": 3687,
      "prof": 3688,
      "already": 3689,
      "hist": 3690,
      "guy": 3691,
      "national": 3692,
      "wrong": 3693,
      "system": 3694,
      "##ield": 3695,
      "maj": 3696,
      "##hip": 3697,
      "##br": 3698,
      "##ene": 3699,
      "case": 3700,
      "eff": 3701,
      "196": 3702,
      "class": 3703,
      "##ron": 3704,
      "upon": 3705,
      "door": 3706,
      "knew": 3707,
      "full": 3708,
      "white": 3709,
      "##ize": 3710,
      "##aut": 3711,
      "round": 3712,
      "women": 3713,
      "sound": 3714,
      "##ball": 3715,
      "15": 3716,
      "someone": 3717,
      "president": 3718,
      "##ience": 3719,
      "saying": 3720,
      "##aps": 3721,
      "talking": 3722,
      "adv": 3723,
      "##itch": 3724,
      "17": 3725,
      "university": 3726,
      "##ention": 3727,
      "##imes": 3728,
      "##uss": 3729,
      "def": 3730,
      "##cle": 3731,
      "fine": 3732,
      "month": 3733,
      "mark": 3734,
      "fight": 3735,
      "squ": 3736,
      "##ined": 3737,
      "return": 3738,
      "const": 3739,
      "eas": 3740,
      "party": 3741,
      "##ats": 3742,
      "trying": 3743,
      "along": 3744,
      "prom": 3745,
      "##ret": 3746,
      "listen": 3747,
      "top": 3748,
      "ori": 3749,
      "##pped": 3750,
      "means": 3751,
      "equ": 3752,
      "certain": 3753,
      "del": 3754,
      "##ains": 3755,
      "##sc": 3756,
      "##ying": 3757,
      "hon": 3758,
      "div": 3759,
      "##aw": 3760,
      "##ik": 3761,
      "pretty": 3762,
      "often": 3763,
      "began": 3764,
      "##wards": 3765,
      "leg": 3766,
      "started": 3767,
      "##ison": 3768,
      "chang": 3769,
      "##velop": 3770,
      "prot": 3771,
      "##tern": 3772,
      ".”": 3773,
      "gone": 3774,
      "lear": 3775,
      "wife": 3776,
      "fall": 3777,
      "ten": 3778,
      "##ives": 3779,
      "wanna": 3780,
      "##ically": 3781,
      "change": 3782,
      "hands": 3783,
      "ill": 3784,
      "##most": 3785,
      "bed": 3786,
      "contin": 3787,
      "swe": 3788,
      "pur": 3789,
      "mid": 3790,
      "##ues": 3791,
      "ju": 3792,
      "##ided": 3793,
      "story": 3794,
      "##rib": 3795,
      "probably": 3796,
      "expl": 3797,
      "dre": 3798,
      "idea": 3799,
      "sho": 3800,
      "creat": 3801,
      "tre": 3802,
      "pap": 3803,
      "sever": 3804,
      "dan": 3805,
      "develop": 3806,
      "ent": 3807,
      "area": 3808,
      "german": 3809,
      "hello": 3810,
      "000": 3811,
      "##ural": 3812,
      "cut": 3813,
      "sent": 3814,
      "##ows": 3815,
      "happen": 3816,
      "less": 3817,
      "business": 3818,
      "played": 3819,
      "elect": 3820,
      "##ages": 3821,
      "short": 3822,
      "##aughter": 3823,
      "hor": 3824,
      "ready": 3825,
      "##une": 3826,
      "sal": 3827,
      "##ility": 3828,
      "baby": 3829,
      "drink": 3830,
      "government": 3831,
      "beaut": 3832,
      "brother": 3833,
      "making": 3834,
      "lost": 3835,
      "##ished": 3836,
      "goes": 3837,
      "wasn": 3838,
      "sol": 3839,
      "##right": 3840,
      "guys": 3841,
      "ta": 3842,
      "##ately": 3843,
      "ton": 3844,
      "12": 3845,
      "##me": 3846,
      "anim": 3847,
      "blood": 3848,
      "west": 3849,
      "free": 3850,
      "sat": 3851,
      "jan": 3852,
      "fire": 3853,
      "##den": 3854,
      "##pl": 3855,
      "im": 3856,
      "typ": 3857,
      "##aken": 3858,
      "inf": 3859,
      "##enty": 3860,
      "gold": 3861,
      "true": 3862,
      "ann": 3863,
      "##rict": 3864,
      "able": 3865,
      "sleep": 3866,
      "problem": 3867,
      "sometimes": 3868,
      "oper": 3869,
      "company": 3870,
      "eight": 3871,
      "mer": 3872,
      "polit": 3873,
      "aw": 3874,
      "contro": 3875,
      "moment": 3876,
      "est": 3877,
      "##een": 3878,
      "##ides": 3879,
      "grand": 3880,
      "thanks": 3881,
      "present": 3882,
      "pain": 3883,
      "haven": 3884,
      "hot": 3885,
      "##ilt": 3886,
      "##rop": 3887,
      "##gn": 3888,
      "english": 3889,
      "wonder": 3890,
      "dou": 3891,
      "##raw": 3892,
      "pat": 3893,
      "cond": 3894,
      "bur": 3895,
      "##iter": 3896,
      "almost": 3897,
      "val": 3898,
      "partic": 3899,
      "examp": 3900,
      "working": 3901,
      "hope": 3902,
      "jap": 3903,
      "194": 3904,
      "suc": 3905,
      "general": 3906,
      "week": 3907,
      "star": 3908,
      "##ump": 3909,
      "large": 3910,
      "exper": 3911,
      "pick": 3912,
      "disc": 3913,
      "##ape": 3914,
      "##de": 3915,
      "age": 3916,
      "wouldn": 3917,
      "##ained": 3918,
      "comes": 3919,
      "vis": 3920,
      "yourself": 3921,
      "brit": 3922,
      "march": 3923,
      "origin": 3924,
      "pie": 3925,
      "island": 3926,
      "ball": 3927,
      "early": 3928,
      "var": 3929,
      "16": 3930,
      "japan": 3931,
      "jack": 3932,
      "rock": 3933,
      "##oice": 3934,
      "##ator": 3935,
      "rom": 3936,
      "adm": 3937,
      "##ices": 3938,
      "mag": 3939,
      "clear": 3940,
      "##ional": 3941,
      "##ler": 3942,
      "looked": 3943,
      "pos": 3944,
      "##where": 3945,
      "ship": 3946,
      "deal": 3947,
      "body": 3948,
      "##aces": 3949,
      "195": 3950,
      "##uary": 3951,
      "public": 3952,
      "##aph": 3953,
      "##ted": 3954,
      "break": 3955,
      "intern": 3956,
      "dam": 3957,
      "film": 3958,
      "happy": 3959,
      "mur": 3960,
      "bill": 3961,
      "mrs": 3962,
      "##ries": 3963,
      "spec": 3964,
      "ref": 3965,
      "##urch": 3966,
      "become": 3967,
      "sil": 3968,
      "##ama": 3969,
      "av": 3970,
      "ago": 3971,
      "close": 3972,
      "##bo": 3973,
      "rich": 3974,
      "france": 3975,
      "um": 3976,
      "##ract": 3977,
      "##ians": 3978,
      "opp": 3979,
      "late": 3980,
      "road": 3981,
      "food": 3982,
      "station": 3983,
      "given": 3984,
      "lang": 3985,
      "##use": 3986,
      "tele": 3987,
      "district": 3988,
      "dog": 3989,
      "dev": 3990,
      "movie": 3991,
      "##eng": 3992,
      "friends": 3993,
      "occ": 3994,
      "stuff": 3995,
      "##orrow": 3996,
      "begin": 3997,
      "sun": 3998,
      "##erg": 3999,
      "released": 4000,
      "looks": 4001,
      "##ether": 4002,
      "##ulation": 4003,
      "guess": 4004,
      "##gram": 4005,
      "##arent": 4006,
      "question": 4007,
      "quick": 4008,
      "cover": 4009,
      "organ": 4010,
      "alb": 4011,
      "##ey": 4012,
      "profess": 4013,
      "eur": 4014,
      "past": 4015,
      "##ond": 4016,
      "myself": 4017,
      "january": 4018,
      "##igh": 4019,
      "fre": 4020,
      "##used": 4021,
      "port": 4022,
      "church": 4023,
      "##unch": 4024,
      "pict": 4025,
      "##ley": 4026,
      "complet": 4027,
      "front": 4028,
      "brought": 4029,
      "several": 4030,
      "major": 4031,
      "lau": 4032,
      "##ov": 4033,
      "##ouch": 4034,
      "killed": 4035,
      "rece": 4036,
      "202": 4037,
      "##ards": 4038,
      "human": 4039,
      "behind": 4040,
      "daughter": 4041,
      "consid": 4042,
      "least": 4043,
      "captain": 4044,
      "million": 4045,
      "exact": 4046,
      "design": 4047,
      "mad": 4048,
      "##ike": 4049,
      "program": 4050,
      "cause": 4051,
      "##inc": 4052,
      "alright": 4053,
      "taking": 4054,
      "series": 4055,
      "##ple": 4056,
      "##ney": 4057,
      "hit": 4058,
      "inform": 4059,
      "##utes": 4060,
      "check": 4061,
      "reason": 4062,
      "langu": 4063,
      "camp": 4064,
      "band": 4065,
      "rad": 4066,
      "sold": 4067,
      "##ured": 4068,
      "arm": 4069,
      "tem": 4070,
      "court": 4071,
      "words": 4072,
      "either": 4073,
      "##ety": 4074,
      "taken": 4075,
      "##ok": 4076,
      "super": 4077,
      "direct": 4078,
      "example": 4079,
      "enter": 4080,
      "##iful": 4081,
      "det": 4082,
      "makes": 4083,
      "rather": 4084,
      "common": 4085,
      "##iting": 4086,
      "aust": 4087,
      "report": 4088,
      "ir": 4089,
      "##ots": 4090,
      "york": 4091,
      "da": 4092,
      "married": 4093,
      "##ief": 4094,
      "pen": 4095,
      "##ese": 4096,
      "cos": 4097,
      "fig": 4098,
      "allow": 4099,
      "cost": 4100,
      "oth": 4101,
      "vill": 4102,
      "##haps": 4103,
      "##ze": 4104,
      "perhaps": 4105,
      "poor": 4106,
      "##ering": 4107,
      "alone": 4108,
      "living": 4109,
      "##cover": 4110,
      "##iously": 4111,
      "train": 4112,
      "depart": 4113,
      "##selves": 4114,
      "mich": 4115,
      "pal": 4116,
      "dear": 4117,
      "step": 4118,
      "third": 4119,
      "reach": 4120,
      "strong": 4121,
      "east": 4122,
      "##ected": 4123,
      "park": 4124,
      "support": 4125,
      "##und": 4126,
      "cop": 4127,
      "11": 4128,
      "##0s": 4129,
      "river": 4130,
      "everyone": 4131,
      "couldn": 4132,
      "mount": 4133,
      "cir": 4134,
      "ins": 4135,
      "sea": 4136,
      "fif": 4137,
      "special": 4138,
      "##ived": 4139,
      "fa": 4140,
      "others": 4141,
      "##alth": 4142,
      "hund": 4143,
      "lay": 4144,
      "doctor": 4145,
      "gun": 4146,
      "##elt": 4147,
      "earth": 4148,
      "vi": 4149,
      "abs": 4150,
      "attack": 4151,
      "##rench": 4152,
      "beautiful": 4153,
      "hundred": 4154,
      "charac": 4155,
      "mess": 4156,
      "test": 4157,
      "##pr": 4158,
      "turned": 4159,
      "success": 4160,
      "##oud": 4161,
      "coun": 4162,
      "lady": 4163,
      "##aced": 4164,
      "sweet": 4165,
      "norm": 4166,
      "##con": 4167,
      "thinking": 4168,
      "sister": 4169,
      "##app": 4170,
      "office": 4171,
      "##fic": 4172,
      "grow": 4173,
      "geor": 4174,
      "##gue": 4175,
      "##itten": 4176,
      "##oon": 4177,
      "usually": 4178,
      "fair": 4179,
      "##rent": 4180,
      "summ": 4181,
      "##ster": 4182,
      "##ring": 4183,
      "perform": 4184,
      "europe": 4185,
      "tot": 4186,
      "die": 4187,
      "##ology": 4188,
      "##ances": 4189,
      "##iqu": 4190,
      "seven": 4191,
      "based": 4192,
      "within": 4193,
      ",”": 4194,
      "album": 4195,
      "sept": 4196,
      "##ium": 4197,
      "green": 4198,
      "wall": 4199,
      "jud": 4200,
      "##ently": 4201,
      "minute": 4202,
      "inside": 4203,
      "named": 4204,
      "vir": 4205,
      "british": 4206,
      "cross": 4207,
      "##bs": 4208,
      "##ones": 4209,
      "##lex": 4210,
      "news": 4211,
      "##ged": 4212,
      "##ality": 4213,
      "##ert": 4214,
      "nat": 4215,
      "street": 4216,
      "history": 4217,
      "wish": 4218,
      "rob": 4219,
      "##dle": 4220,
      "##ency": 4221,
      "##ully": 4222,
      "dem": 4223,
      "##lished": 4224,
      "fur": 4225,
      "##ove": 4226,
      "##lly": 4227,
      "30": 4228,
      "coup": 4229,
      "##vers": 4230,
      "aug": 4231,
      "##oh": 4232,
      "building": 4233,
      "##els": 4234,
      "dece": 4235,
      "##ino": 4236,
      "among": 4237,
      "police": 4238,
      "following": 4239,
      "send": 4240,
      "built": 4241,
      "exactly": 4242,
      "lord": 4243,
      "vict": 4244,
      "cann": 4245,
      "wants": 4246,
      "14": 4247,
      "master": 4248,
      "july": 4249,
      "oct": 4250,
      "13": 4251,
      "193": 4252,
      "including": 4253,
      "##band": 4254,
      "buy": 4255,
      "cast": 4256,
      "september": 4257,
      "season": 4258,
      "##zy": 4259,
      "scre": 4260,
      "##ril": 4261,
      "match": 4262,
      "using": 4263,
      "##ford": 4264,
      "held": 4265,
      "service": 4266,
      "ground": 4267,
      "phil": 4268,
      "trou": 4269,
      "rid": 4270,
      "##ii": 4271,
      "appro": 4272,
      "auth": 4273,
      "conn": 4274,
      "twenty": 4275,
      "##itting": 4276,
      "colle": 4277,
      "gotta": 4278,
      "bird": 4279,
      "whatever": 4280,
      "outside": 4281,
      "club": 4282,
      "##ob": 4283,
      "##atic": 4284,
      "lad": 4285,
      "##ma": 4286,
      "##port": 4287,
      "playing": 4288,
      "champ": 4289,
      "imm": 4290,
      "ang": 4291,
      "level": 4292,
      "wood": 4293,
      "across": 4294,
      "##ham": 4295,
      "##ude": 4296,
      "requ": 4297,
      "everybody": 4298,
      "touch": 4299,
      "dark": 4300,
      "##--": 4301,
      "result": 4302,
      "je": 4303,
      "##ement": 4304,
      "local": 4305,
      "##ndon": 4306,
      "single": 4307,
      "lab": 4308,
      "ran": 4309,
      "##uct": 4310,
      "french": 4311,
      "tomorrow": 4312,
      "cra": 4313,
      "shut": 4314,
      "members": 4315,
      "bir": 4316,
      "##umb": 4317,
      "##la": 4318,
      "tech": 4319,
      "arch": 4320,
      "hus": 4321,
      "##thern": 4322,
      "june": 4323,
      "##oke": 4324,
      "months": 4325,
      "##arch": 4326,
      "football": 4327,
      "dest": 4328,
      ".'": 4329,
      "anyone": 4330,
      "minutes": 4331,
      "mor": 4332,
      "vide": 4333,
      "##estern": 4334,
      "din": 4335,
      "##lf": 4336,
      "##ior": 4337,
      "august": 4338,
      "vie": 4339,
      "blue": 4340,
      "possible": 4341,
      "pull": 4342,
      "##bert": 4343,
      "whether": 4344,
      "concer": 4345,
      "box": 4346,
      "century": 4347,
      "laugh": 4348,
      "hair": 4349,
      "##ming": 4350,
      "##ho": 4351,
      "##aged": 4352,
      "##ana": 4353,
      "forg": 4354,
      "effect": 4355,
      "control": 4356,
      "tried": 4357,
      "##fully": 4358,
      "##ories": 4359,
      "prev": 4360,
      "secret": 4361,
      "##ony": 4362,
      "mod": 4363,
      "answer": 4364,
      "treat": 4365,
      "##duc": 4366,
      "press": 4367,
      "till": 4368,
      "ant": 4369,
      "written": 4370,
      "view": 4371,
      "easy": 4372,
      "##unk": 4373,
      "member": 4374,
      "cry": 4375,
      "lived": 4376,
      "##erv": 4377,
      "lu": 4378,
      "april": 4379,
      "former": 4380,
      "ru": 4381,
      "cold": 4382,
      "hill": 4383,
      "##ann": 4384,
      "##unt": 4385,
      "thous": 4386,
      "pet": 4387,
      "appear": 4388,
      "thousand": 4389,
      "ce": 4390,
      "low": 4391,
      "boys": 4392,
      "##ye": 4393,
      "##par": 4394,
      "london": 4395,
      "repres": 4396,
      "##ases": 4397,
      "##ober": 4398,
      "##rest": 4399,
      "field": 4400,
      "iss": 4401,
      "##airs": 4402,
      "october": 4403,
      "##ences": 4404,
      "##anger": 4405,
      "mine": 4406,
      "##gest": 4407,
      "suff": 4408,
      "##vision": 4409,
      "##eth": 4410,
      "##ald": 4411,
      "##ams": 4412,
      "anyway": 4413,
      "fell": 4414,
      "shit": 4415,
      "repl": 4416,
      "population": 4417,
      "husband": 4418,
      "department": 4419,
      "##ination": 4420,
      "pan": 4421,
      "event": 4422,
      "clean": 4423,
      "##ped": 4424,
      "chance": 4425,
      "post": 4426,
      "ital": 4427,
      "nove": 4428,
      "gets": 4429,
      "worry": 4430,
      "proper": 4431,
      "educ": 4432,
      "##gress": 4433,
      "mot": 4434,
      "felt": 4435,
      "##ogr": 4436,
      "##dom": 4437,
      "flo": 4438,
      "december": 4439,
      "instead": 4440,
      "##ued": 4441,
      "current": 4442,
      "england": 4443,
      "complete": 4444,
      "wear": 4445,
      "army": 4446,
      "november": 4447,
      "information": 4448,
      "works": 4449,
      "language": 4450,
      "dav": 4451,
      "tour": 4452,
      "##sy": 4453,
      "particular": 4454,
      "\")": 4455,
      "write": 4456,
      "college": 4457,
      "mass": 4458,
      "##ha": 4459,
      "##bru": 4460,
      "cam": 4461,
      "draw": 4462,
      "gar": 4463,
      "san": 4464,
      "fish": 4465,
      "voice": 4466,
      "##ept": 4467,
      "somebody": 4468,
      "##iving": 4469,
      "command": 4470,
      "process": 4471,
      "defe": 4472,
      "##view": 4473,
      "cook": 4474,
      "worked": 4475,
      "techn": 4476,
      "region": 4477,
      "##cent": 4478,
      "ep": 4479,
      "stra": 4480,
      "bye": 4481,
      "tit": 4482,
      "hours": 4483,
      "##ipp": 4484,
      "tur": 4485,
      "##idge": 4486,
      "trad": 4487,
      "term": 4488,
      "tor": 4489,
      "lives": 4490,
      "fav": 4491,
      "wrote": 4492,
      "priv": 4493,
      "trust": 4494,
      "paper": 4495,
      "forget": 4496,
      "##eared": 4497,
      "seems": 4498,
      "fast": 4499,
      "games": 4500,
      "##key": 4501,
      "25": 4502,
      "hang": 4503,
      "truth": 4504,
      "bri": 4505,
      "couple": 4506,
      "##bruary": 4507,
      "sen": 4508,
      "##fort": 4509,
      "phone": 4510,
      "ris": 4511,
      "lie": 4512,
      "sud": 4513,
      "february": 4514,
      "##attle": 4515,
      "cup": 4516,
      "aren": 4517,
      "television": 4518,
      "ones": 4519,
      "hy": 4520,
      "dress": 4521,
      "lim": 4522,
      "##ified": 4523,
      "##ored": 4524,
      "invol": 4525,
      "192": 4526,
      "pract": 4527,
      "knows": 4528,
      "rail": 4529,
      "america": 4530,
      "##ael": 4531,
      "##men": 4532,
      "nine": 4533,
      "##he": 4534,
      "table": 4535,
      "alth": 4536,
      "diffic": 4537,
      "100": 4538,
      "##itions": 4539,
      "di": 4540,
      "cannot": 4541,
      "although": 4542,
      "ver": 4543,
      "sex": 4544,
      "sense": 4545,
      "##yn": 4546,
      "tonight": 4547,
      "compet": 4548,
      "##mb": 4549,
      "##hm": 4550,
      "except": 4551,
      "daddy": 4552,
      "##aff": 4553,
      "2013": 4554,
      "changed": 4555,
      "parent": 4556,
      "##osp": 4557,
      "hen": 4558,
      "perfect": 4559,
      "##ended": 4560,
      "author": 4561,
      "kids": 4562,
      "vers": 4563,
      "##ef": 4564,
      "soci": 4565,
      "feet": 4566,
      "bott": 4567,
      "cult": 4568,
      "##outh": 4569,
      "##cil": 4570,
      "trave": 4571,
      "civ": 4572,
      "circ": 4573,
      "deep": 4574,
      "bull": 4575,
      "shot": 4576,
      "wel": 4577,
      "luck": 4578,
      "##iod": 4579,
      "##soci": 4580,
      "moved": 4581,
      "space": 4582,
      "represent": 4583,
      "shoot": 4584,
      "award": 4585,
      "cat": 4586,
      "running": 4587,
      "social": 4588,
      "frank": 4589,
      "2010": 4590,
      "##ec": 4591,
      "girls": 4592,
      "mal": 4593,
      "tree": 4594,
      "##raid": 4595,
      "##ization": 4596,
      "birth": 4597,
      "video": 4598,
      "fail": 4599,
      "shar": 4600,
      "associ": 4601,
      "dar": 4602,
      "gent": 4603,
      "##ls": 4604,
      "commune": 4605,
      "##cing": 4606,
      "murder": 4607,
      "##yr": 4608,
      "longer": 4609,
      "accord": 4610,
      "ben": 4611,
      "peter": 4612,
      "george": 4613,
      "health": 4614,
      "fly": 4615,
      "bud": 4616,
      "##ara": 4617,
      "supposed": 4618,
      "protect": 4619,
      "horse": 4620,
      "project": 4621,
      "##avy": 4622,
      "##yal": 4623,
      "afraid": 4624,
      "##oose": 4625,
      "ber": 4626,
      "##asure": 4627,
      "##ges": 4628,
      "honey": 4629,
      "fucking": 4630,
      "international": 4631,
      "##ches": 4632,
      "##por": 4633,
      "hurt": 4634,
      "roman": 4635,
      "##idence": 4636,
      "letter": 4637,
      "##lling": 4638,
      "hop": 4639,
      "trouble": 4640,
      "sudden": 4641,
      "village": 4642,
      "##ata": 4643,
      "##ival": 4644,
      "dro": 4645,
      "force": 4646,
      "picture": 4647,
      "pot": 4648,
      "conv": 4649,
      "##irty": 4650,
      "##itive": 4651,
      "incre": 4652,
      "period": 4653,
      "desc": 4654,
      "den": 4655,
      "deb": 4656,
      "esp": 4657,
      "bear": 4658,
      "cried": 4659,
      "##urs": 4660,
      "corn": 4661,
      "##oint": 4662,
      "##ding": 4663,
      "middle": 4664,
      "james": 4665,
      "indian": 4666,
      "themselves": 4667,
      "##aint": 4668,
      "jim": 4669,
      "prop": 4670,
      "due": 4671,
      "esc": 4672,
      "hosp": 4673,
      "civil": 4674,
      "beat": 4675,
      "rev": 4676,
      "needs": 4677,
      "relig": 4678,
      "catch": 4679,
      "inde": 4680,
      "kept": 4681,
      "comput": 4682,
      "excuse": 4683,
      "cla": 4684,
      "kh": 4685,
      "infl": 4686,
      "vol": 4687,
      "league": 4688,
      "ur": 4689,
      "received": 4690,
      "sand": 4691,
      "william": 4692,
      "bal": 4693,
      "teac": 4694,
      "capital": 4695,
      "waiting": 4696,
      "popular": 4697,
      "accept": 4698,
      "discover": 4699,
      "fro": 4700,
      "engine": 4701,
      "lik": 4702,
      "arri": 4703,
      "player": 4704,
      "character": 4705,
      "##cially": 4706,
      "burn": 4707,
      "type": 4708,
      "career": 4709,
      "pound": 4710,
      "moder": 4711,
      "fut": 4712,
      "gentle": 4713,
      "save": 4714,
      "invest": 4715,
      "viol": 4716,
      "rain": 4717,
      "##emy": 4718,
      "mult": 4719,
      "24": 4720,
      "led": 4721,
      "##ument": 4722,
      "broad": 4723,
      "mhm": 4724,
      "mommy": 4725,
      "seemed": 4726,
      "##go": 4727,
      "straight": 4728,
      "hall": 4729,
      "above": 4730,
      "piece": 4731,
      "chair": 4732,
      "cool": 4733,
      "##come": 4734,
      "mary": 4735,
      "reco": 4736,
      "##ograph": 4737,
      "rul": 4738,
      "countries": 4739,
      "net": 4740,
      "worth": 4741,
      "crit": 4742,
      "created": 4743,
      "##uation": 4744,
      "product": 4745,
      "hung": 4746,
      "afric": 4747,
      "191": 4748,
      "slow": 4749,
      "entire": 4750,
      "eye": 4751,
      "##work": 4752,
      "queen": 4753,
      "##conom": 4754,
      "further": 4755,
      "spir": 4756,
      "include": 4757,
      "surpr": 4758,
      "##more": 4759,
      "refer": 4760,
      "phot": 4761,
      "fran": 4762,
      "##ula": 4763,
      "central": 4764,
      "sett": 4765,
      "funny": 4766,
      "famous": 4767,
      "mist": 4768,
      "##ai": 4769,
      "union": 4770,
      "imag": 4771,
      "ii": 4772,
      "stri": 4773,
      "stat": 4774,
      "ain": 4775,
      "fill": 4776,
      "takes": 4777,
      "##eder": 4778,
      "##ilar": 4779,
      "##ission": 4780,
      "search": 4781,
      "non": 4782,
      "##oof": 4783,
      "##ada": 4784,
      "position": 4785,
      "according": 4786,
      "econom": 4787,
      "phys": 4788,
      "chief": 4789,
      "du": 4790,
      "##to": 4791,
      "board": 4792,
      "atl": 4793,
      "repub": 4794,
      "milit": 4795,
      "##rew": 4796,
      "summer": 4797,
      "fort": 4798,
      "learn": 4799,
      "thou": 4800,
      "##lect": 4801,
      "##ship": 4802,
      "dut": 4803,
      "ring": 4804,
      "##cl": 4805,
      "cloth": 4806,
      "austral": 4807,
      "difficult": 4808,
      "kiss": 4809,
      "amount": 4810,
      "evening": 4811,
      "los": 4812,
      "enj": 4813,
      "##olute": 4814,
      "safe": 4815,
      "republic": 4816,
      "doll": 4817,
      "carry": 4818,
      "drive": 4819,
      "ban": 4820,
      "jour": 4821,
      "fix": 4822,
      "sugg": 4823,
      "track": 4824,
      "##ption": 4825,
      "books": 4826,
      "wow": 4827,
      "suggest": 4828,
      "##bur": 4829,
      "polic": 4830,
      "final": 4831,
      "respect": 4832,
      "##ka": 4833,
      "comb": 4834,
      "itself": 4835,
      "michael": 4836,
      "##ror": 4837,
      "certainly": 4838,
      "role": 4839,
      "neg": 4840,
      "telling": 4841,
      "glad": 4842,
      "weeks": 4843,
      "hospital": 4844,
      "##ially": 4845,
      "minister": 4846,
      "50": 4847,
      "decided": 4848,
      "hm": 4849,
      "sar": 4850,
      "mis": 4851,
      "future": 4852,
      "##ae": 4853,
      "glass": 4854,
      "recogn": 4855,
      "expect": 4856,
      "gard": 4857,
      "forest": 4858,
      "lou": 4859,
      "##ales": 4860,
      "served": 4861,
      "feeling": 4862,
      "21": 4863,
      "whose": 4864,
      "throw": 4865,
      "##room": 4866,
      "grad": 4867,
      "figure": 4868,
      "shop": 4869,
      "dom": 4870,
      "##lo": 4871,
      "stick": 4872,
      "ange": 4873,
      "bene": 4874,
      "nar": 4875,
      "community": 4876,
      "##cr": 4877,
      "##amb": 4878,
      "meeting": 4879,
      "enjoy": 4880,
      "absolute": 4881,
      "nobody": 4882,
      "crazy": 4883,
      "##ky": 4884,
      "##uel": 4885,
      "bag": 4886,
      "##edi": 4887,
      "problems": 4888,
      "##gar": 4889,
      "##omb": 4890,
      "##abb": 4891,
      "exist": 4892,
      "atlant": 4893,
      "##eal": 4894,
      "inn": 4895,
      "##line": 4896,
      "quiet": 4897,
      "prison": 4898,
      "japanese": 4899,
      "nin": 4900,
      "stood": 4901,
      "meant": 4902,
      "bow": 4903,
      "russ": 4904,
      "##mer": 4905,
      "##ration": 4906,
      "sail": 4907,
      "ahead": 4908,
      "hol": 4909,
      "india": 4910,
      "mach": 4911,
      "center": 4912,
      "similar": 4913,
      "hun": 4914,
      "##lin": 4915,
      "roll": 4916,
      "prin": 4917,
      "2011": 4918,
      "parents": 4919,
      "##olution": 4920,
      "arg": 4921,
      "relations": 4922,
      "doub": 4923,
      "david": 4924,
      "host": 4925,
      "##ston": 4926,
      "dream": 4927,
      "mouth": 4928,
      "passed": 4929,
      "danger": 4930,
      "famil": 4931,
      "##acy": 4932,
      "ord": 4933,
      "object": 4934,
      "sick": 4935,
      "champions": 4936,
      "##ays": 4937,
      "finally": 4938,
      "aud": 4939,
      "soft": 4940,
      "##read": 4941,
      "teach": 4942,
      "color": 4943,
      "sad": 4944,
      "mater": 4945,
      "breat": 4946,
      "2006": 4947,
      "sam": 4948,
      "##ille": 4949,
      "places": 4950,
      "espe": 4951,
      "##yle": 4952,
      "modern": 4953,
      "battle": 4954,
      "paul": 4955,
      "virgin": 4956,
      "suppose": 4957,
      "animals": 4958,
      "moving": 4959,
      "agre": 4960,
      "2012": 4961,
      "returned": 4962,
      "##rodu": 4963,
      "brown": 4964,
      "opened": 4965,
      "bes": 4966,
      "self": 4967,
      "energ": 4968,
      "collect": 4969,
      "henry": 4970,
      "push": 4971,
      "especially": 4972,
      "herself": 4973,
      "interesting": 4974,
      "estab": 4975,
      "quickly": 4976,
      "mart": 4977,
      "##agon": 4978,
      "floor": 4979,
      "ken": 4980,
      "resear": 4981,
      "indust": 4982,
      "##ament": 4983,
      "kingdom": 4984,
      "species": 4985,
      "sitting": 4986,
      "wild": 4987,
      "##itor": 4988,
      "subject": 4989,
      "happens": 4990,
      "beginning": 4991,
      "parts": 4992,
      "followed": 4993,
      "separ": 4994,
      "##ken": 4995,
      "##uit": 4996,
      "terri": 4997,
      "germany": 4998,
      "society": 4999,
      "##iding": 5000,
      "defin": 5001,
      "aut": 5002,
      "peace": 5003,
      "province": 5004,
      "market": 5005,
      "lock": 5006,
      "science": 5007,
      "leaving": 5008,
      "bank": 5009,
      "23": 5010,
      "fer": 5011,
      "mir": 5012,
      "mum": 5013,
      "##iment": 5014,
      "council": 5015,
      "research": 5016,
      "##teen": 5017,
      "##ax": 5018,
      "##owers": 5019,
      "spend": 5020,
      "anybody": 5021,
      "earl": 5022,
      "fellow": 5023,
      "whom": 5024,
      "tv": 5025,
      "van": 5026,
      "total": 5027,
      "fem": 5028,
      "##reme": 5029,
      "tax": 5030,
      "disapp": 5031,
      "env": 5032,
      "fle": 5033,
      "##hy": 5034,
      "connect": 5035,
      "nature": 5036,
      "students": 5037,
      "original": 5038,
      "sport": 5039,
      "announ": 5040,
      "towards": 5041,
      "mel": 5042,
      "neigh": 5043,
      "##ager": 5044,
      "paid": 5045,
      "uncle": 5046,
      "clos": 5047,
      "finished": 5048,
      "##ceed": 5049,
      "ice": 5050,
      "egg": 5051,
      "histor": 5052,
      "aff": 5053,
      "royal": 5054,
      "political": 5055,
      "dance": 5056,
      "becom": 5057,
      "questions": 5058,
      "susp": 5059,
      "welcome": 5060,
      "quar": 5061,
      "express": 5062,
      "giving": 5063,
      "bell": 5064,
      "strange": 5065,
      "jer": 5066,
      "speaking": 5067,
      "officer": 5068,
      "ident": 5069,
      "miles": 5070,
      "##com": 5071,
      "##ica": 5072,
      "##riage": 5073,
      "committ": 5074,
      "jes": 5075,
      "##ising": 5076,
      "coast": 5077,
      "##ensive": 5078,
      "##igg": 5079,
      "indeed": 5080,
      "clim": 5081,
      "block": 5082,
      "fing": 5083,
      "necess": 5084,
      "##iff": 5085,
      "##ruct": 5086,
      "bi": 5087,
      "western": 5088,
      "##empt": 5089,
      "fear": 5090,
      "rose": 5091,
      "washing": 5092,
      "obs": 5093,
      "##iers": 5094,
      "activ": 5095,
      "education": 5096,
      "key": 5097,
      "lose": 5098,
      "answered": 5099,
      "cand": 5100,
      "##ole": 5101,
      "##ray": 5102,
      "fund": 5103,
      "forward": 5104,
      "##abad": 5105,
      "##ician": 5106,
      "action": 5107,
      "private": 5108,
      "##ode": 5109,
      "radio": 5110,
      "22": 5111,
      "##king": 5112,
      "fac": 5113,
      "mention": 5114,
      "prince": 5115,
      "01": 5116,
      "somewhere": 5117,
      "director": 5118,
      "neighb": 5119,
      "(\"": 5120,
      "path": 5121,
      "##ades": 5122,
      "stage": 5123,
      "##roy": 5124,
      "belong": 5125,
      "ways": 5126,
      "account": 5127,
      "tar": 5128,
      "jump": 5129,
      "mic": 5130,
      "yours": 5131,
      "boat": 5132,
      "experience": 5133,
      "card": 5134,
      "liter": 5135,
      "ooh": 5136,
      "##ift": 5137,
      "gas": 5138,
      "terms": 5139,
      "published": 5140,
      "development": 5141,
      "natural": 5142,
      "##ping": 5143,
      "respons": 5144,
      "claim": 5145,
      "##ena": 5146,
      "finish": 5147,
      "apart": 5148,
      "base": 5149,
      "##inal": 5150,
      "calif": 5151,
      "energy": 5152,
      "##zz": 5153,
      "##etic": 5154,
      "study": 5155,
      "reached": 5156,
      "cens": 5157,
      "dick": 5158,
      "pack": 5159,
      "##ply": 5160,
      "consider": 5161,
      "californ": 5162,
      "plant": 5163,
      "numbers": 5164,
      "influ": 5165,
      "rout": 5166,
      "damn": 5167,
      "##itional": 5168,
      "depend": 5169,
      "cab": 5170,
      "thom": 5171,
      "##med": 5172,
      "##ero": 5173,
      "##iny": 5174,
      "various": 5175,
      "window": 5176,
      "equal": 5177,
      "cath": 5178,
      "drug": 5179,
      "dinner": 5180,
      "cell": 5181,
      "deg": 5182,
      "bob": 5183,
      "clothes": 5184,
      "california": 5185,
      "seeing": 5186,
      "professional": 5187,
      "doc": 5188,
      "anymore": 5189,
      "plus": 5190,
      "2014": 5191,
      "caught": 5192,
      "whe": 5193,
      "##epend": 5194,
      "surv": 5195,
      "discuss": 5196,
      "seat": 5197,
      "##xic": 5198,
      "cro": 5199,
      "coff": 5200,
      "wed": 5201,
      "independ": 5202,
      "speed": 5203,
      "obv": 5204,
      "fat": 5205,
      "mc": 5206,
      "##rect": 5207,
      "plat": 5208,
      "serious": 5209,
      "##rit": 5210,
      "simple": 5211,
      "prim": 5212,
      "scott": 5213,
      "writing": 5214,
      "allowed": 5215,
      "##gy": 5216,
      "26": 5217,
      "located": 5218,
      "involved": 5219,
      "material": 5220,
      "##uk": 5221,
      "alive": 5222,
      "##ume": 5223,
      "shows": 5224,
      "mun": 5225,
      "page": 5226,
      "##ett": 5227,
      "ash": 5228,
      "##ires": 5229,
      "christian": 5230,
      "snow": 5231,
      "visit": 5232,
      "##nes": 5233,
      "sev": 5234,
      "epis": 5235,
      "dise": 5236,
      "medic": 5237,
      "size": 5238,
      "ox": 5239,
      "insp": 5240,
      "##raft": 5241,
      "enc": 5242,
      "alex": 5243,
      "2007": 5244,
      "princess": 5245,
      "lat": 5246,
      "standing": 5247,
      "spirit": 5248,
      "none": 5249,
      "ow": 5250,
      "sour": 5251,
      "championship": 5252,
      "##cast": 5253,
      "##..": 5254,
      "scient": 5255,
      "tea": 5256,
      "blow": 5257,
      "##loy": 5258,
      "heavy": 5259,
      "fit": 5260,
      "mix": 5261,
      "od": 5262,
      "stup": 5263,
      "##ength": 5264,
      "##itution": 5265,
      "suddenly": 5266,
      "##uted": 5267,
      "hero": 5268,
      "needed": 5269,
      "square": 5270,
      "immedi": 5271,
      "value": 5272,
      "demo": 5273,
      "2016": 5274,
      "sounds": 5275,
      "honest": 5276,
      "title": 5277,
      "situation": 5278,
      "cy": 5279,
      "##ivid": 5280,
      "introdu": 5281,
      "absolutely": 5282,
      "?”": 5283,
      "boss": 5284,
      "##iel": 5285,
      "join": 5286,
      "gives": 5287,
      "lower": 5288,
      "##astern": 5289,
      "ach": 5290,
      "##iron": 5291,
      "military": 5292,
      "##ns": 5293,
      "##mon": 5294,
      "stone": 5295,
      "span": 5296,
      "40": 5297,
      "colon": 5298,
      "sell": 5299,
      "wide": 5300,
      "##ago": 5301,
      "max": 5302,
      "computer": 5303,
      "census": 5304,
      "et": 5305,
      "gri": 5306,
      "spent": 5307,
      "arms": 5308,
      "##ruction": 5309,
      "coach": 5310,
      "appeared": 5311,
      "favor": 5312,
      "fan": 5313,
      "##istic": 5314,
      "bridge": 5315,
      "attention": 5316,
      "bought": 5317,
      "190": 5318,
      "meth": 5319,
      "date": 5320,
      "mac": 5321,
      "##ien": 5322,
      "ide": 5323,
      "28": 5324,
      "produced": 5325,
      "extra": 5326,
      "purp": 5327,
      "##enth": 5328,
      "scr": 5329,
      "added": 5330,
      "thus": 5331,
      "chap": 5332,
      "##others": 5333,
      "##aining": 5334,
      "stopped": 5335,
      "considered": 5336,
      "##cient": 5337,
      "richard": 5338,
      "ut": 5339,
      "address": 5340,
      "stupid": 5341,
      "ol": 5342,
      "manage": 5343,
      "multip": 5344,
      "environ": 5345,
      "dry": 5346,
      "capt": 5347,
      "##ida": 5348,
      "official": 5349,
      "ou": 5350,
      "pu": 5351,
      "knock": 5352,
      "largest": 5353,
      "()": 5354,
      "##cus": 5355,
      "exec": 5356,
      "meaning": 5357,
      "##ails": 5358,
      "##af": 5359,
      "prep": 5360,
      "2009": 5361,
      "shouldn": 5362,
      "broke": 5363,
      "##hood": 5364,
      "##iday": 5365,
      "##irt": 5366,
      "##ids": 5367,
      "robert": 5368,
      "grew": 5369,
      "##omp": 5370,
      "hurry": 5371,
      "length": 5372,
      "mountain": 5373,
      "bath": 5374,
      "gree": 5375,
      "jew": 5376,
      "avail": 5377,
      "27": 5378,
      "##ius": 5379,
      "##erve": 5380,
      "##asons": 5381,
      "clock": 5382,
      "camer": 5383,
      "##lled": 5384,
      "acad": 5385,
      "##ugg": 5386,
      "opport": 5387,
      "hat": 5388,
      "simply": 5389,
      "promise": 5390,
      "##ya": 5391,
      "##ference": 5392,
      "2008": 5393,
      "groups": 5394,
      "possib": 5395,
      "hous": 5396,
      "tall": 5397,
      "relationship": 5398,
      "cow": 5399,
      "tow": 5400,
      "##ask": 5401,
      "bang": 5402,
      "psy": 5403,
      "2015": 5404,
      "hate": 5405,
      "oil": 5406,
      "brand": 5407,
      "fool": 5408,
      "wer": 5409,
      "moon": 5410,
      "##cious": 5411,
      "struct": 5412,
      "watching": 5413,
      "##action": 5414,
      "opportun": 5415,
      "amaz": 5416,
      "southern": 5417,
      "animal": 5418,
      "##bb": 5419,
      "##inary": 5420,
      "##nday": 5421,
      "completely": 5422,
      "virginia": 5423,
      "democr": 5424,
      "mat": 5425,
      "pun": 5426,
      "ancient": 5427,
      "rights": 5428,
      "aha": 5429,
      "division": 5430,
      ".,": 5431,
      "##old": 5432,
      "init": 5433,
      "##ique": 5434,
      "alan": 5435,
      "##ipe": 5436,
      "asking": 5437,
      "attempt": 5438,
      "points": 5439,
      "race": 5440,
      "##oops": 5441,
      "##ension": 5442,
      "thirty": 5443,
      "unless": 5444,
      "##ify": 5445,
      "affect": 5446,
      "guard": 5447,
      "broken": 5448,
      "hom": 5449,
      "names": 5450,
      "##fri": 5451,
      "##olic": 5452,
      "individ": 5453,
      "destroy": 5454,
      "version": 5455,
      "##resh": 5456,
      "access": 5457,
      "impro": 5458,
      "emb": 5459,
      "personal": 5460,
      "##ises": 5461,
      "##ites": 5462,
      "##ville": 5463,
      "prime": 5464,
      "actor": 5465,
      "##light": 5466,
      "##ators": 5467,
      "##icip": 5468,
      "##pper": 5469,
      "deter": 5470,
      "tick": 5471,
      "therefore": 5472,
      "bran": 5473,
      "contract": 5474,
      "included": 5475,
      "sens": 5476,
      "##inated": 5477,
      "difference": 5478,
      "records": 5479,
      "nom": 5480,
      "dig": 5481,
      "site": 5482,
      "princ": 5483,
      "doubt": 5484,
      "environment": 5485,
      "lake": 5486,
      "##uce": 5487,
      "##illa": 5488,
      "bright": 5489,
      "loved": 5490,
      "##wood": 5491,
      "northern": 5492,
      "oly": 5493,
      "higher": 5494,
      "jesus": 5495,
      "chick": 5496,
      "##aven": 5497,
      "inj": 5498,
      "29": 5499,
      "##inist": 5500,
      "flor": 5501,
      "ren": 5502,
      "amb": 5503,
      "employ": 5504,
      "##inois": 5505,
      "bey": 5506,
      "cele": 5507,
      "starting": 5508,
      "regular": 5509,
      "illinois": 5510,
      "##ented": 5511,
      "scot": 5512,
      "below": 5513,
      "songs": 5514,
      "lying": 5515,
      "##ipped": 5516,
      "share": 5517,
      "coffee": 5518,
      "eth": 5519,
      "milk": 5520,
      "wonderful": 5521,
      "##ners": 5522,
      "##cul": 5523,
      "congress": 5524,
      "plays": 5525,
      "2005": 5526,
      "##inct": 5527,
      "trade": 5528,
      "##well": 5529,
      "charles": 5530,
      "review": 5531,
      "warm": 5532,
      "celebr": 5533,
      "sight": 5534,
      "wound": 5535,
      "carried": 5536,
      "careful": 5537,
      "##astic": 5538,
      "joined": 5539,
      "psych": 5540,
      "##face": 5541,
      "pray": 5542,
      "talked": 5543,
      "nearly": 5544,
      "secur": 5545,
      "temper": 5546,
      "##rian": 5547,
      "marriage": 5548,
      "appoint": 5549,
      "bloody": 5550,
      "normal": 5551,
      "yester": 5552,
      "##bon": 5553,
      "arr": 5554,
      "storm": 5555,
      "mov": 5556,
      "##ability": 5557,
      "marry": 5558,
      "desp": 5559,
      "faith": 5560,
      "yesterday": 5561,
      "chem": 5562,
      "founded": 5563,
      "feder": 5564,
      "birthday": 5565,
      "washington": 5566,
      "bay": 5567,
      "##aded": 5568,
      "trees": 5569,
      "china": 5570,
      "##itely": 5571,
      "2000": 5572,
      "birds": 5573,
      "##friend": 5574,
      "vall": 5575,
      "assist": 5576,
      "rap": 5577,
      "areas": 5578,
      "price": 5579,
      "##ological": 5580,
      "leader": 5581,
      "deliver": 5582,
      "##iques": 5583,
      "##uses": 5584,
      "jose": 5585,
      "2022": 5586,
      "castle": 5587,
      "movement": 5588,
      "##ket": 5589,
      "##antly": 5590,
      "parl": 5591,
      "bottom": 5592,
      "##ests": 5593,
      "media": 5594,
      "##field": 5595,
      "honor": 5596,
      "families": 5597,
      "mike": 5598,
      "training": 5599,
      "european": 5600,
      "model": 5601,
      "ba": 5602,
      "cust": 5603,
      "##gen": 5604,
      "##wise": 5605,
      "threat": 5606,
      "neck": 5607,
      "happening": 5608,
      "gall": 5609,
      "##val": 5610,
      "regard": 5611,
      "garden": 5612,
      "eh": 5613,
      "....": 5614,
      "spring": 5615,
      "professor": 5616,
      "crow": 5617,
      "evidence": 5618,
      "interested": 5619,
      "thomas": 5620,
      "eating": 5621,
      "scene": 5622,
      "teacher": 5623,
      "weren": 5624,
      "##uts": 5625,
      "##ground": 5626,
      "ble": 5627,
      "##ura": 5628,
      "caused": 5629,
      "##ca": 5630,
      "##aves": 5631,
      "style": 5632,
      "feed": 5633,
      "jul": 5634,
      "kick": 5635,
      "princip": 5636,
      "data": 5637,
      "tast": 5638,
      "##asing": 5639,
      "governor": 5640,
      "skin": 5641,
      "oce": 5642,
      "##itz": 5643,
      "farm": 5644,
      "##yer": 5645,
      "##board": 5646,
      "method": 5647,
      "drop": 5648,
      "brain": 5649,
      "lovely": 5650,
      "association": 5651,
      "heaven": 5652,
      "store": 5653,
      "smell": 5654,
      "huge": 5655,
      "##oid": 5656,
      "##itude": 5657,
      "southw": 5658,
      "winter": 5659,
      "iron": 5660,
      "rub": 5661,
      "aver": 5662,
      "lines": 5663,
      "##ively": 5664,
      "specific": 5665,
      "movies": 5666,
      "##iot": 5667,
      "stories": 5668,
      "##icle": 5669,
      "mexic": 5670,
      "percent": 5671,
      "showed": 5672,
      "available": 5673,
      "putting": 5674,
      "double": 5675,
      "hmm": 5676,
      "scared": 5677,
      "services": 5678,
      "ess": 5679,
      "kar": 5680,
      "arrest": 5681,
      "fourth": 5682,
      "security": 5683,
      "der": 5684,
      "##lt": 5685,
      "##lement": 5686,
      "##illy": 5687,
      "flight": 5688,
      "schools": 5689,
      "fol": 5690,
      "announced": 5691,
      "tired": 5692,
      "##ees": 5693,
      "election": 5694,
      "empire": 5695,
      "text": 5696,
      "mostly": 5697,
      "production": 5698,
      "developed": 5699,
      "describ": 5700,
      "wal": 5701,
      "anne": 5702,
      "australia": 5703,
      "bon": 5704,
      "tail": 5705,
      "choice": 5706,
      "symp": 5707,
      "##iced": 5708,
      "formed": 5709,
      "ray": 5710,
      "helped": 5711,
      "sky": 5712,
      "continued": 5713,
      "##nal": 5714,
      "wash": 5715,
      "pieces": 5716,
      "occur": 5717,
      "italian": 5718,
      "##hib": 5719,
      "##asion": 5720,
      "section": 5721,
      "spl": 5722,
      "beach": 5723,
      "ended": 5724,
      "cases": 5725,
      "fest": 5726,
      "pyr": 5727,
      "##mas": 5728,
      "##atures": 5729,
      "stars": 5730,
      "paris": 5731,
      "##ledge": 5732,
      "##oring": 5733,
      "worse": 5734,
      "wil": 5735,
      "anal": 5736,
      "offer": 5737,
      "##za": 5738,
      "##ims": 5739,
      "spoke": 5740,
      "twel": 5741,
      "sha": 5742,
      "disp": 5743,
      "impress": 5744,
      "imagine": 5745,
      "forces": 5746,
      "##ria": 5747,
      "##aker": 5748,
      "correct": 5749,
      "judge": 5750,
      "##fl": 5751,
      "##arily": 5752,
      "##amm": 5753,
      "comfort": 5754,
      "letters": 5755,
      "aftern": 5756,
      "##iction": 5757,
      "##que": 5758,
      "decl": 5759,
      "ride": 5760,
      "vot": 5761,
      "vac": 5762,
      "charge": 5763,
      "changes": 5764,
      "silver": 5765,
      "demand": 5766,
      "sac": 5767,
      "note": 5768,
      "novel": 5769,
      "suit": 5770,
      "truck": 5771,
      "calling": 5772,
      "fighting": 5773,
      "##har": 5774,
      "palace": 5775,
      "forth": 5776,
      "muse": 5777,
      "pil": 5778,
      "eastern": 5779,
      "distance": 5780,
      "explain": 5781,
      "angry": 5782,
      "benef": 5783,
      "determ": 5784,
      "##aming": 5785,
      "walked": 5786,
      "learned": 5787,
      "iran": 5788,
      "terrible": 5789,
      "immediately": 5790,
      "crew": 5791,
      "message": 5792,
      "code": 5793,
      "closed": 5794,
      "raised": 5795,
      "rh": 5796,
      "##for": 5797,
      "oppos": 5798,
      "##erson": 5799,
      "##ential": 5800,
      "decision": 5801,
      "math": 5802,
      "2004": 5803,
      "afternoon": 5804,
      "likely": 5805,
      "whoa": 5806,
      "rule": 5807,
      "municip": 5808,
      "comed": 5809,
      "effort": 5810,
      "platform": 5811,
      "##mad": 5812,
      "##cell": 5813,
      "create": 5814,
      "disease": 5815,
      "##oles": 5816,
      "hotel": 5817,
      "31": 5818,
      "fresh": 5819,
      "yellow": 5820,
      "ya": 5821,
      "##aign": 5822,
      "issue": 5823,
      "wit": 5824,
      "pictures": 5825,
      "earlier": 5826,
      "brothers": 5827,
      "##ously": 5828,
      "186": 5829,
      "lots": 5830,
      "politician": 5831,
      "policy": 5832,
      "cred": 5833,
      "##bed": 5834,
      "##pping": 5835,
      "tra": 5836,
      "buck": 5837,
      "busy": 5838,
      "foreign": 5839,
      "##ental": 5840,
      "ought": 5841,
      "aunt": 5842,
      "chann": 5843,
      "continue": 5844,
      "ocean": 5845,
      "cit": 5846,
      "slight": 5847,
      "campaign": 5848,
      "link": 5849,
      "stren": 5850,
      "2001": 5851,
      "minus": 5852,
      "weap": 5853,
      "basket": 5854,
      "dun": 5855,
      "nick": 5856,
      "##off": 5857,
      "theory": 5858,
      "chall": 5859,
      "##iar": 5860,
      "ath": 5861,
      "bound": 5862,
      "events": 5863,
      "2020": 5864,
      "parliam": 5865,
      "bat": 5866,
      "##iest": 5867,
      "##van": 5868,
      "lee": 5869,
      "##ips": 5870,
      "189": 5871,
      "neither": 5872,
      "compl": 5873,
      "covered": 5874,
      "olymp": 5875,
      "'.": 5876,
      "ast": 5877,
      "##aur": 5878,
      "##itted": 5879,
      "fifty": 5880,
      "feature": 5881,
      "spread": 5882,
      "soul": 5883,
      "believed": 5884,
      "legs": 5885,
      "network": 5886,
      "##ga": 5887,
      "weight": 5888,
      "holding": 5889,
      "machine": 5890,
      "gro": 5891,
      "##istan": 5892,
      "instit": 5893,
      "ideas": 5894,
      "museum": 5895,
      "agree": 5896,
      "ven": 5897,
      "##gu": 5898,
      "##yan": 5899,
      "conc": 5900,
      "enemy": 5901,
      "release": 5902,
      "parliament": 5903,
      "##iation": 5904,
      "trip": 5905,
      "established": 5906,
      "canada": 5907,
      "##usion": 5908,
      "contact": 5909,
      "fault": 5910,
      "arab": 5911,
      "currently": 5912,
      "frog": 5913,
      "investig": 5914,
      "committee": 5915,
      "beyond": 5916,
      "spot": 5917,
      "communic": 5918,
      "originally": 5919,
      "##ech": 5920,
      "staff": 5921,
      "##ateg": 5922,
      "joy": 5923,
      "necessary": 5924,
      "fash": 5925,
      "intell": 5926,
      "carol": 5927,
      "centre": 5928,
      "fred": 5929,
      "pock": 5930,
      "na": 5931,
      "youth": 5932,
      "prize": 5933,
      "##asc": 5934,
      "perm": 5935,
      "2018": 5936,
      "medical": 5937,
      "##ocol": 5938,
      "rate": 5939,
      "##gth": 5940,
      "##isf": 5941,
      "##ils": 5942,
      "##ilities": 5943,
      "##ector": 5944,
      "arrived": 5945,
      "twelve": 5946,
      "twice": 5947,
      "emot": 5948,
      "africa": 5949,
      "##iled": 5950,
      "unl": 5951,
      "reading": 5952,
      "walking": 5953,
      "corner": 5954,
      "kore": 5955,
      "weather": 5956,
      "##ables": 5957,
      "grant": 5958,
      "accident": 5959,
      "extreme": 5960,
      "administ": 5961,
      "ladies": 5962,
      "florida": 5963,
      "strength": 5964,
      "loss": 5965,
      "##no": 5966,
      "whis": 5967,
      "approach": 5968,
      "escape": 5969,
      "purpose": 5970,
      "##ek": 5971,
      "##eg": 5972,
      "formula": 5973,
      "##set": 5974,
      "tend": 5975,
      "calm": 5976,
      "##oms": 5977,
      "liber": 5978,
      "hasn": 5979,
      "2017": 5980,
      "opin": 5981,
      "directed": 5982,
      "spanish": 5983,
      "opt": 5984,
      "tex": 5985,
      "successful": 5986,
      "episode": 5987,
      "valley": 5988,
      "##én": 5989,
      "thy": 5990,
      "players": 5991,
      "smart": 5992,
      "leaves": 5993,
      "definitely": 5994,
      "yo": 5995,
      "lift": 5996,
      "##osop": 5997,
      "attract": 5998,
      "singer": 5999,
      "risk": 6000,
      "liked": 6001,
      "fashion": 6002,
      "pin": 6003,
      "direction": 6004,
      "vo": 6005,
      "##che": 6006,
      "print": 6007,
      "throughout": 6008,
      "##lam": 6009,
      "commer": 6010,
      "pir": 6011,
      "##gl": 6012,
      "systems": 6013,
      "obviously": 6014,
      "uk": 6015,
      "##hab": 6016,
      "##ript": 6017,
      "newsp": 6018,
      "launch": 6019,
      "christmas": 6020,
      "elected": 6021,
      "philosop": 6022,
      "italy": 6023,
      "##aper": 6024,
      "bord": 6025,
      "pac": 6026,
      "##uc": 6027,
      "dogs": 6028,
      "scotland": 6029,
      "average": 6030,
      "lucky": 6031,
      "##wa": 6032,
      "##rel": 6033,
      "forty": 6034,
      "golden": 6035,
      "defend": 6036,
      "zero": 6037,
      "##ores": 6038,
      "##ients": 6039,
      "##sequ": 6040,
      "shr": 6041,
      "joe": 6042,
      "dim": 6043,
      "native": 6044,
      "##atives": 6045,
      "##esty": 6046,
      "charl": 6047,
      "eventually": 6048,
      "joseph": 6049,
      "##omm": 6050,
      "forced": 6051,
      "convers": 6052,
      "resour": 6053,
      "swim": 6054,
      "soldiers": 6055,
      "hide": 6056,
      "saint": 6057,
      "##isions": 6058,
      "##uten": 6059,
      "weak": 6060,
      "tells": 6061,
      "louis": 6062,
      "bomb": 6063,
      "hors": 6064,
      "##tered": 6065,
      "knowledge": 6066,
      "driving": 6067,
      "practice": 6068,
      "00": 6069,
      "##ato": 6070,
      "smith": 6071,
      "signific": 6072,
      "screen": 6073,
      "ly": 6074,
      "sus": 6075,
      "anywhere": 6076,
      "##rupt": 6077,
      "brief": 6078,
      "pounds": 6079,
      "achie": 6080,
      "boo": 6081,
      "##under": 6082,
      "repe": 6083,
      "female": 6084,
      "thee": 6085,
      "ham": 6086,
      "crime": 6087,
      "signed": 6088,
      "electric": 6089,
      "growing": 6090,
      "nan": 6091,
      "stock": 6092,
      "technology": 6093,
      "tony": 6094,
      "##sey": 6095,
      "##ched": 6096,
      "rough": 6097,
      "sin": 6098,
      "##eds": 6099,
      "##str": 6100,
      "##athan": 6101,
      "##iverse": 6102,
      "alt": 6103,
      "calls": 6104,
      "duck": 6105,
      "mut": 6106,
      "##pe": 6107,
      "##reg": 6108,
      "shown": 6109,
      "##uments": 6110,
      "victor": 6111,
      "dangerous": 6112,
      "commission": 6113,
      "biggest": 6114,
      "##izing": 6115,
      "railway": 6116,
      "sides": 6117,
      "##pect": 6118,
      "breath": 6119,
      "pig": 6120,
      "##ki": 6121,
      "##wor": 6122,
      "##chan": 6123,
      "##iling": 6124,
      "negative": 6125,
      "medicine": 6126,
      "##aled": 6127,
      "kinds": 6128,
      "##fast": 6129,
      "##ba": 6130,
      "##erved": 6131,
      "##stairs": 6132,
      "chic": 6133,
      "nose": 6134,
      "compos": 6135,
      "memory": 6136,
      "addition": 6137,
      "planet": 6138,
      "dollars": 6139,
      "opportunity": 6140,
      "##aries": 6141,
      "industry": 6142,
      "jen": 6143,
      "nu": 6144,
      "log": 6145,
      "proud": 6146,
      "travel": 6147,
      "dropped": 6148,
      "rules": 6149,
      "##anced": 6150,
      "##vert": 6151,
      "##berg": 6152,
      "gentlemen": 6153,
      "##zen": 6154,
      "godd": 6155,
      "opening": 6156,
      "und": 6157,
      "##ari": 6158,
      "##asant": 6159,
      "acqu": 6160,
      "##iety": 6161,
      "positive": 6162,
      "cities": 6163,
      "bless": 6164,
      "firm": 6165,
      "prem": 6166,
      "discovered": 6167,
      "cart": 6168,
      "sid": 6169,
      "##mmy": 6170,
      "related": 6171,
      "##inese": 6172,
      "basically": 6173,
      "performance": 6174,
      "micro": 6175,
      "kent": 6176,
      "nation": 6177,
      "wine": 6178,
      "##bi": 6179,
      "grown": 6180,
      "culture": 6181,
      "##burg": 6182,
      "##oned": 6183,
      "spr": 6184,
      "highest": 6185,
      "teams": 6186,
      "##ji": 6187,
      "cars": 6188,
      "##ube": 6189,
      "dé": 6190,
      "acting": 6191,
      "flowers": 6192,
      "greater": 6193,
      "188": 6194,
      "switch": 6195,
      "bitch": 6196,
      "religious": 6197,
      "houses": 6198,
      "surface": 6199,
      "constitution": 6200,
      "##play": 6201,
      "older": 6202,
      "smaller": 6203,
      "edge": 6204,
      "characters": 6205,
      "totally": 6206,
      "500": 6207,
      "remain": 6208,
      "student": 6209,
      "slowly": 6210,
      "franc": 6211,
      "aii": 6212,
      "range": 6213,
      "wake": 6214,
      "##ées": 6215,
      "butter": 6216,
      "##anda": 6217,
      "patient": 6218,
      "mistake": 6219,
      "sports": 6220,
      "federal": 6221,
      "emerg": 6222,
      "##oop": 6223,
      "notice": 6224,
      "chinese": 6225,
      "darling": 6226,
      "sant": 6227,
      "##icient": 6228,
      "##ulations": 6229,
      "uses": 6230,
      "2003": 6231,
      "entertain": 6232,
      "wearing": 6233,
      "particularly": 6234,
      "hast": 6235,
      "##part": 6236,
      "missing": 6237,
      "mission": 6238,
      "poly": 6239,
      "duty": 6240,
      "satisf": 6241,
      "hook": 6242,
      "ign": 6243,
      "##ging": 6244,
      "##ini": 6245,
      "choose": 6246,
      "laws": 6247,
      "plants": 6248,
      "justice": 6249,
      "##round": 6250,
      "gradu": 6251,
      "holy": 6252,
      "maid": 6253,
      "tun": 6254,
      "function": 6255,
      "transl": 6256,
      "secretary": 6257,
      "rural": 6258,
      "##ills": 6259,
      "hole": 6260,
      "degree": 6261,
      "cash": 6262,
      "hid": 6263,
      "##aped": 6264,
      "entered": 6265,
      "channel": 6266,
      "35": 6267,
      "cas": 6268,
      "beg": 6269,
      "focus": 6270,
      "grey": 6271,
      "##itect": 6272,
      "heat": 6273,
      "conference": 6274,
      "manager": 6275,
      "includes": 6276,
      "emper": 6277,
      "promot": 6278,
      "journal": 6279,
      "witness": 6280,
      "theat": 6281,
      "saf": 6282,
      "poll": 6283,
      "contrib": 6284,
      "##ification": 6285,
      "magaz": 6286,
      "orders": 6287,
      "##atory": 6288,
      "##aching": 6289,
      "trick": 6290,
      "imposs": 6291,
      "expected": 6292,
      "sword": 6293,
      "architect": 6294,
      "easily": 6295,
      "agreed": 6296,
      "apparent": 6297,
      "finan": 6298,
      "islands": 6299,
      "revolution": 6300,
      "##oved": 6301,
      "##bit": 6302,
      "select": 6303,
      "##ols": 6304,
      "bread": 6305,
      "!”": 6306,
      "ros": 6307,
      "##how": 6308,
      "surround": 6309,
      "academy": 6310,
      "pyrén": 6311,
      "pyrénées": 6312,
      "ell": 6313,
      "rabb": 6314,
      "##yl": 6315,
      "interview": 6316,
      "studio": 6317,
      "lawyer": 6318,
      "horses": 6319,
      "gather": 6320,
      "vote": 6321,
      "##ev": 6322,
      "##ening": 6323,
      "thinks": 6324,
      "2002": 6325,
      "laid": 6326,
      "eld": 6327,
      "gal": 6328,
      "lack": 6329,
      "##ession": 6330,
      "scar": 6331,
      "smile": 6332,
      "dish": 6333,
      "loud": 6334,
      "##ado": 6335,
      "##ibility": 6336,
      "atlantiques": 6337,
      "eggs": 6338,
      "##ining": 6339,
      "que": 6340,
      "operation": 6341,
      "catholic": 6342,
      "bast": 6343,
      "kitch": 6344,
      "male": 6345,
      "yep": 6346,
      "##nie": 6347,
      "##ima": 6348,
      "marsh": 6349,
      "ted": 6350,
      "wol": 6351,
      "magn": 6352,
      "besides": 6353,
      "##edron": 6354,
      "##itation": 6355,
      "##the": 6356,
      "agent": 6357,
      "drunk": 6358,
      "generally": 6359,
      "chicago": 6360,
      ",--": 6361,
      "##ware": 6362,
      "##ja": 6363,
      "reve": 6364,
      "progress": 6365,
      "colour": 6366,
      "provide": 6367,
      "picked": 6368,
      "pak": 6369,
      "rat": 6370,
      "reform": 6371,
      "##otten": 6372,
      "quarter": 6373,
      "southwestern": 6374,
      "kil": 6375,
      "rac": 6376,
      "wrest": 6377,
      "##kins": 6378,
      "##ani": 6379,
      "actress": 6380,
      "empty": 6381,
      "particip": 6382,
      "rank": 6383,
      "chuck": 6384,
      "bigger": 6385,
      "companies": 6386,
      "condition": 6387,
      "diam": 6388,
      "##using": 6389,
      "worried": 6390,
      "bod": 6391,
      "killing": 6392,
      "##esh": 6393,
      "##ette": 6394,
      "orch": 6395,
      "source": 6396,
      "tight": 6397,
      "wet": 6398,
      "issues": 6399,
      "broadcast": 6400,
      "route": 6401,
      "designed": 6402,
      "festival": 6403,
      "##hol": 6404,
      "libr": 6405,
      "glo": 6406,
      "jackson": 6407,
      "appre": 6408,
      "##ios": 6409,
      "mob": 6410,
      "flat": 6411,
      "mont": 6412,
      "distrib": 6413,
      "powerful": 6414,
      "jimmy": 6415,
      "crowd": 6416,
      "nap": 6417,
      "weird": 6418,
      "cham": 6419,
      "majesty": 6420,
      "legal": 6421,
      "awards": 6422,
      "jun": 6423,
      "tape": 6424,
      "complex": 6425,
      "remained": 6426,
      "speech": 6427,
      "larger": 6428,
      "aware": 6429,
      "2021": 6430,
      "pressure": 6431,
      "lieuten": 6432,
      "kitchen": 6433,
      "dyn": 6434,
      "bush": 6435,
      "mountains": 6436,
      "impossible": 6437,
      "##istry": 6438,
      "target": 6439,
      "##orough": 6440,
      "alco": 6441,
      "writer": 6442,
      "standard": 6443,
      "mainly": 6444,
      "honour": 6445,
      "papers": 6446,
      "motor": 6447,
      "filled": 6448,
      "mentioned": 6449,
      "##vin": 6450,
      "##utions": 6451,
      "exam": 6452,
      "officers": 6453,
      "types": 6454,
      "frequ": 6455,
      "freed": 6456,
      "lunch": 6457,
      "##back": 6458,
      "##ander": 6459,
      "plans": 6460,
      "excell": 6461,
      "serve": 6462,
      "greatest": 6463,
      "##aret": 6464,
      "2019": 6465,
      "pleasure": 6466,
      "keeping": 6467,
      "##ashed": 6468,
      "singing": 6469,
      "tourn": 6470,
      "competition": 6471,
      "religion": 6472,
      "african": 6473,
      "russian": 6474,
      "reven": 6475,
      "##ider": 6476,
      "waste": 6477,
      "drag": 6478,
      "critic": 6479,
      "shock": 6480,
      "goal": 6481,
      "placed": 6482,
      "remind": 6483,
      "wedding": 6484,
      "amazing": 6485,
      "fant": 6486,
      "##uf": 6487,
      "##phone": 6488,
      "metal": 6489,
      "clearly": 6490,
      "finger": 6491,
      "##eh": 6492,
      "##asm": 6493,
      "##imate": 6494,
      "##osh": 6495,
      "unit": 6496,
      "aged": 6497,
      "adult": 6498,
      "taught": 6499,
      "recover": 6500,
      "redu": 6501,
      "airport": 6502,
      "32": 6503,
      "jac": 6504,
      "##isted": 6505,
      "prec": 6506,
      "symb": 6507,
      "leading": 6508,
      "occup": 6509,
      "citiz": 6510,
      "kr": 6511,
      "...?": 6512,
      "reported": 6513,
      "(,": 6514,
      "bother": 6515,
      "##iles": 6516,
      "troops": 6517,
      "transport": 6518,
      "admir": 6519,
      "forgot": 6520,
      "lies": 6521,
      "load": 6522,
      "apple": 6523,
      "property": 6524,
      "texas": 6525,
      "lieutenant": 6526,
      "pair": 6527,
      "accomp": 6528,
      "maintain": 6529,
      "corpor": 6530,
      "##host": 6531,
      "wheel": 6532,
      "nic": 6533,
      "##mans": 6534,
      "measure": 6535,
      "##road": 6536,
      "crim": 6537,
      "recorded": 6538,
      "ghost": 6539,
      "breakfast": 6540,
      "organization": 6541,
      "replaced": 6542,
      "individual": 6543,
      "##arr": 6544,
      "sem": 6545,
      "blind": 6546,
      "harm": 6547,
      "traditional": 6548,
      "stuck": 6549,
      "willing": 6550,
      "187": 6551,
      "nav": 6552,
      "grave": 6553,
      "appl": 6554,
      "indic": 6555,
      "forms": 6556,
      "cere": 6557,
      "##iences": 6558,
      "meat": 6559,
      "otherwise": 6560,
      "dragon": 6561,
      "missed": 6562,
      "drew": 6563,
      "satur": 6564,
      "detect": 6565,
      "##isc": 6566,
      "fox": 6567,
      "subst": 6568,
      "teeth": 6569,
      "partner": 6570,
      "syn": 6571,
      "1999": 6572,
      "surprise": 6573,
      "management": 6574,
      "som": 6575,
      "silly": 6576,
      "sake": 6577,
      "applic": 6578,
      "attend": 6579,
      "learning": 6580,
      "emperor": 6581,
      "coo": 6582,
      "thick": 6583,
      "##arian": 6584,
      "mechan": 6585,
      "fright": 6586,
      "plain": 6587,
      "##ishop": 6588,
      "evil": 6589,
      "60": 6590,
      "roof": 6591,
      "windows": 6592,
      "becomes": 6593,
      "camera": 6594,
      "ax": 6595,
      "##iant": 6596,
      "universe": 6597,
      "185": 6598,
      "heads": 6599,
      "leaders": 6600,
      "descri": 6601,
      "independent": 6602,
      "custom": 6603,
      "fal": 6604,
      "saved": 6605,
      "##bell": 6606,
      "shoes": 6607,
      "painting": 6608,
      "performed": 6609,
      "replied": 6610,
      "flying": 6611,
      "##ses": 6612,
      "##ban": 6613,
      "shape": 6614,
      "##cend": 6615,
      "recently": 6616,
      "forever": 6617,
      "##hold": 6618,
      "influence": 6619,
      "rand": 6620,
      "##house": 6621,
      "##ano": 6622,
      "sup": 6623,
      "labor": 6624,
      "crying": 6625,
      "cancer": 6626,
      "features": 6627,
      "artist": 6628,
      "giant": 6629,
      "cho": 6630,
      "##aked": 6631,
      "##aging": 6632,
      "worst": 6633,
      "failed": 6634,
      "départ": 6635,
      "##icles": 6636,
      "handle": 6637,
      "conserv": 6638,
      "ships": 6639,
      "becoming": 6640,
      "département": 6641,
      "faces": 6642,
      "lic": 6643,
      "##ola": 6644,
      "##azz": 6645,
      "construction": 6646,
      "results": 6647,
      "described": 6648,
      "pocket": 6649,
      "mail": 6650,
      "patter": 6651,
      "spain": 6652,
      "consum": 6653,
      "conditions": 6654,
      "##aud": 6655,
      "offered": 6656,
      "starts": 6657,
      "sleeping": 6658,
      "teaching": 6659,
      "lights": 6660,
      "copy": 6661,
      "municipality": 6662,
      "##ties": 6663,
      "shout": 6664,
      "chocol": 6665,
      "##eless": 6666,
      "prior": 6667,
      "##sec": 6668,
      "sov": 6669,
      "finding": 6670,
      "taste": 6671,
      "structure": 6672,
      "mate": 6673,
      "ram": 6674,
      "##ita": 6675,
      "##ulous": 6676,
      "spok": 6677,
      "protest": 6678,
      "image": 6679,
      "directly": 6680,
      "surprised": 6681,
      "etc": 6682,
      "possibly": 6683,
      "northw": 6684,
      "advent": 6685,
      "fifth": 6686,
      "cub": 6687,
      "##rison": 6688,
      "thro": 6689,
      "goodby": 6690,
      "commander": 6691,
      "gor": 6692,
      "content": 6693,
      "schol": 6694,
      "easier": 6695,
      "screw": 6696,
      "likes": 6697,
      "economic": 6698,
      "dor": 6699,
      "mort": 6700,
      "rush": 6701,
      "buried": 6702,
      "comedy": 6703,
      "opinion": 6704,
      "dirty": 6705,
      "##craft": 6706,
      "decide": 6707,
      "runs": 6708,
      "ordered": 6709,
      "concerned": 6710,
      "circum": 6711,
      "prepared": 6712,
      "francis": 6713,
      "##oured": 6714,
      "concept": 6715,
      "realize": 6716,
      "beauty": 6717,
      "soldier": 6718,
      "rome": 6719,
      "strugg": 6720,
      "turns": 6721,
      "seconds": 6722,
      "jeff": 6723,
      "pure": 6724,
      "buildings": 6725,
      "divided": 6726,
      "multiple": 6727,
      "mama": 6728,
      "##iger": 6729,
      "crack": 6730,
      "##lands": 6731,
      "produce": 6732,
      "drinking": 6733,
      "ninet": 6734,
      "45": 6735,
      "ay": 6736,
      "lion": 6737,
      "tan": 6738,
      "reasons": 6739,
      "##istics": 6740,
      "grass": 6741,
      "document": 6742,
      "appreci": 6743,
      "goodbye": 6744,
      "sequ": 6745,
      "sunday": 6746,
      "prove": 6747,
      "mayor": 6748,
      "studied": 6749,
      "planning": 6750,
      "greek": 6751,
      "rare": 6752,
      "islam": 6753,
      "soviet": 6754,
      "row": 6755,
      "##kes": 6756,
      "swear": 6757,
      "hungry": 6758,
      "branch": 6759,
      "mere": 6760,
      "listening": 6761,
      "circle": 6762,
      "pian": 6763,
      "rum": 6764,
      "##head": 6765,
      "altern": 6766,
      "pretend": 6767,
      "constant": 6768,
      "silence": 6769,
      "request": 6770,
      "authority": 6771,
      "cabin": 6772,
      "aye": 6773,
      "map": 6774,
      "pad": 6775,
      "##rey": 6776,
      "onto": 6777,
      "##ulty": 6778,
      "seriously": 6779,
      "delight": 6780,
      "##time": 6781,
      "arts": 6782,
      "split": 6783,
      "dare": 6784,
      "dude": 6785,
      "pope": 6786,
      "tal": 6787,
      "##ste": 6788,
      "afterwards": 6789,
      "carl": 6790,
      "##igned": 6791,
      "penn": 6792,
      "increase": 6793,
      "mexico": 6794,
      "tough": 6795,
      "crown": 6796,
      "americans": 6797,
      "##die": 6798,
      "##ona": 6799,
      "shad": 6800,
      "##imately": 6801,
      "qual": 6802,
      "contr": 6803,
      "humans": 6804,
      "conduct": 6805,
      "##han": 6806,
      "##vey": 6807,
      "anth": 6808,
      "##ulf": 6809,
      "gay": 6810,
      "instr": 6811,
      "costs": 6812,
      "sweetie": 6813,
      "saturday": 6814,
      "vice": 6815,
      "##pa": 6816,
      "##bc": 6817,
      "##uries": 6818,
      "fruit": 6819,
      "journey": 6820,
      "financial": 6821,
      "##kin": 6822,
      "asse": 6823,
      "ourselves": 6824,
      "smoke": 6825,
      "promised": 6826,
      "forgive": 6827,
      "tong": 6828,
      "chea": 6829,
      "orange": 6830,
      "losing": 6831,
      "tournament": 6832,
      "rang": 6833,
      "drama": 6834,
      "stayed": 6835,
      "previous": 6836,
      "separate": 6837,
      "encour": 6838,
      ",'": 6839,
      "gang": 6840,
      "##ris": 6841,
      "##nds": 6842,
      "sher": 6843,
      "active": 6844,
      "minor": 6845,
      "programs": 6846,
      "demon": 6847,
      "km": 6848,
      "friday": 6849,
      "territ": 6850,
      "reality": 6851,
      "physical": 6852,
      "##wr": 6853,
      "##eral": 6854,
      "scale": 6855,
      "purs": 6856,
      "##yeh": 6857,
      "cous": 6858,
      "lect": 6859,
      "poet": 6860,
      "1998": 6861,
      "languages": 6862,
      "es": 6863,
      "rise": 6864,
      "##oul": 6865,
      "drum": 6866,
      "1996": 6867,
      "devil": 6868,
      "odd": 6869,
      "favorite": 6870,
      "##night": 6871,
      "##isl": 6872,
      "magazine": 6873,
      "jail": 6874,
      "1997": 6875,
      "succeed": 6876,
      "haw": 6877,
      "workers": 6878,
      "cru": 6879,
      "turning": 6880,
      "winning": 6881,
      "safety": 6882,
      "jane": 6883,
      "##rial": 6884,
      "brave": 6885,
      "loves": 6886,
      "crick": 6887,
      "studies": 6888,
      "##ker": 6889,
      "item": 6890,
      "shore": 6891,
      "...\"": 6892,
      "favour": 6893,
      "sharp": 6894,
      "tower": 6895,
      "apparently": 6896,
      "tro": 6897,
      "##change": 6898,
      "sav": 6899,
      "##iance": 6900,
      "adj": 6901,
      "carter": 6902,
      "appointed": 6903,
      "begg": 6904,
      "feels": 6905,
      "musical": 6906,
      "upper": 6907,
      "##lom": 6908,
      "react": 6909,
      "canad": 6910,
      "veh": 6911,
      "serge": 6912,
      "rocks": 6913,
      "egy": 6914,
      "threw": 6915,
      "##leep": 6916,
      "units": 6917,
      "cock": 6918,
      "quality": 6919,
      "egypt": 6920,
      "pard": 6921,
      "chicken": 6922,
      "##rb": 6923,
      "amend": 6924,
      "dressed": 6925,
      "formula_": 6926,
      "wat": 6927,
      "asleep": 6928,
      "knowing": 6929,
      "plane": 6930,
      "laughing": 6931,
      "tiny": 6932,
      "wick": 6933,
      "##ex": 6934,
      "##urance": 6935,
      "chart": 6936,
      "knight": 6937,
      "adam": 6938,
      "nucle": 6939,
      "cott": 6940,
      "pic": 6941,
      "##ault": 6942,
      "##bel": 6943,
      "##ami": 6944,
      "##ili": 6945,
      "everywhere": 6946,
      "streets": 6947,
      "candid": 6948,
      "horn": 6949,
      "tang": 6950,
      "##inate": 6951,
      "sugar": 6952,
      "angeles": 6953,
      "bul": 6954,
      "kat": 6955,
      "##fortun": 6956,
      "innoc": 6957,
      "tommy": 6958,
      "##imed": 6959,
      "delic": 6960,
      "##asty": 6961,
      "scen": 6962,
      "retired": 6963,
      "transfer": 6964,
      "jobs": 6965,
      "treatment": 6966,
      "prefer": 6967,
      "helping": 6968,
      "stret": 6969,
      "steal": 6970,
      "democratic": 6971,
      "shame": 6972,
      "exhib": 6973,
      "##iform": 6974,
      "##agr": 6975,
      "surely": 6976,
      "hardly": 6977,
      "location": 6978,
      "required": 6979,
      "chocolate": 6980,
      "gate": 6981,
      "web": 6982,
      "##apt": 6983,
      "coat": 6984,
      "grandma": 6985,
      "thousands": 6986,
      "##ux": 6987,
      "managed": 6988,
      "relax": 6989,
      "significant": 6990,
      "ult": 6991,
      "##uing": 6992,
      "##antic": 6993,
      "pleased": 6994,
      "ears": 6995,
      "showing": 6996,
      "kenned": 6997,
      "##utive": 6998,
      "actual": 6999,
      "fixed": 7000,
      "drugs": 7001,
      "ot": 7002,
      "##lor": 7003,
      "manuf": 7004,
      "flow": 7005,
      "struck": 7006,
      "magic": 7007,
      "manufact": 7008,
      "##rid": 7009,
      "##orter": 7010,
      "shirt": 7011,
      "##rawn": 7012,
      "falls": 7013,
      "ec": 7014,
      "hans": 7015,
      "meas": 7016,
      "##ansas": 7017,
      "resc": 7018,
      "belief": 7019,
      "trial": 7020,
      "introduced": 7021,
      "arrange": 7022,
      "fought": 7023,
      "mi": 7024,
      "daniel": 7025,
      "occasion": 7026,
      "limited": 7027,
      "improve": 7028,
      "despite": 7029,
      "library": 7030,
      "##rated": 7031,
      "toward": 7032,
      "stro": 7033,
      "hadn": 7034,
      "1995": 7035,
      "trib": 7036,
      "assemb": 7037,
      "faster": 7038,
      "##bour": 7039,
      "thir": 7040,
      "remark": 7041,
      "relative": 7042,
      "orchest": 7043,
      ".--": 7044,
      "basic": 7045,
      "politics": 7046,
      "counter": 7047,
      "audience": 7048,
      "slightly": 7049,
      "steel": 7050,
      "guns": 7051,
      "destroyed": 7052,
      "sigh": 7053,
      "##ox": 7054,
      "coal": 7055,
      "depress": 7056,
      "advant": 7057,
      "daily": 7058,
      "products": 7059,
      "responsible": 7060,
      "scottish": 7061,
      "kennedy": 7062,
      "bishop": 7063,
      "nur": 7064,
      "##kn": 7065,
      "suck": 7066,
      "##apes": 7067,
      "require": 7068,
      "##nel": 7069,
      "bottle": 7070,
      "intellig": 7071,
      "kitt": 7072,
      "ves": 7073,
      "trail": 7074,
      "##umn": 7075,
      "unc": 7076,
      "unfortun": 7077,
      "behav": 7078,
      "matters": 7079,
      "salt": 7080,
      "hind": 7081,
      "nurs": 7082,
      "carbon": 7083,
      "killer": 7084,
      "statement": 7085,
      "##what": 7086,
      "falling": 7087,
      "##rain": 7088,
      "doct": 7089,
      "cloud": 7090,
      "complic": 7091,
      "musl": 7092,
      "victory": 7093,
      "accepted": 7094,
      "colonel": 7095,
      "chemical": 7096,
      "kim": 7097,
      "##etch": 7098,
      "flag": 7099,
      "recent": 7100,
      "previously": 7101,
      "propos": 7102,
      "gentleman": 7103,
      "credit": 7104,
      "institute": 7105,
      "cards": 7106,
      "han": 7107,
      "goods": 7108,
      "quit": 7109,
      "britain": 7110,
      "duke": 7111,
      "basketball": 7112,
      "alcohol": 7113,
      "##ushing": 7114,
      "understood": 7115,
      "raise": 7116,
      "photograph": 7117,
      "rapid": 7118,
      "##arm": 7119,
      "##icide": 7120,
      "uns": 7121,
      "score": 7122,
      "1994": 7123,
      "autom": 7124,
      "fingers": 7125,
      "northwest": 7126,
      "bare": 7127,
      "dying": 7128,
      "rick": 7129,
      "##iw": 7130,
      "##east": 7131,
      "traff": 7132,
      "spoken": 7133,
      "pred": 7134,
      "##bey": 7135,
      "confir": 7136,
      "300": 7137,
      "kal": 7138,
      "infect": 7139,
      "height": 7140,
      "memor": 7141,
      "walls": 7142,
      "fu": 7143,
      "##oll": 7144,
      "##itar": 7145,
      "flower": 7146,
      "younger": 7147,
      "steps": 7148,
      "pulled": 7149,
      "canadian": 7150,
      "##lig": 7151,
      "comment": 7152,
      "##ivity": 7153,
      "laura": 7154,
      "owned": 7155,
      "assum": 7156,
      "weeke": 7157,
      "dreams": 7158,
      "budget": 7159,
      "90": 7160,
      "##mn": 7161,
      "##ige": 7162,
      "##cies": 7163,
      "uniform": 7164,
      "##ahedron": 7165,
      "pete": 7166,
      "36": 7167,
      "amp": 7168,
      "freedom": 7169,
      "bac": 7170,
      "lit": 7171,
      "liqu": 7172,
      "chos": 7173,
      "restaur": 7174,
      "signal": 7175,
      "opposite": 7176,
      "unlike": 7177,
      "fired": 7178,
      "wave": 7179,
      "stan": 7180,
      "1990": 7181,
      "advice": 7182,
      "majority": 7183,
      "details": 7184,
      "##ipping": 7185,
      "chairman": 7186,
      "newspaper": 7187,
      "##hen": 7188,
      "##ule": 7189,
      "asia": 7190,
      "ali": 7191,
      "graph": 7192,
      "guil": 7193,
      "ends": 7194,
      "illust": 7195,
      "republican": 7196,
      "diet": 7197,
      "pink": 7198,
      "display": 7199,
      "sergeant": 7200,
      "ty": 7201,
      "eliz": 7202,
      "awful": 7203,
      "defeated": 7204,
      "resources": 7205,
      "loose": 7206,
      "##enced": 7207,
      "##imum": 7208,
      "selling": 7209,
      "noticed": 7210,
      "throat": 7211,
      "##hi": 7212,
      "lif": 7213,
      "resist": 7214,
      "1992": 7215,
      "solution": 7216,
      "protection": 7217,
      "russia": 7218,
      "collection": 7219,
      "knife": 7220,
      "##ops": 7221,
      "medal": 7222,
      "1980": 7223,
      "laughed": 7224,
      "closer": 7225,
      "ded": 7226,
      "hay": 7227,
      "proceed": 7228,
      "pra": 7229,
      "register": 7230,
      "harry": 7231,
      "damage": 7232,
      "forgotten": 7233,
      "shooting": 7234,
      "bodies": 7235,
      "categ": 7236,
      "dip": 7237,
      "jon": 7238,
      "##mark": 7239,
      "appears": 7240,
      "temperature": 7241,
      "cooper": 7242,
      "nineteen": 7243,
      "witch": 7244,
      "shel": 7245,
      "maria": 7246,
      "bringing": 7247,
      "balls": 7248,
      "matches": 7249,
      "punish": 7250,
      "dust": 7251,
      "inhab": 7252,
      "##osph": 7253,
      "##igan": 7254,
      "##icks": 7255,
      "adop": 7256,
      "flu": 7257,
      "remains": 7258,
      "breaking": 7259,
      "provided": 7260,
      "?'": 7261,
      "##bles": 7262,
      "joke": 7263,
      "##atherine": 7264,
      "highly": 7265,
      "numer": 7266,
      "1991": 7267,
      "tradition": 7268,
      "status": 7269,
      "diamond": 7270,
      "rot": 7271,
      "##rate": 7272,
      "##bing": 7273,
      "##stand": 7274,
      "blank": 7275,
      "glob": 7276,
      "causes": 7277,
      "completed": 7278,
      "nathan": 7279,
      "anx": 7280,
      "##ctions": 7281,
      "setting": 7282,
      "dancing": 7283,
      "avoid": 7284,
      "attacked": 7285,
      "senior": 7286,
      "entirely": 7287,
      "latin": 7288,
      "33": 7289,
      "usual": 7290,
      "grace": 7291,
      "boston": 7292,
      "expensive": 7293,
      "recomm": 7294,
      "driver": 7295,
      "australian": 7296,
      "mathem": 7297,
      "bastard": 7298,
      "ari": 7299,
      "navy": 7300,
      "##book": 7301,
      "shakes": 7302,
      "sexual": 7303,
      "susan": 7304,
      "##over": 7305,
      "##cel": 7306,
      "afford": 7307,
      "1993": 7308,
      "calcul": 7309,
      "martin": 7310,
      "conversation": 7311,
      "',": 7312,
      "wings": 7313,
      "##idents": 7314,
      "shell": 7315,
      "imper": 7316,
      "##while": 7317,
      "internet": 7318,
      "hanging": 7319,
      "guilty": 7320,
      "les": 7321,
      "##lict": 7322,
      "##bre": 7323,
      "element": 7324,
      "gain": 7325,
      "ker": 7326,
      "upstairs": 7327,
      "inte": 7328,
      "removed": 7329,
      "discip": 7330,
      "champion": 7331,
      "powers": 7332,
      "wid": 7333,
      "contains": 7334,
      "article": 7335,
      "receive": 7336,
      "settled": 7337,
      "narr": 7338,
      "theatre": 7339,
      "excellent": 7340,
      "draft": 7341,
      "chain": 7342,
      "ability": 7343,
      "lege": 7344,
      "guitar": 7345,
      "useful": 7346,
      "cheese": 7347,
      "prevent": 7348,
      "batter": 7349,
      "mile": 7350,
      "##sb": 7351,
      "##pir": 7352,
      "##uals": 7353,
      "##uyeh": 7354,
      "##onse": 7355,
      "lips": 7356,
      "somehow": 7357,
      "--\"": 7358,
      "swed": 7359,
      "feelings": 7360,
      "whisper": 7361,
      "sees": 7362,
      "spin": 7363,
      "columb": 7364,
      "admit": 7365,
      "temple": 7366,
      "connected": 7367,
      "70": 7368,
      "ped": 7369,
      "##nam": 7370,
      "manner": 7371,
      "tears": 7372,
      "partners": 7373,
      "##ucky": 7374,
      "##ysis": 7375,
      "legisl": 7376,
      "climate": 7377,
      "\"?": 7378,
      "jam": 7379,
      "lan": 7380,
      "sust": 7381,
      "##ost": 7382,
      "##och": 7383,
      "##uous": 7384,
      "exer": 7385,
      "arth": 7386,
      "quant": 7387,
      "appeal": 7388,
      "advance": 7389,
      "reflect": 7390,
      "fifteen": 7391,
      "normally": 7392,
      "bowl": 7393,
      "challen": 7394,
      "extremely": 7395,
      "commercial": 7396,
      "symbol": 7397,
      "pardon": 7398,
      "ga": 7399,
      "pill": 7400,
      "##win": 7401,
      "##oph": 7402,
      "earn": 7403,
      "apolog": 7404,
      "cream": 7405,
      "drawing": 7406,
      "beer": 7407,
      "##irk": 7408,
      "##sels": 7409,
      "establish": 7410,
      "##stein": 7411,
      "lis": 7412,
      "##aren": 7413,
      "##hammad": 7414,
      "senate": 7415,
      "neighbor": 7416,
      "##min": 7417,
      "manip": 7418,
      "proof": 7419,
      "helps": 7420,
      "georg": 7421,
      "achieve": 7422,
      "traffic": 7423,
      "gift": 7424,
      "koh": 7425,
      "lone": 7426,
      "ug": 7427,
      "thin": 7428,
      "##ingu": 7429,
      "keeps": 7430,
      "hyd": 7431,
      "neighbour": 7432,
      "pakistan": 7433,
      "fi": 7434,
      "pow": 7435,
      "tay": 7436,
      "##ckey": 7437,
      "##illed": 7438,
      "gray": 7439,
      "grab": 7440,
      "planned": 7441,
      "ninety": 7442,
      "scientists": 7443,
      "benefit": 7444,
      "bun": 7445,
      "naz": 7446,
      "sab": 7447,
      "##li": 7448,
      "noise": 7449,
      "congr": 7450,
      "agric": 7451,
      "background": 7452,
      "presence": 7453,
      "terror": 7454,
      "addons": 7455,
      "strike": 7456,
      "kings": 7457,
      "doors": 7458,
      "ate": 7459,
      "tru": 7460,
      "##emic": 7461,
      "somewhat": 7462,
      "boom": 7463,
      "parties": 7464,
      "changing": 7465,
      "effects": 7466,
      "perfectly": 7467,
      "##ota": 7468,
      "concent": 7469,
      "fold": 7470,
      "consist": 7471,
      "deput": 7472,
      "entr": 7473,
      "virt": 7474,
      "flew": 7475,
      "supreme": 7476,
      "chosen": 7477,
      "agricult": 7478,
      "reb": 7479,
      "chest": 7480,
      "button": 7481,
      "plenty": 7482,
      "hearing": 7483,
      "steam": 7484,
      "sarah": 7485,
      "teachers": 7486,
      "##nic": 7487,
      "##isher": 7488,
      "sum": 7489,
      "##rie": 7490,
      "unf": 7491,
      "whenever": 7492,
      "brook": 7493,
      "expand": 7494,
      "wars": 7495,
      "184": 7496,
      "mixed": 7497,
      "athlet": 7498,
      "craw": 7499,
      "ther": 7500,
      "frances": 7501,
      "braz": 7502,
      "joint": 7503,
      "flash": 7504,
      "impact": 7505,
      "passing": 7506,
      "jean": 7507,
      "appearance": 7508,
      "bunch": 7509,
      "sed": 7510,
      "tie": 7511,
      "wise": 7512,
      "myst": 7513,
      "##anged": 7514,
      "shoulder": 7515,
      "##intend": 7516,
      "highway": 7517,
      "regional": 7518,
      "instruct": 7519,
      "subt": 7520,
      "piano": 7521,
      "ens": 7522,
      "##izes": 7523,
      "carefully": 7524,
      "variety": 7525,
      "detail": 7526,
      "bullet": 7527,
      "circumst": 7528,
      "wing": 7529,
      "upset": 7530,
      "artists": 7531,
      "operations": 7532,
      "motion": 7533,
      "holiday": 7534,
      "##abeth": 7535,
      "staying": 7536,
      "sixty": 7537,
      "billion": 7538,
      "awarded": 7539,
      "historical": 7540,
      "cousin": 7541,
      "dave": 7542,
      "pier": 7543,
      "ross": 7544,
      "##you": 7545,
      "deck": 7546,
      "desire": 7547,
      "mah": 7548,
      "1989": 7549,
      "hurric": 7550,
      "divor": 7551,
      "violence": 7552,
      "suggested": 7553,
      "bid": 7554,
      "##rom": 7555,
      "##jo": 7556,
      "##rees": 7557,
      "andrew": 7558,
      "stations": 7559,
      "notes": 7560,
      "root": 7561,
      "failure": 7562,
      "territory": 7563,
      "bah": 7564,
      "hyp": 7565,
      "hiding": 7566,
      "kansas": 7567,
      "lin": 7568,
      "samp": 7569,
      "##da": 7570,
      "##abor": 7571,
      "##athers": 7572,
      "barb": 7573,
      "understanding": 7574,
      "silent": 7575,
      "challenge": 7576,
      "ak": 7577,
      "nerv": 7578,
      "##itan": 7579,
      "wend": 7580,
      "sole": 7581,
      "unique": 7582,
      "chris": 7583,
      "watched": 7584,
      "fully": 7585,
      "fancy": 7586,
      "daw": 7587,
      "ire": 7588,
      "mand": 7589,
      "##oma": 7590,
      "dram": 7591,
      "183": 7592,
      "girlfriend": 7593,
      "approx": 7594,
      "hunting": 7595,
      "beside": 7596,
      "primary": 7597,
      "scientific": 7598,
      "64": 7599,
      "cig": 7600,
      "##here": 7601,
      "##gers": 7602,
      "##achel": 7603,
      "passion": 7604,
      "electron": 7605,
      "presented": 7606,
      "labour": 7607,
      "carrying": 7608,
      "connection": 7609,
      "gil": 7610,
      "ms": 7611,
      "##onia": 7612,
      "##aring": 7613,
      "shake": 7614,
      "alice": 7615,
      "gran": 7616,
      "##quar": 7617,
      "advert": 7618,
      "poison": 7619,
      "eleven": 7620,
      "remembered": 7621,
      "pacific": 7622,
      "rabbit": 7623,
      "drawn": 7624,
      "yard": 7625,
      "##olved": 7626,
      "dism": 7627,
      "owner": 7628,
      "kidding": 7629,
      "purch": 7630,
      "severe": 7631,
      "insurance": 7632,
      "anti": 7633,
      "soph": 7634,
      "##eare": 7635,
      "##estic": 7636,
      "brill": 7637,
      "producer": 7638,
      "boyfriend": 7639,
      "transform": 7640,
      "response": 7641,
      "excited": 7642,
      "senator": 7643,
      "dutch": 7644,
      "activity": 7645,
      "voc": 7646,
      "##oe": 7647,
      "##iana": 7648,
      "desper": 7649,
      "respond": 7650,
      "merch": 7651,
      "folk": 7652,
      "advantage": 7653,
      "exerc": 7654,
      "##gil": 7655,
      "##enger": 7656,
      "##isy": 7657,
      "rein": 7658,
      "butt": 7659,
      "##rif": 7660,
      "cod": 7661,
      "##agn": 7662,
      "diss": 7663,
      "clever": 7664,
      "cheer": 7665,
      "signs": 7666,
      "innocent": 7667,
      "ts": 7668,
      "via": 7669,
      "##rick": 7670,
      "reaction": 7671,
      "##rier": 7672,
      "##aki": 7673,
      "blame": 7674,
      "##ache": 7675,
      "serving": 7676,
      "maz": 7677,
      "hundreds": 7678,
      "expression": 7679,
      "citizens": 7680,
      "pitch": 7681,
      "##vania": 7682,
      "gy": 7683,
      "nest": 7684,
      "tab": 7685,
      "##aver": 7686,
      "stom": 7687,
      "shared": 7688,
      "myth": 7689,
      "##achus": 7690,
      "##icted": 7691,
      "hockey": 7692,
      "idiot": 7693,
      "subm": 7694,
      "steve": 7695,
      "shakesp": 7696,
      "tied": 7697,
      "##ds": 7698,
      "online": 7699,
      "##imp": 7700,
      "##ulate": 7701,
      "fields": 7702,
      "indiana": 7703,
      "entertainment": 7704,
      "brazil": 7705,
      "aven": 7706,
      "bite": 7707,
      "##vad": 7708,
      "##do": 7709,
      "##any": 7710,
      "stated": 7711,
      "agency": 7712,
      "contain": 7713,
      "supply": 7714,
      "films": 7715,
      "increased": 7716,
      "debut": 7717,
      "occurred": 7718,
      "shakespeare": 7719,
      "cake": 7720,
      "nations": 7721,
      "bride": 7722,
      "##agan": 7723,
      "##shire": 7724,
      "obtain": 7725,
      "experiment": 7726,
      "armed": 7727,
      "drove": 7728,
      "narrow": 7729,
      "administration": 7730,
      "80": 7731,
      "iv": 7732,
      "##ras": 7733,
      "##owa": 7734,
      "sheep": 7735,
      "plate": 7736,
      "ohio": 7737,
      "edward": 7738,
      "figures": 7739,
      "##porary": 7740,
      "agreement": 7741,
      "comfortable": 7742,
      "declared": 7743,
      "tongue": 7744,
      "##known": 7745,
      "weekend": 7746,
      "zeal": 7747,
      "##ached": 7748,
      "sched": 7749,
      "desert": 7750,
      "conflict": 7751,
      "construct": 7752,
      "hills": 7753,
      "disappeared": 7754,
      "##itzer": 7755,
      "congrat": 7756,
      "task": 7757,
      "##ern": 7758,
      "interp": 7759,
      "thoughts": 7760,
      "independence": 7761,
      "chamber": 7762,
      "##erves": 7763,
      "seek": 7764,
      "string": 7765,
      "1988": 7766,
      "1979": 7767,
      "sales": 7768,
      "solid": 7769,
      "patients": 7770,
      "growth": 7771,
      "riding": 7772,
      "carolina": 7773,
      "ron": 7774,
      "##ih": 7775,
      "##down": 7776,
      "##ira": 7777,
      "elev": 7778,
      "paying": 7779,
      "examples": 7780,
      "proposed": 7781,
      "gt": 7782,
      "beast": 7783,
      "spect": 7784,
      "goodness": 7785,
      "crash": 7786,
      "fallen": 7787,
      "\").": 7788,
      "furn": 7789,
      "##etts": 7790,
      "incred": 7791,
      "courage": 7792,
      "victim": 7793,
      "buddy": 7794,
      "executive": 7795,
      "assistant": 7796,
      "border": 7797,
      "34": 7798,
      "rug": 7799,
      "##lies": 7800,
      "##fall": 7801,
      "exchange": 7802,
      "writ": 7803,
      "evolution": 7804,
      "instance": 7805,
      "invited": 7806,
      "raw": 7807,
      "confeder": 7808,
      "##ropri": 7809,
      "suspect": 7810,
      "materials": 7811,
      "weapons": 7812,
      "featured": 7813,
      "elizabeth": 7814,
      "dial": 7815,
      "fate": 7816,
      "##iable": 7817,
      "##entially": 7818,
      "##eman": 7819,
      "organis": 7820,
      "settlement": 7821,
      "hurricane": 7822,
      "file": 7823,
      "##nis": 7824,
      "inqu": 7825,
      "veget": 7826,
      "guest": 7827,
      "oldest": 7828,
      "concert": 7829,
      "turkey": 7830,
      "olympics": 7831,
      "launched": 7832,
      "sidney": 7833,
      "global": 7834,
      "arthur": 7835,
      "ireland": 7836,
      "emm": 7837,
      "fame": 7838,
      "kong": 7839,
      "##gor": 7840,
      "##ua": 7841,
      "##lla": 7842,
      "##lection": 7843,
      "1987": 7844,
      "slept": 7845,
      "billy": 7846,
      "sisters": 7847,
      "baseball": 7848,
      "appreciate": 7849,
      "sons": 7850,
      "trop": 7851,
      "seasons": 7852,
      "chose": 7853,
      "unknown": 7854,
      "contest": 7855,
      "squared": 7856,
      "supported": 7857,
      "convention": 7858,
      "economy": 7859,
      "chapter": 7860,
      "##arrass": 7861,
      "jones": 7862,
      "##gle": 7863,
      "##inger": 7864,
      "##acle": 7865,
      "##usted": 7866,
      "##angle": 7867,
      "##mond": 7868,
      "johnson": 7869,
      "juice": 7870,
      "represented": 7871,
      "williams": 7872,
      "literature": 7873,
      "cricket": 7874,
      "stomach": 7875,
      "pit": 7876,
      "##oos": 7877,
      "rooms": 7878,
      "opera": 7879,
      "begins": 7880,
      "fairly": 7881,
      "luc": 7882,
      "philosophy": 7883,
      "kohgil": 7884,
      "kohgiluyeh": 7885,
      "ka": 7886,
      "##war": 7887,
      "hamm": 7888,
      "webs": 7889,
      "##iring": 7890,
      "##rael": 7891,
      "1982": 7892,
      "winner": 7893,
      "eaten": 7894,
      "classes": 7895,
      "estate": 7896,
      "domin": 7897,
      "captured": 7898,
      "embarrass": 7899,
      "false": 7900,
      "nut": 7901,
      "##ares": 7902,
      "brad": 7903,
      "pregn": 7904,
      "foundation": 7905,
      "basis": 7906,
      "##syl": 7907,
      "associated": 7908,
      "activities": 7909,
      "apartment": 7910,
      "arrested": 7911,
      "weapon": 7912,
      "wendy": 7913,
      "rhy": 7914,
      "roles": 7915,
      "tag": 7916,
      "##ala": 7917,
      "heav": 7918,
      "aband": 7919,
      "consequ": 7920,
      "additional": 7921,
      "possess": 7922,
      "robin": 7923,
      "angel": 7924,
      "korea": 7925,
      "pennsyl": 7926,
      "inhabit": 7927,
      "##sm": 7928,
      "##bor": 7929,
      "##cest": 7930,
      "conqu": 7931,
      "apply": 7932,
      "follows": 7933,
      "1984": 7934,
      "transm": 7935,
      "ridic": 7936,
      "argument": 7937,
      "emergency": 7938,
      "integr": 7939,
      "tone": 7940,
      "##aman": 7941,
      "brid": 7942,
      "levels": 7943,
      "label": 7944,
      "hoping": 7945,
      "increasing": 7946,
      "orchestra": 7947,
      "##hr": 7948,
      "frame": 7949,
      "mole": 7950,
      "##ulated": 7951,
      "prepar": 7952,
      "realized": 7953,
      "harder": 7954,
      "##ography": 7955,
      "disappear": 7956,
      "seventy": 7957,
      "criminal": 7958,
      "matt": 7959,
      "##ture": 7960,
      "soil": 7961,
      "##aka": 7962,
      "180": 7963,
      "##inson": 7964,
      "merc": 7965,
      "crossed": 7966,
      "jersey": 7967,
      "ku": 7968,
      "latter": 7969,
      "peak": 7970,
      "woo": 7971,
      "rever": 7972,
      "stad": 7973,
      "aspect": 7974,
      "atm": 7975,
      "alph": 7976,
      "trains": 7977,
      "core": 7978,
      "spell": 7979,
      "generation": 7980,
      "sixth": 7981,
      "paint": 7982,
      "wondering": 7983,
      "massachus": 7984,
      "iii": 7985,
      "linc": 7986,
      "rice": 7987,
      "zigg": 7988,
      "##greg": 7989,
      "israel": 7990,
      "reck": 7991,
      "grade": 7992,
      "marg": 7993,
      "acid": 7994,
      "limit": 7995,
      "familiar": 7996,
      "massachusetts": 7997,
      "##uits": 7998,
      "##bow": 7999,
      "##jan": 8000,
      "##itter": 8001,
      "brings": 8002,
      "client": 8003,
      "grun": 8004,
      "emily": 8005,
      "commonly": 8006,
      "michigan": 8007,
      "burned": 8008,
      "##burgh": 8009,
      "disappoint": 8010,
      "ugly": 8011,
      "pool": 8012,
      "##lyn": 8013,
      "##inda": 8014,
      "defense": 8015,
      "responsibility": 8016,
      "homes": 8017,
      "42": 8018,
      "bol": 8019,
      "batt": 8020,
      "fab": 8021,
      "ryan": 8022,
      "toy": 8023,
      "##cher": 8024,
      "era": 8025,
      "script": 8026,
      "holly": 8027,
      "schem": 8028,
      "madam": 8029,
      "treated": 8030,
      "elder": 8031,
      "lincol": 8032,
      "dies": 8033,
      "gh": 8034,
      "mcc": 8035,
      "rent": 8036,
      "##rol": 8037,
      "##ila": 8038,
      "181": 8039,
      "1986": 8040,
      "recording": 8041,
      "railroad": 8042,
      "atlantic": 8043,
      "determined": 8044,
      "nervous": 8045,
      "37": 8046,
      "las": 8047,
      "sale": 8048,
      "##zer": 8049,
      "##othing": 8050,
      "woods": 8051,
      "software": 8052,
      "affairs": 8053,
      "assembly": 8054,
      "pennsylvania": 8055,
      "400": 8056,
      "vent": 8057,
      "##va": 8058,
      "aside": 8059,
      "myster": 8060,
      "19th": 8061,
      "happiness": 8062,
      "engaged": 8063,
      "ordinary": 8064,
      "mobile": 8065,
      "nit": 8066,
      "##ded": 8067,
      "##father": 8068,
      "##ingly": 8069,
      "habit": 8070,
      "spare": 8071,
      "unh": 8072,
      "##ague": 8073,
      "compared": 8074,
      "distinct": 8075,
      "1981": 8076,
      "millions": 8077,
      "solve": 8078,
      "engineering": 8079,
      "amendment": 8080,
      "pul": 8081,
      "##nde": 8082,
      "##eding": 8083,
      "withd": 8084,
      "monday": 8085,
      "proced": 8086,
      "lean": 8087,
      "ages": 8088,
      "friendly": 8089,
      "1976": 8090,
      "officially": 8091,
      "handsome": 8092,
      "critical": 8093,
      "lincoln": 8094,
      "iowa": 8095,
      "len": 8096,
      "thunder": 8097,
      "##inent": 8098,
      "rod": 8099,
      "flood": 8100,
      "exped": 8101,
      "squad": 8102,
      "explos": 8103,
      "irish": 8104,
      "fairy": 8105,
      "suspic": 8106,
      "environmental": 8107,
      "hidden": 8108,
      "wolf": 8109,
      "jill": 8110,
      "viet": 8111,
      "##tr": 8112,
      "wealth": 8113,
      "##eaks": 8114,
      "##odes": 8115,
      "headed": 8116,
      "concern": 8117,
      "suffered": 8118,
      "budd": 8119,
      "settle": 8120,
      "ziggler": 8121,
      "oak": 8122,
      "wales": 8123,
      "##ller": 8124,
      "##olk": 8125,
      "unus": 8126,
      "descend": 8127,
      "conscious": 8128,
      "priest": 8129,
      "provin": 8130,
      "merry": 8131,
      "suffering": 8132,
      "jewish": 8133,
      "admiral": 8134,
      "##osphere": 8135,
      "(;": 8136,
      "##sa": 8137,
      "##gues": 8138,
      "##ora": 8139,
      "##resp": 8140,
      "overall": 8141,
      "smok": 8142,
      "capac": 8143,
      "locked": 8144,
      "wrestling": 8145,
      "revenge": 8146,
      "circumstances": 8147,
      "tub": 8148,
      "##sect": 8149,
      "plot": 8150,
      "parish": 8151,
      "##ologist": 8152,
      "factory": 8153,
      "1971": 8154,
      "eighty": 8155,
      "glasses": 8156,
      "detective": 8157,
      "cheap": 8158,
      "bent": 8159,
      "pale": 8160,
      "##of": 8161,
      "compon": 8162,
      "finds": 8163,
      "decisions": 8164,
      "1985": 8165,
      "discovery": 8166,
      "cats": 8167,
      "ward": 8168,
      "##ati": 8169,
      "roger": 8170,
      "earned": 8171,
      "assy": 8172,
      "edition": 8173,
      "danny": 8174,
      "horri": 8175,
      "industrial": 8176,
      "survive": 8177,
      "nominated": 8178,
      "kur": 8179,
      "ancest": 8180,
      "plastic": 8181,
      "gotten": 8182,
      "gods": 8183,
      "illeg": 8184,
      "literally": 8185,
      "bass": 8186,
      "tam": 8187,
      "##rant": 8188,
      "toil": 8189,
      "##attered": 8190,
      "johnny": 8191,
      "fed": 8192,
      "mood": 8193,
      "wished": 8194,
      "yell": 8195,
      "##bra": 8196,
      "##lend": 8197,
      "##emies": 8198,
      "nights": 8199,
      "stands": 8200,
      "editor": 8201,
      "portug": 8202,
      "dawn": 8203,
      "effective": 8204,
      "garage": 8205,
      "communication": 8206,
      "truly": 8207,
      "38": 8208,
      "tiger": 8209,
      "attended": 8210,
      "sentence": 8211,
      "photo": 8212,
      "recognize": 8213,
      "fleet": 8214,
      "depends": 8215,
      "jacob": 8216,
      "nurse": 8217,
      "deputy": 8218,
      "pity": 8219,
      "##rd": 8220,
      "##don": 8221,
      "anna": 8222,
      "sel": 8223,
      "cris": 8224,
      "handed": 8225,
      "breast": 8226,
      "cultural": 8227,
      "fortune": 8228,
      "shadow": 8229,
      ".)": 8230,
      "##yc": 8231,
      "stir": 8232,
      "##keep": 8233,
      "dean": 8234,
      "suicide": 8235,
      "whoever": 8236,
      "pleasant": 8237,
      "waited": 8238,
      "towns": 8239,
      "1978": 8240,
      "creating": 8241,
      "shortly": 8242,
      "refused": 8243,
      "beneath": 8244,
      "zealand": 8245,
      "rig": 8246,
      "##rets": 8247,
      "##urally": 8248,
      "##char": 8249,
      "##ros": 8250,
      "##rog": 8251,
      "cov": 8252,
      "factor": 8253,
      "recognized": 8254,
      "existence": 8255,
      "cute": 8256,
      "dump": 8257,
      "##ui": 8258,
      "##illing": 8259,
      "noted": 8260,
      "##acks": 8261,
      "arrow": 8262,
      "##ception": 8263,
      "nearby": 8264,
      "##chester": 8265,
      "scholar": 8266,
      "mathemat": 8267,
      "legend": 8268,
      "laughter": 8269,
      "mas": 8270,
      "vector": 8271,
      "##mes": 8272,
      "##rical": 8273,
      "whist": 8274,
      "##iro": 8275,
      "dozen": 8276,
      "conver": 8277,
      "intended": 8278,
      "buying": 8279,
      "elements": 8280,
      "speaker": 8281,
      "bern": 8282,
      "berlin": 8283,
      "domestic": 8284,
      "obvious": 8285,
      "repeated": 8286,
      "unfortunately": 8287,
      "wore": 8288,
      "##can": 8289,
      "##inity": 8290,
      "tooth": 8291,
      "##ito": 8292,
      "unable": 8293,
      "grav": 8294,
      "eric": 8295,
      "monster": 8296,
      "surg": 8297,
      "##bridge": 8298,
      "healthy": 8299,
      "reference": 8300,
      "wounded": 8301,
      "folks": 8302,
      "##water": 8303,
      "##iser": 8304,
      "stress": 8305,
      "##amn": 8306,
      "profit": 8307,
      "equals": 8308,
      "programme": 8309,
      "efforts": 8310,
      "ais": 8311,
      "##put": 8312,
      "underground": 8313,
      "eleph": 8314,
      "1970": 8315,
      "snake": 8316,
      "##laimed": 8317,
      "statistics": 8318,
      "analysis": 8319,
      "swimming": 8320,
      "75": 8321,
      "cav": 8322,
      "##wich": 8323,
      "##alous": 8324,
      "##otic": 8325,
      "##uther": 8326,
      "##iments": 8327,
      "nod": 8328,
      "allows": 8329,
      "##izations": 8330,
      "buff": 8331,
      "surre": 8332,
      "1964": 8333,
      "darkness": 8334,
      "turk": 8335,
      "brig": 8336,
      "romanized": 8337,
      "spending": 8338,
      "##works": 8339,
      "selected": 8340,
      "doctors": 8341,
      "brilliant": 8342,
      "gib": 8343,
      "ze": 8344,
      "##icated": 8345,
      "shook": 8346,
      "seed": 8347,
      "sof": 8348,
      "##arest": 8349,
      "poem": 8350,
      "bitter": 8351,
      "pointed": 8352,
      "advanced": 8353,
      "charlie": 8354,
      "stadium": 8355,
      "wire": 8356,
      "##tes": 8357,
      "##gment": 8358,
      "##jam": 8359,
      "##inations": 8360,
      "##see": 8361,
      "##aine": 8362,
      "conce": 8363,
      "keys": 8364,
      "1975": 8365,
      "reports": 8366,
      "fishing": 8367,
      "brian": 8368,
      "burning": 8369,
      "gardens": 8370,
      "administr": 8371,
      "random": 8372,
      "owe": 8373,
      "stu": 8374,
      "forb": 8375,
      "shir": 8376,
      "moves": 8377,
      "##umber": 8378,
      "##cks": 8379,
      "cruel": 8380,
      "retire": 8381,
      "aircraft": 8382,
      "importance": 8383,
      "delay": 8384,
      "combination": 8385,
      "investigation": 8386,
      "cotton": 8387,
      "lonely": 8388,
      "41": 8389,
      "rib": 8390,
      "zone": 8391,
      "amy": 8392,
      "distur": 8393,
      "sorts": 8394,
      "continues": 8395,
      "annual": 8396,
      "values": 8397,
      "romantic": 8398,
      "cryst": 8399,
      "walter": 8400,
      "premier": 8401,
      "kentucky": 8402,
      "51": 8403,
      "moo": 8404,
      "mud": 8405,
      "mister": 8406,
      "abb": 8407,
      "enemies": 8408,
      "perman": 8409,
      "attitude": 8410,
      "metro": 8411,
      "dealing": 8412,
      "horrible": 8413,
      "sang": 8414,
      "##tle": 8415,
      "##oom": 8416,
      "cher": 8417,
      "##oses": 8418,
      "compound": 8419,
      "##lets": 8420,
      "referred": 8421,
      "sympt": 8422,
      "faced": 8423,
      "hes": 8424,
      "jr": 8425,
      "pour": 8426,
      "##town": 8427,
      "##bl": 8428,
      "##encies": 8429,
      "1974": 8430,
      "rising": 8431,
      "##adesh": 8432,
      "degrees": 8433,
      "goddess": 8434,
      "cem": 8435,
      "ech": 8436,
      "sally": 8437,
      "tale": 8438,
      "saving": 8439,
      "simon": 8440,
      "1973": 8441,
      "painted": 8442,
      "committed": 8443,
      "reviews": 8444,
      "complicated": 8445,
      "congratulations": 8446,
      "goo": 8447,
      "vision": 8448,
      "neut": 8449,
      "loyal": 8450,
      "1972": 8451,
      "1969": 8452,
      "stronger": 8453,
      "application": 8454,
      "mons": 8455,
      "vel": 8456,
      "##ko": 8457,
      "##ading": 8458,
      "asian": 8459,
      "carp": 8460,
      "thrown": 8461,
      "funeral": 8462,
      "1983": 8463,
      "150": 8464,
      "properly": 8465,
      "cooking": 8466,
      "belongs": 8467,
      "bathroom": 8468,
      "challeng": 8469,
      "hired": 8470,
      "jess": 8471,
      "lane": 8472,
      "punch": 8473,
      "tel": 8474,
      "wag": 8475,
      "##tar": 8476,
      "chase": 8477,
      "prosec": 8478,
      "appropri": 8479,
      "attorn": 8480,
      "touched": 8481,
      "khan": 8482,
      "restaurant": 8483,
      "borrow": 8484,
      "mmm": 8485,
      "mental": 8486,
      "om": 8487,
      "pant": 8488,
      "##iber": 8489,
      "##cers": 8490,
      "tools": 8491,
      "stol": 8492,
      "anton": 8493,
      "proved": 8494,
      "marks": 8495,
      "torn": 8496,
      "describe": 8497,
      "mazra": 8498,
      "ridiculous": 8499,
      "##bble": 8500,
      "##bury": 8501,
      "lily": 8502,
      "atom": 8503,
      "teen": 8504,
      "20th": 8505,
      "theme": 8506,
      "explained": 8507,
      "palm": 8508,
      "dumb": 8509,
      "fasc": 8510,
      "shh": 8511,
      "##allow": 8512,
      "bron": 8513,
      "##akh": 8514,
      "headquar": 8515,
      "communities": 8516,
      "cert": 8517,
      "mirror": 8518,
      "ticket": 8519,
      "scarce": 8520,
      "mazraeh": 8521,
      "43": 8522,
      "48": 8523,
      "bone": 8524,
      "bones": 8525,
      "jos": 8526,
      "ark": 8527,
      "talks": 8528,
      "belg": 8529,
      "switzer": 8530,
      "colors": 8531,
      "badly": 8532,
      "stream": 8533,
      "equip": 8534,
      "purple": 8535,
      "creature": 8536,
      "##place": 8537,
      "\"),": 8538,
      "critics": 8539,
      "tracks": 8540,
      "sevent": 8541,
      "fantastic": 8542,
      "tropical": 8543,
      "cant": 8544,
      "tip": 8545,
      "twin": 8546,
      "incident": 8547,
      "recall": 8548,
      "collea": 8549,
      "prepare": 8550,
      "principal": 8551,
      "pattern": 8552,
      "dub": 8553,
      "pension": 8554,
      "vic": 8555,
      "##ij": 8556,
      "##hire": 8557,
      "##wide": 8558,
      "toys": 8559,
      "shah": 8560,
      "cha": 8561,
      "lands": 8562,
      "burst": 8563,
      "potential": 8564,
      "santa": 8565,
      "memorial": 8566,
      "recommend": 8567,
      "cass": 8568,
      "os": 8569,
      "stole": 8570,
      "albert": 8571,
      "income": 8572,
      "1960": 8573,
      "normand": 8574,
      "pupp": 8575,
      "francisco": 8576,
      "instrument": 8577,
      "switzerland": 8578,
      "##ooth": 8579,
      "##gie": 8580,
      "##ashing": 8581,
      "##stone": 8582,
      "shift": 8583,
      "##ching": 8584,
      "splend": 8585,
      "brush": 8586,
      "rode": 8587,
      "erasm": 8588,
      "182": 8589,
      "personally": 8590,
      "babies": 8591,
      "shopping": 8592,
      "cycle": 8593,
      "imperial": 8594,
      "bos": 8595,
      "mak": 8596,
      "##ram": 8597,
      "##bar": 8598,
      "##acing": 8599,
      "##ads": 8600,
      "gosh": 8601,
      "bund": 8602,
      "buzz": 8603,
      "swing": 8604,
      "subsequ": 8605,
      "secure": 8606,
      "typical": 8607,
      "operating": 8608,
      "oxford": 8609,
      "goddamn": 8610,
      "applied": 8611,
      "nuclear": 8612,
      "au": 8613,
      "aid": 8614,
      "fans": 8615,
      "ira": 8616,
      "##ni": 8617,
      "##ali": 8618,
      "weigh": 8619,
      "composed": 8620,
      "betty": 8621,
      "ending": 8622,
      "elim": 8623,
      "depos": 8624,
      "calvad": 8625,
      "germans": 8626,
      "1970s": 8627,
      "exciting": 8628,
      "marked": 8629,
      "jealous": 8630,
      "fortun": 8631,
      "dollar": 8632,
      "calvados": 8633,
      "gord": 8634,
      "##urt": 8635,
      "meal": 8636,
      "##apers": 8637,
      "leon": 8638,
      "##seless": 8639,
      "bug": 8640,
      "ministry": 8641,
      "desk": 8642,
      "winds": 8643,
      "trem": 8644,
      "sufficient": 8645,
      "honestly": 8646,
      "emma": 8647,
      "website": 8648,
      "doo": 8649,
      "crook": 8650,
      "interrupt": 8651,
      "singles": 8652,
      "driven": 8653,
      "1968": 8654,
      "identity": 8655,
      "initial": 8656,
      "impression": 8657,
      "pilot": 8658,
      "alternative": 8659,
      "55": 8660,
      "##vi": 8661,
      "##ici": 8662,
      "anger": 8663,
      "chop": 8664,
      "howard": 8665,
      "commit": 8666,
      "stranger": 8667,
      "##elle": 8668,
      "presidential": 8669,
      "papa": 8670,
      "ladder": 8671,
      "volume": 8672,
      "historic": 8673,
      "frightened": 8674,
      "numerous": 8675,
      "bor": 8676,
      "ment": 8677,
      "por": 8678,
      "##had": 8679,
      "theater": 8680,
      "inch": 8681,
      "mos": 8682,
      "trained": 8683,
      "mans": 8684,
      "coord": 8685,
      "##reek": 8686,
      "incor": 8687,
      "regret": 8688,
      "hearts": 8689,
      "##heim": 8690,
      "ruled": 8691,
      "enjoyed": 8692,
      "approximately": 8693,
      "erasmus": 8694,
      "fare": 8695,
      "wand": 8696,
      "##reh": 8697,
      "##asy": 8698,
      "dod": 8699,
      "##celer": 8700,
      "abd": 8701,
      "worship": 8702,
      "acceler": 8703,
      "expert": 8704,
      "philipp": 8705,
      "dynasty": 8706,
      "rescue": 8707,
      "instructions": 8708,
      "99": 8709,
      "wra": 8710,
      "##thew": 8711,
      "miller": 8712,
      "1963": 8713,
      "classic": 8714,
      "sending": 8715,
      "sympath": 8716,
      "##standing": 8717,
      "atmosphere": 8718,
      "equipment": 8719,
      "jay": 8720,
      "lt": 8721,
      "lung": 8722,
      "sly": 8723,
      "##has": 8724,
      "toast": 8725,
      "##adel": 8726,
      "##iece": 8727,
      "spo": 8728,
      "consult": 8729,
      "checked": 8730,
      "oliver": 8731,
      "44": 8732,
      "bible": 8733,
      "cord": 8734,
      "sink": 8735,
      "beating": 8736,
      "##ador": 8737,
      "liver": 8738,
      "##aints": 8739,
      "guide": 8740,
      "puts": 8741,
      "crap": 8742,
      "1977": 8743,
      "controlled": 8744,
      "roads": 8745,
      "device": 8746,
      "strip": 8747,
      "victoria": 8748,
      "conservative": 8749,
      "vehicle": 8750,
      "margaret": 8751,
      "hunt": 8752,
      "##rich": 8753,
      "##aria": 8754,
      "##itors": 8755,
      "acts": 8756,
      "bubb": 8757,
      "distingu": 8758,
      "eddie": 8759,
      "cutting": 8760,
      "controvers": 8761,
      "closely": 8762,
      "investment": 8763,
      "alexander": 8764,
      "scratch": 8765,
      "puzz": 8766,
      "pregnant": 8767,
      "bbc": 8768,
      "cu": 8769,
      "dum": 8770,
      "fisher": 8771,
      "md": 8772,
      "yu": 8773,
      "##hl": 8774,
      "##vis": 8775,
      "##uri": 8776,
      "##rogen": 8777,
      "clay": 8778,
      "guar": 8779,
      "prefect": 8780,
      "conte": 8781,
      "indians": 8782,
      "##rence": 8783,
      "polish": 8784,
      "listed": 8785,
      "experien": 8786,
      "permission": 8787,
      "georgia": 8788,
      "hong": 8789,
      "ic": 8790,
      "nay": 8791,
      "viv": 8792,
      "##omy": 8793,
      "meanwhile": 8794,
      "confidence": 8795,
      "1945": 8796,
      "devices": 8797,
      "defeat": 8798,
      "prisoners": 8799,
      "initi": 8800,
      "entrance": 8801,
      "stuart": 8802,
      "!'": 8803,
      "fuel": 8804,
      "naked": 8805,
      "pages": 8806,
      "waves": 8807,
      "reject": 8808,
      "notable": 8809,
      "clothing": 8810,
      "pride": 8811,
      "decor": 8812,
      "instant": 8813,
      "confused": 8814,
      "creation": 8815,
      "victims": 8816,
      "moral": 8817,
      "balance": 8818,
      "machines": 8819,
      "separated": 8820,
      "sources": 8821,
      "liquid": 8822,
      "nathaniel": 8823,
      "lap": 8824,
      "rud": 8825,
      "##oot": 8826,
      "##kh": 8827,
      "##οu": 8828,
      "##era": 8829,
      "horror": 8830,
      "drinks": 8831,
      "suffer": 8832,
      "initially": 8833,
      "39": 8834,
      "foss": 8835,
      "gaz": 8836,
      "tap": 8837,
      "##utor": 8838,
      "##rose": 8839,
      "marie": 8840,
      "disney": 8841,
      "slide": 8842,
      "##phy": 8843,
      "charged": 8844,
      "install": 8845,
      "1967": 8846,
      "authorities": 8847,
      "murdered": 8848,
      "observ": 8849,
      "inspector": 8850,
      "delicious": 8851,
      "neighborhood": 8852,
      "surrender": 8853,
      "jin": 8854,
      "pants": 8855,
      "pump": 8856,
      "rear": 8857,
      "reward": 8858,
      "prote": 8859,
      "guests": 8860,
      "phr": 8861,
      "leaf": 8862,
      "parall": 8863,
      "centuries": 8864,
      "studying": 8865,
      "skills": 8866,
      "covers": 8867,
      "injury": 8868,
      "astron": 8869,
      "korean": 8870,
      "junior": 8871,
      "succeeded": 8872,
      "attorney": 8873,
      "lam": 8874,
      "nuts": 8875,
      "tu": 8876,
      "##zing": 8877,
      "##gi": 8878,
      "##sters": 8879,
      "stamp": 8880,
      "clar": 8881,
      "remove": 8882,
      "##onto": 8883,
      "returning": 8884,
      "cops": 8885,
      "earthqu": 8886,
      "catal": 8887,
      "physics": 8888,
      "oxy": 8889,
      "greece": 8890,
      "wilson": 8891,
      "analy": 8892,
      "surrounded": 8893,
      "adopted": 8894,
      "columbia": 8895,
      "unusual": 8896,
      "symptoms": 8897,
      "kan": 8898,
      "##hin": 8899,
      "##inating": 8900,
      "boats": 8901,
      "actions": 8902,
      "depth": 8903,
      "curious": 8904,
      "##ternal": 8905,
      "dougl": 8906,
      "1944": 8907,
      "daisy": 8908,
      "massive": 8909,
      "difficulty": 8910,
      "combined": 8911,
      "breathing": 8912,
      "pushed": 8913,
      "observed": 8914,
      "claimed": 8915,
      "bangl": 8916,
      "##force": 8917,
      "voices": 8918,
      "waters": 8919,
      "intelligence": 8920,
      "dale": 8921,
      "lem": 8922,
      "##cha": 8923,
      "cole": 8924,
      "ahmad": 8925,
      "assume": 8926,
      "holds": 8927,
      "1965": 8928,
      "defence": 8929,
      "visited": 8930,
      "jacket": 8931,
      "surgery": 8932,
      "cd": 8933,
      "jury": 8934,
      "mig": 8935,
      "vert": 8936,
      "##lers": 8937,
      "##onic": 8938,
      "chat": 8939,
      "##unte": 8940,
      "##umes": 8941,
      "pond": 8942,
      "##enses": 8943,
      "soup": 8944,
      "owners": 8945,
      "engage": 8946,
      "bits": 8947,
      "meters": 8948,
      "greet": 8949,
      "musician": 8950,
      "servant": 8951,
      "##awa": 8952,
      "##ropol": 8953,
      "1947": 8954,
      "##...": 8955,
      "capture": 8956,
      "knocked": 8957,
      "methods": 8958,
      "architecture": 8959,
      "revealed": 8960,
      "scenes": 8961,
      "stolen": 8962,
      "tank": 8963,
      "##lav": 8964,
      "##outs": 8965,
      "##agger": 8966,
      "clause": 8967,
      "ours": 8968,
      "##ensions": 8969,
      "regions": 8970,
      "greg": 8971,
      "harv": 8972,
      "leads": 8973,
      "estim": 8974,
      "naturally": 8975,
      "volunte": 8976,
      "engineer": 8977,
      "blocks": 8978,
      "satisfied": 8979,
      "guarant": 8980,
      "lamp": 8981,
      "ric": 8982,
      "##vant": 8983,
      "##rep": 8984,
      "##thy": 8985,
      "##osis": 8986,
      "tender": 8987,
      "shoulders": 8988,
      "relief": 8989,
      "assign": 8990,
      "situ": 8991,
      "crossing": 8992,
      "600": 8993,
      "gross": 8994,
      "nintend": 8995,
      "##mony": 8996,
      "##lus": 8997,
      "##nda": 8998,
      "goals": 8999,
      "##usting": 9000,
      "##ifying": 9001,
      "bruce": 9002,
      "contem": 9003,
      "provides": 9004,
      "tomb": 9005,
      "dread": 9006,
      "valu": 9007,
      "balt": 9008,
      "banks": 9009,
      "jumped": 9010,
      "inspired": 9011,
      "affected": 9012,
      "individuals": 9013,
      "interpret": 9014,
      "douglas": 9015,
      "ip": 9016,
      "lately": 9017,
      "thurs": 9018,
      "##utation": 9019,
      "shiv": 9020,
      "knees": 9021,
      "wanting": 9022,
      "pron": 9023,
      "margin": 9024,
      "disg": 9025,
      "##weight": 9026,
      "deserve": 9027,
      "household": 9028,
      "friendship": 9029,
      "publish": 9030,
      "##ika": 9031,
      "bedroom": 9032,
      "occas": 9033,
      "organized": 9034,
      "insult": 9035,
      "thursday": 9036,
      "az": 9037,
      "fiction": 9038,
      "hatch": 9039,
      "nether": 9040,
      "vul": 9041,
      "noble": 9042,
      "##elled": 9043,
      "communist": 9044,
      "sooner": 9045,
      "classical": 9046,
      "##aws": 9047,
      "videos": 9048,
      "properties": 9049,
      "##heart": 9050,
      "escaped": 9051,
      "argent": 9052,
      "benefits": 9053,
      "maiden": 9054,
      "nintendo": 9055,
      "ald": 9056,
      "nons": 9057,
      "##reck": 9058,
      "##orage": 9059,
      "pole": 9060,
      "gene": 9061,
      "assault": 9062,
      "explan": 9063,
      "taiw": 9064,
      "##box": 9065,
      "figured": 9066,
      "issued": 9067,
      "seventh": 9068,
      "depression": 9069,
      "mouse": 9070,
      "mamm": 9071,
      "##sen": 9072,
      "##etime": 9073,
      "bears": 9074,
      "anch": 9075,
      "##ateful": 9076,
      "arc": 9077,
      "##eping": 9078,
      "interests": 9079,
      "opposed": 9080,
      "debt": 9081,
      "matthew": 9082,
      "corporation": 9083,
      "inhabitants": 9084,
      "expedition": 9085,
      "taiwan": 9086,
      "bc": 9087,
      "dur": 9088,
      "lamb": 9089,
      "pip": 9090,
      "piss": 9091,
      "##ias": 9092,
      "##thm": 9093,
      "##ieur": 9094,
      "spons": 9095,
      "remaining": 9096,
      "capable": 9097,
      "simpl": 9098,
      "minds": 9099,
      "infant": 9100,
      "camb": 9101,
      "widely": 9102,
      "gained": 9103,
      "yum": 9104,
      "##atically": 9105,
      "blast": 9106,
      "betray": 9107,
      "strate": 9108,
      "recru": 9109,
      "ideal": 9110,
      "passage": 9111,
      "superior": 9112,
      "views": 9113,
      "negot": 9114,
      "objects": 9115,
      "maximum": 9116,
      "possibility": 9117,
      "##writer": 9118,
      "nonsense": 9119,
      "alf": 9120,
      "spite": 9121,
      "bond": 9122,
      "##ogue": 9123,
      "strateg": 9124,
      "copies": 9125,
      "index": 9126,
      "quietly": 9127,
      "essentially": 9128,
      "graduated": 9129,
      "sustain": 9130,
      "unhapp": 9131,
      "##respond": 9132,
      "google": 9133,
      "gordon": 9134,
      "aim": 9135,
      "cin": 9136,
      "eve": 9137,
      "hits": 9138,
      "##esis": 9139,
      "reign": 9140,
      "stell": 9141,
      "letting": 9142,
      "muhammad": 9143,
      "##ibi": 9144,
      "elections": 9145,
      "representatives": 9146,
      "hoped": 9147,
      "delivered": 9148,
      "toilet": 9149,
      "normandie": 9150,
      "strategy": 9151,
      "dal": 9152,
      "fel": 9153,
      "##ić": 9154,
      "thief": 9155,
      "##iture": 9156,
      "bend": 9157,
      "loan": 9158,
      "drown": 9159,
      "##otte": 9160,
      "correspond": 9161,
      "drives": 9162,
      "treasure": 9163,
      "verte": 9164,
      "regarded": 9165,
      "pirates": 9166,
      "reduced": 9167,
      "mystery": 9168,
      "eager": 9169,
      "##esome": 9170,
      "inher": 9171,
      "##oto": 9172,
      "stones": 9173,
      "##apore": 9174,
      "unp": 9175,
      "implement": 9176,
      "articles": 9177,
      "constit": 9178,
      "telephone": 9179,
      "profession": 9180,
      "stephen": 9181,
      "photos": 9182,
      "ceremony": 9183,
      "lecture": 9184,
      "items": 9185,
      "49": 9186,
      "65": 9187,
      "bike": 9188,
      "catherine": 9189,
      "hed": 9190,
      "##bled": 9191,
      "founder": 9192,
      "consists": 9193,
      "singapore": 9194,
      "basse": 9195,
      "entry": 9196,
      "grandfather": 9197,
      "districts": 9198,
      "##engers": 9199,
      "toronto": 9200,
      "versions": 9201,
      "necessarily": 9202,
      "conclud": 9203,
      "struggle": 9204,
      "47": 9205,
      "ko": 9206,
      "vast": 9207,
      "##20": 9208,
      "tool": 9209,
      "stairs": 9210,
      "assh": 9211,
      "allen": 9212,
      "smooth": 9213,
      "phase": 9214,
      "moments": 9215,
      "##phia": 9216,
      "reduce": 9217,
      "illness": 9218,
      "operated": 9219,
      "eighteen": 9220,
      "discussion": 9221,
      "branches": 9222,
      "dunno": 9223,
      "repeat": 9224,
      "gig": 9225,
      "jur": 9226,
      "option": 9227,
      "rope": 9228,
      "tum": 9229,
      "tues": 9230,
      "thread": 9231,
      "alas": 9232,
      "nowhere": 9233,
      "##ears": 9234,
      "recon": 9235,
      "column": 9236,
      "barn": 9237,
      "sites": 9238,
      "confess": 9239,
      "answers": 9240,
      "1941": 9241,
      "croat": 9242,
      "digital": 9243,
      "arranged": 9244,
      "category": 9245,
      "headquarters": 9246,
      "95": 9247,
      "##chief": 9248,
      "liz": 9249,
      "concl": 9250,
      "wherever": 9251,
      "acted": 9252,
      "##izz": 9253,
      "kevin": 9254,
      "slave": 9255,
      "accur": 9256,
      "landsc": 9257,
      "alongside": 9258,
      "mercy": 9259,
      "internal": 9260,
      "urban": 9261,
      "affair": 9262,
      "powder": 9263,
      "cemet": 9264,
      "tuesday": 9265,
      "46": 9266,
      "##rim": 9267,
      "##ront": 9268,
      "ing": 9269,
      "##abet": 9270,
      "tear": 9271,
      "agents": 9272,
      "boots": 9273,
      "fond": 9274,
      "\"...": 9275,
      "##aughters": 9276,
      "1962": 9277,
      "equation": 9278,
      "wednes": 9279,
      "spiritual": 9280,
      "granted": 9281,
      "electricity": 9282,
      "punishment": 9283,
      "merchant": 9284,
      "avenue": 9285,
      "appropriate": 9286,
      "oxygen": 9287,
      "wednesday": 9288,
      "1st": 9289,
      "gates": 9290,
      "jazz": 9291,
      "py": 9292,
      "yor": 9293,
      "##oir": 9294,
      "##iac": 9295,
      "##car": 9296,
      "##fish": 9297,
      "##erable": 9298,
      "##eness": 9299,
      "##aling": 9300,
      "loving": 9301,
      "precious": 9302,
      "listened": 9303,
      "##oyd": 9304,
      "awesome": 9305,
      "albums": 9306,
      "philadel": 9307,
      "clubs": 9308,
      "kissed": 9309,
      "votes": 9310,
      "composer": 9311,
      "precise": 9312,
      "cemetery": 9313,
      "philadelphia": 9314,
      "800": 9315,
      "bum": 9316,
      "dna": 9317,
      "fid": 9318,
      "hut": 9319,
      "rivers": 9320,
      "##ancy": 9321,
      "##alt": 9322,
      "ford": 9323,
      "##eline": 9324,
      "indones": 9325,
      "##onscious": 9326,
      "courts": 9327,
      "syd": 9328,
      "swallow": 9329,
      "persu": 9330,
      "collabor": 9331,
      "##iami": 9332,
      "advoc": 9333,
      "testing": 9334,
      "existing": 9335,
      "encoun": 9336,
      "promoted": 9337,
      "pollution": 9338,
      "adventure": 9339,
      "demonstr": 9340,
      "diplom": 9341,
      "cigaret": 9342,
      "context": 9343,
      "ky": 9344,
      "mall": 9345,
      "miami": 9346,
      "rings": 9347,
      "useless": 9348,
      "##oted": 9349,
      "chan": 9350,
      "proph": 9351,
      "spar": 9352,
      "##avan": 9353,
      "##aving": 9354,
      "phen": 9355,
      "warning": 9356,
      "childhood": 9357,
      "adding": 9358,
      "1980s": 9359,
      "1966": 9360,
      "austria": 9361,
      "dawson": 9362,
      "abandoned": 9363,
      "cave": 9364,
      "cattle": 9365,
      "eag": 9366,
      "kw": 9367,
      "pent": 9368,
      "rilla": 9369,
      "sought": 9370,
      "tack": 9371,
      "zoo": 9372,
      "##eur": 9373,
      "##gas": 9374,
      "##rix": 9375,
      "kelly": 9376,
      "meetings": 9377,
      "extended": 9378,
      "morgan": 9379,
      "emotions": 9380,
      "heavily": 9381,
      "bha": 9382,
      "daughters": 9383,
      "fulf": 9384,
      "hart": 9385,
      "jung": 9386,
      "##ouri": 9387,
      "insect": 9388,
      "stores": 9389,
      "dove": 9390,
      "whereas": 9391,
      "persons": 9392,
      "metropol": 9393,
      "solo": 9394,
      "presently": 9395,
      "picking": 9396,
      "cleaning": 9397,
      "practical": 9398,
      "merely": 9399,
      "wicked": 9400,
      "candidate": 9401,
      "splendid": 9402,
      "parallel": 9403,
      "gle": 9404,
      "##arn": 9405,
      "##sex": 9406,
      "neur": 9407,
      "relation": 9408,
      "personality": 9409,
      "baron": 9410,
      "tries": 9411,
      "stepped": 9412,
      "attacks": 9413,
      "counsel": 9414,
      "expecting": 9415,
      "washed": 9416,
      "picard": 9417,
      "sweden": 9418,
      "illegal": 9419,
      "dug": 9420,
      "worn": 9421,
      "error": 9422,
      "finn": 9423,
      "images": 9424,
      "1954": 9425,
      "amongst": 9426,
      "revol": 9427,
      "mexican": 9428,
      "sacrif": 9429,
      "aisne": 9430,
      "iraq": 9431,
      "ale": 9432,
      "##rons": 9433,
      "##alo": 9434,
      "##stre": 9435,
      "neat": 9436,
      "##uls": 9437,
      "orth": 9438,
      "exha": 9439,
      "scored": 9440,
      "smiling": 9441,
      "##ushed": 9442,
      "projects": 9443,
      "intellect": 9444,
      "begun": 9445,
      "description": 9446,
      "bh": 9447,
      "hers": 9448,
      "yan": 9449,
      "##mont": 9450,
      "stim": 9451,
      "##eable": 9452,
      "formation": 9453,
      "monarch": 9454,
      "regiment": 9455,
      "mighty": 9456,
      "fourteen": 9457,
      "invasion": 9458,
      "standards": 9459,
      "gathered": 9460,
      "elephant": 9461,
      "creek": 9462,
      "pipe": 9463,
      "chin": 9464,
      "uncom": 9465,
      "##ogether": 9466,
      "efficient": 9467,
      "defined": 9468,
      "villages": 9469,
      "technical": 9470,
      "sailed": 9471,
      "ashamed": 9472,
      "optim": 9473,
      "bou": 9474,
      "von": 9475,
      "##ón": 9476,
      "##ester": 9477,
      "andy": 9478,
      "##uled": 9479,
      "spoon": 9480,
      "lover": 9481,
      "glor": 9482,
      "positions": 9483,
      "1956": 9484,
      "messages": 9485,
      "pulling": 9486,
      "models": 9487,
      "replace": 9488,
      "convin": 9489,
      "violent": 9490,
      "climb": 9491,
      "muslim": 9492,
      "dramatic": 9493,
      "ske": 9494,
      "##lan": 9495,
      "##leg": 9496,
      "trump": 9497,
      "grateful": 9498,
      "compar": 9499,
      "1990s": 9500,
      "confident": 9501,
      "179": 9502,
      "equival": 9503,
      "divine": 9504,
      "laughs": 9505,
      "latest": 9506,
      "adults": 9507,
      "behavior": 9508,
      "ding": 9509,
      "dating": 9510,
      "hence": 9511,
      "kay": 9512,
      "ni": 9513,
      "##net": 9514,
      "reaching": 9515,
      "soap": 9516,
      "smiled": 9517,
      "finance": 9518,
      "universities": 9519,
      "corps": 9520,
      "1952": 9521,
      "allowing": 9522,
      "altogether": 9523,
      "racing": 9524,
      "gee": 9525,
      "ib": 9526,
      "kir": 9527,
      "##cles": 9528,
      "dogg": 9529,
      "seats": 9530,
      "orph": 9531,
      "comic": 9532,
      "##ifts": 9533,
      "user": 9534,
      "lew": 9535,
      "strang": 9536,
      "causing": 9537,
      "1960s": 9538,
      "hopefully": 9539,
      "cookie": 9540,
      "subjects": 9541,
      "extraord": 9542,
      "emotional": 9543,
      "anthony": 9544,
      "'?": 9545,
      "airl": 9546,
      "gyp": 9547,
      "hated": 9548,
      "##anium": 9549,
      "##oman": 9550,
      "chess": 9551,
      "sheet": 9552,
      "enorm": 9553,
      "##iao": 9554,
      "reserve": 9555,
      "interact": 9556,
      "##velope": 9557,
      "differences": 9558,
      "glory": 9559,
      "stops": 9560,
      "sets": 9561,
      "institution": 9562,
      "starred": 9563,
      "experiences": 9564,
      "churches": 9565,
      "fifa": 9566,
      "norman": 9567,
      "luke": 9568,
      "breathe": 9569,
      "documents": 9570,
      "introduce": 9571,
      "utter": 9572,
      "vacc": 9573,
      "pirate": 9574,
      "license": 9575,
      "desperate": 9576,
      "monsieur": 9577,
      "rag": 9578,
      "tube": 9579,
      "ugh": 9580,
      "##now": 9581,
      "##oons": 9582,
      "##vor": 9583,
      "##gent": 9584,
      "sung": 9585,
      "err": 9586,
      "formal": 9587,
      "swift": 9588,
      "##ibly": 9589,
      "bars": 9590,
      "landed": 9591,
      "awake": 9592,
      "campbell": 9593,
      "supporting": 9594,
      "screaming": 9595,
      "newspapers": 9596,
      "distribution": 9597,
      "narrator": 9598,
      "gest": 9599,
      "yards": 9600,
      "thorough": 9601,
      "##icy": 9602,
      "straw": 9603,
      "##lying": 9604,
      "envelope": 9605,
      "lod": 9606,
      "clin": 9607,
      "clare": 9608,
      "partly": 9609,
      "##inton": 9610,
      "belt": 9611,
      "beings": 9612,
      "##attering": 9613,
      "##lessly": 9614,
      "beaten": 9615,
      "hunter": 9616,
      "championships": 9617,
      "threatened": 9618,
      "sacred": 9619,
      "accompan": 9620,
      "encourage": 9621,
      "incredible": 9622,
      "capacity": 9623,
      "permanent": 9624,
      "valuable": 9625,
      "patch": 9626,
      "si": 9627,
      "yay": 9628,
      "##hu": 9629,
      "sew": 9630,
      "##istol": 9631,
      "##ela": 9632,
      "bold": 9633,
      "scand": 9634,
      "##ava": 9635,
      "reputation": 9636,
      "genius": 9637,
      "absor": 9638,
      "approved": 9639,
      "sandy": 9640,
      "claims": 9641,
      "episodes": 9642,
      "resource": 9643,
      "##iciency": 9644,
      "convinced": 9645,
      "ps": 9646,
      "pitt": 9647,
      "##rete": 9648,
      "whoops": 9649,
      "shin": 9650,
      "trace": 9651,
      "guards": 9652,
      "##issa": 9653,
      "strict": 9654,
      "##otted": 9655,
      "developing": 9656,
      "lesson": 9657,
      "1958": 9658,
      "angle": 9659,
      "lucy": 9660,
      "dedicated": 9661,
      "exercise": 9662,
      "hollywood": 9663,
      "netherlands": 9664,
      "picardie": 9665,
      "cough": 9666,
      "##rot": 9667,
      "...!": 9668,
      "intention": 9669,
      "disord": 9670,
      "collected": 9671,
      "sixteen": 9672,
      "restrict": 9673,
      "raj": 9674,
      "probability": 9675,
      "treas": 9676,
      "tests": 9677,
      "romania": 9678,
      "regarding": 9679,
      "experienced": 9680,
      "91": 9681,
      "boun": 9682,
      "mack": 9683,
      "sna": 9684,
      "##bach": 9685,
      "##yard": 9686,
      "bee": 9687,
      "stern": 9688,
      "asks": 9689,
      "plum": 9690,
      "##ifer": 9691,
      "click": 9692,
      "downstairs": 9693,
      "throne": 9694,
      "worldwide": 9695,
      "shower": 9696,
      "subs": 9697,
      "1961": 9698,
      "shoe": 9699,
      "patri": 9700,
      "1948": 9701,
      "largely": 9702,
      "sweetheart": 9703,
      "lux": 9704,
      "potato": 9705,
      "jerry": 9706,
      "depending": 9707,
      "purposes": 9708,
      "##smith": 9709,
      "slyne": 9710,
      "unhappy": 9711,
      "wis": 9712,
      "##fly": 9713,
      "bees": 9714,
      "beck": 9715,
      "sty": 9716,
      "stable": 9717,
      "moz": 9718,
      "comr": 9719,
      "rolling": 9720,
      "charges": 9721,
      "retreat": 9722,
      "oblig": 9723,
      "hurts": 9724,
      "linear": 9725,
      "possession": 9726,
      "grandpa": 9727,
      "##kyo": 9728,
      "bags": 9729,
      "appointment": 9730,
      "nickn": 9731,
      "aer": 9732,
      "fake": 9733,
      "gum": 9734,
      "pup": 9735,
      "sie": 9736,
      "wreck": 9737,
      "##tha": 9738,
      "spy": 9739,
      "wayne": 9740,
      "disaster": 9741,
      "##beh": 9742,
      "cape": 9743,
      "distant": 9744,
      "memories": 9745,
      "subur": 9746,
      "passes": 9747,
      "airpl": 9748,
      "steven": 9749,
      "typically": 9750,
      "infin": 9751,
      "ruin": 9752,
      "educational": 9753,
      "diagn": 9754,
      "computers": 9755,
      "holes": 9756,
      "hosted": 9757,
      "griff": 9758,
      "olympic": 9759,
      "dynam": 9760,
      "52": 9761,
      "bav": 9762,
[...]
