{
  "version": "1.0",
  "truncation": null,
  "padding": null,
  "added_tokens": [
    {
      "id": 0,
      "content": "[UNK]",
      "single_word": false,
      "lstrip": false,
      "rstrip": false,
      "normalized": false,
      "special": true
    },
    {
      "id": 1,
      "content": "[CLS]",
      "single_word": false,
      "lstrip": false,
      "rstrip": false,
      "normalized": false,
      "special": true
    },
    {
      "id": 2,
      "content": "[SEP]",
      "single_word": false,
      "lstrip": false,
      "rstrip": false,
      "normalized": false,
      "special": true
    },
    {
      "id": 3,
      "content": "[PAD]",
      "single_word": false,
      "lstrip": false,
      "rstrip": false,
      "normalized": false,
      "special": true
    },
    {
      "id": 4,
      "content": "[MASK]",
      "single_word": false,
      "lstrip": false,
      "rstrip": false,
      "normalized": false,
      "special": true
    }
  ],
  "normalizer": null,
  "pre_tokenizer": {
    "type": "Whitespace"
  },
  "post_processor": null,
  "decoder": null,
  "model": {
    "type": "BPE",
    "dropout": null,
    "unk_token": "[UNK]",
    "continuing_subword_prefix": null,
    "end_of_word_suffix": null,
    "fuse_unk": false,
    "byte_fallback": false,
    "ignore_merges": false,
    "vocab": {
      "[UNK]": 0,
      "[CLS]": 1,
      "[SEP]": 2,
      "[PAD]": 3,
      "[MASK]": 4,
      "!": 5,
      "\"": 6,
      "#": 7,
      "$": 8,
      "%": 9,
      "&": 10,
      "'": 11,
      "(": 12,
      ")": 13,
      "*": 14,
      "+": 15,
      ",": 16,
      "-": 17,
      ".": 18,
      "/": 19,
      "0": 20,
      "1": 21,
      "2": 22,
      "3": 23,
      "4": 24,
      "5": 25,
      "6": 26,
      "7": 27,
      "8": 28,
      "9": 29,
      ":": 30,
      ";": 31,
      "<": 32,
      "=": 33,
      ">": 34,
      "?": 35,
      "@": 36,
      "[": 37,
      "\\": 38,
      "]": 39,
      "^": 40,
      "_": 41,
      "`": 42,
      "a": 43,
      "b": 44,
      "c": 45,
      "d": 46,
      "e": 47,
      "f": 48,
      "g": 49,
      "h": 50,
      "i": 51,
      "j": 52,
      "k": 53,
      "l": 54,
      "m": 55,
      "n": 56,
      "o": 57,
      "p": 58,
      "q": 59,
      "r": 60,
      "s": 61,
      "t": 62,
      "u": 63,
      "v": 64,
      "w": 65,
      "x": 66,
      "y": 67,
      "z": 68,
      "{": 69,
      "|": 70,
      "}": 71,
      "~": 72,
      "": 73,
      "": 74,
      "": 75,
      "": 76,
      "": 77,
      "": 78,
      "": 79,
      "": 80,
      "": 81,
      "": 82,
      "": 83,
      "": 84,
      "¡": 85,
      "¢": 86,
      "£": 87,
      "¤": 88,
      "¦": 89,
      "§": 90,
      "¨": 91,
      "©": 92,
      "ª": 93,
      "«": 94,
      "¬": 95,
      "­": 96,
      "®": 97,
      "¯": 98,
      "°": 99,
      "±": 100,
      "²": 101,
      "³": 102,
      "´": 103,
      "µ": 104,
      "¶": 105,
      "·": 106,
      "¸": 107,
      "¹": 108,
      "º": 109,
      "»": 110,
      "¼": 111,
      "½": 112,
      "¾": 113,
      "¿": 114,
      "×": 115,
      "ß": 116,
      "à": 117,
      "á": 118,
      "â": 119,
      "ã": 120,
      "ä": 121,
      "å": 122,
      "æ": 123,
      "ç": 124,
      "è": 125,
      "é": 126,
      "ê": 127,
      "ë": 128,
      "ì": 129,
      "í": 130,
      "î": 131,
      "ï": 132,
      "ð": 133,
      "ñ": 134,
      "ò": 135,
      "ó": 136,
      "ô": 137,
      "õ": 138,
      "ö": 139,
      "÷": 140,
      "ø": 141,
      "ù": 142,
      "ú": 143,
      "û": 144,
      "ü": 145,
      "ý": 146,
      "þ": 147,
      "ÿ": 148,
      "ā": 149,
      "ă": 150,
      "ą": 151,
      "ć": 152,
      "ċ": 153,
      "č": 154,
      "ď": 155,
      "đ": 156,
      "ē": 157,
      "ė": 158,
      "ę": 159,
      "ě": 160,
      "ğ": 161,
      "ģ": 162,
      "ħ": 163,
      "ĩ": 164,
      "ī": 165,
      "ı": 166,
      "ķ": 167,
      "ļ": 168,
      "ľ": 169,
      "ł": 170,
      "ń": 171,
      "ņ": 172,
      "ň": 173,
      "ŋ": 174,
      "ō": 175,
      "ŏ": 176,
      "ő": 177,
      "œ": 178,
      "ŕ": 179,
      "ř": 180,
      "ś": 181,
      "ş": 182,
      "š": 183,
      "ţ": 184,
      "ť": 185,
      "ũ": 186,
      "ū": 187,
      "ŭ": 188,
      "ů": 189,
      "ŵ": 190,
      "ź": 191,
      "ż": 192,
      "ž": 193,
      "ơ": 194,
      "ư": 195,
      "ǎ": 196,
      "ǐ": 197,
      "ǒ": 198,
      "ǔ": 199,
      "ǧ": 200,
      "ǫ": 201,
      "ș": 202,
      "ț": 203,
      "ɒ": 204,
      "ɓ": 205,
      "ɔ": 206,
      "ə": 207,
      "ɛ": 208,
      "ɜ": 209,
      "ɪ": 210,
      "ɹ": 211,
      "ɾ": 212,
      "ʁ": 213,
      "ʊ": 214,
      "ʋ": 215,
      "ʔ": 216,
      "ʰ": 217,
      "ʲ": 218,
      "ʷ": 219,
      "ʹ": 220,
      "ʻ": 221,
      "ʼ": 222,
      "ʾ": 223,
      "ʿ": 224,
      "ˇ": 225,
      "ˈ": 226,
      "ˊ": 227,
      "ˋ": 228,
      "ˌ": 229,
      "ː": 230,
      "˚": 231,
      "˜": 232,
      "ˡ": 233,
      "́": 234,
      "̄": 235,
      "̇": 236,
      "̍": 237,
      "̤": 238,
      "̧": 239,
      "̨": 240,
      "ά": 241,
      "έ": 242,
      "ή": 243,
      "ί": 244,
      "α": 245,
      "β": 246,
      "γ": 247,
      "δ": 248,
      "ε": 249,
      "η": 250,
      "θ": 251,
      "ι": 252,
      "κ": 253,
      "λ": 254,
      "μ": 255,
      "ν": 256,
      "ξ": 257,
      "ο": 258,
      "π": 259,
      "ρ": 260,
      "ς": 261,
      "σ": 262,
      "τ": 263,
      "υ": 264,
      "φ": 265,
      "χ": 266,
      "ψ": 267,
      "ω": 268,
      "ό": 269,
      "ύ": 270,
      "ώ": 271,
      "ϕ": 272,
      "а": 273,
      "б": 274,
      "в": 275,
      "г": 276,
      "д": 277,
      "е": 278,
      "ж": 279,
      "з": 280,
      "и": 281,
      "й": 282,
      "к": 283,
      "л": 284,
      "м": 285,
      "н": 286,
      "о": 287,
      "п": 288,
      "р": 289,
      "с": 290,
      "т": 291,
      "у": 292,
      "ф": 293,
      "х": 294,
      "ц": 295,
      "ч": 296,
      "ш": 297,
      "щ": 298,
      "ы": 299,
      "ь": 300,
      "э": 301,
      "ю": 302,
      "я": 303,
      "ђ": 304,
      "є": 305,
      "і": 306,
      "ї": 307,
      "ј": 308,
      "њ": 309,
      "ћ": 310,
      "ґ": 311,
      "қ": 312,
      "ү": 313,
      "ұ": 314,
      "ә": 315,
      "ӱ": 316,
      "ա": 317,
      "բ": 318,
      "ե": 319,
      "թ": 320,
      "ի": 321,
      "լ": 322,
      "կ": 323,
      "հ": 324,
      "ղ": 325,
      "մ": 326,
      "յ": 327,
      "ն": 328,
      "ո": 329,
      "ռ": 330,
      "ս": 331,
      "վ": 332,
      "տ": 333,
      "ր": 334,
      "ց": 335,
      "ւ": 336,
      "փ": 337,
      "օ": 338,
      "ֆ": 339,
      "ָ": 340,
      "ׁ": 341,
      "א": 342,
      "ב": 343,
      "ג": 344,
      "ד": 345,
      "ה": 346,
      "ו": 347,
      "ח": 348,
      "י": 349,
      "כ": 350,
      "ל": 351,
      "מ": 352,
      "ן": 353,
      "נ": 354,
      "ס": 355,
      "ע": 356,
      "פ": 357,
      "ץ": 358,
      "צ": 359,
      "ר": 360,
      "ש": 361,
      "ת": 362,
      "،": 363,
      "ء": 364,
      "آ": 365,
      "أ": 366,
      "إ": 367,
      "ئ": 368,
      "ا": 369,
      "ب": 370,
      "ة": 371,
      "ت": 372,
      "ث": 373,
      "ج": 374,
      "ح": 375,
      "خ": 376,
      "د": 377,
      "ذ": 378,
      "ر": 379,
      "ز": 380,
      "س": 381,
      "ش": 382,
      "ص": 383,
      "ض": 384,
      "ط": 385,
      "ظ": 386,
      "ع": 387,
      "غ": 388,
      "ـ": 389,
      "ف": 390,
      "ق": 391,
      "ك": 392,
      "ل": 393,
      "م": 394,
      "ن": 395,
      "ه": 396,
      "و": 397,
      "ى": 398,
      "ي": 399,
      "ً": 400,
      "َ": 401,
      "ُ": 402,
      "ِ": 403,
      "ّ": 404,
      "ْ": 405,
      "ٓ": 406,
      "١": 407,
      "٨": 408,
      "ٰ": 409,
      "ٱ": 410,
      "پ": 411,
      "چ": 412,
      "ژ": 413,
      "ک": 414,
      "گ": 415,
      "ہ": 416,
      "ۆ": 417,
      "ی": 418,
      "ە": 419,
      "ۚ": 420,
      "۟": 421,
      "ۢ": 422,
      "ۥ": 423,
      "ं": 424,
      "ः": 425,
      "अ": 426,
      "आ": 427,
      "इ": 428,
      "उ": 429,
      "ओ": 430,
      "क": 431,
      "ख": 432,
      "ग": 433,
      "च": 434,
      "छ": 435,
      "ज": 436,
      "ट": 437,
      "ण": 438,
      "त": 439,
      "थ": 440,
      "द": 441,
      "ध": 442,
      "न": 443,
      "प": 444,
      "ब": 445,
      "भ": 446,
      "म": 447,
      "य": 448,
      "र": 449,
      "ल": 450,
      "व": 451,
      "श": 452,
      "ष": 453,
      "स": 454,
      "ह": 455,
      "़": 456,
      "ा": 457,
      "ि": 458,
      "ी": 459,
      "ु": 460,
      "ू": 461,
      "ृ": 462,
      "े": 463,
      "ै": 464,
      "ो": 465,
      "्": 466,
      "।": 467,
      "०": 468,
      "२": 469,
      "ং": 470,
      "আ": 471,
      "ই": 472,
      "ও": 473,
      "ক": 474,
      "খ": 475,
      "গ": 476,
      "ঙ": 477,
      "চ": 478,
      "ছ": 479,
      "জ": 480,
      "ঞ": 481,
      "ট": 482,
      "ণ": 483,
      "ত": 484,
      "থ": 485,
      "দ": 486,
      "ধ": 487,
      "ন": 488,
      "প": 489,
      "ব": 490,
      "ভ": 491,
      "ম": 492,
      "য": 493,
      "র": 494,
      "ল": 495,
      "শ": 496,
      "ষ": 497,
      "স": 498,
      "হ": 499,
      "়": 500,
      "া": 501,
      "ি": 502,
      "ী": 503,
      "ু": 504,
      "ূ": 505,
      "ৃ": 506,
      "ে": 507,
      "ৈ": 508,
      "ো": 509,
      "্": 510,
      "ਂ": 511,
      "ਆ": 512,
      "ਓ": 513,
      "ਗ": 514,
      "ਚ": 515,
      "ਜ": 516,
      "ਣ": 517,
      "ਥ": 518,
      "ਨ": 519,
      "ਪ": 520,
      "ਬ": 521,
      "ਮ": 522,
      "ਰ": 523,
      "ਲ": 524,
      "ਵ": 525,
      "ਾ": 526,
      "ੀ": 527,
      "ੁ": 528,
      "ੇ": 529,
      "ੈ": 530,
      "ੰ": 531,
      "ੱ": 532,
      "ક": 533,
      "ગ": 534,
      "જ": 535,
      "ત": 536,
      "ર": 537,
      "લ": 538,
      "ા": 539,
      "ી": 540,
      "ુ": 541,
      "ો": 542,
      "க": 543,
      "த": 544,
      "ப": 545,
      "ம": 546,
      "ய": 547,
      "ல": 548,
      "ா": 549,
      "ி": 550,
      "ொ": 551,
      "்": 552,
      "ಕ": 553,
      "ಟ": 554,
      "ಡ": 555,
      "ಣ": 556,
      "ಪ": 557,
      "ರ": 558,
      "ಲ": 559,
      "ಶ": 560,
      "ಾ": 561,
      "ೀ": 562,
      "್": 563,
      "ം": 564,
      "ച": 565,
      "ഞ": 566,
      "ര": 567,
      "സ": 568,
      "ാ": 569,
      "്": 570,
      "ක": 571,
      "ජ": 572,
      "න": 573,
      "ප": 574,
      "ම": 575,
      "ර": 576,
      "ල": 577,
      "ෂ": 578,
      "ස": 579,
      "්": 580,
      "ා": 581,
      "ි": 582,
      "ු": 583,
      "ෙ": 584,
      "ก": 585,
      "ค": 586,
      "ง": 587,
      "จ": 588,
      "ช": 589,
      "ญ": 590,
      "ณ": 591,
      "ท": 592,
      "ธ": 593,
      "น": 594,
      "บ": 595,
      "ป": 596,
      "ผ": 597,
      "พ": 598,
      "ภ": 599,
      "ม": 600,
      "ร": 601,
      "ล": 602,
      "ว": 603,
      "ศ": 604,
      "ส": 605,
      "ห": 606,
      "ฬ": 607,
      "อ": 608,
      "ะ": 609,
      "า": 610,
      "ิ": 611,
      "ุ": 612,
      "ู": 613,
      "เ": 614,
      "แ": 615,
      "โ": 616,
      "ไ": 617,
      "่": 618,
      "้": 619,
      "์": 620,
      "ກ": 621,
      "ດ": 622,
      "ອ": 623,
      "ີ": 624,
      "ເ": 625,
      "ແ": 626,
      "່": 627,
      "້": 628,
      "ር": 629,
      "ሳ": 630,
      "ስ": 631,
      "ቂ": 632,
      "ኢ": 633,
      "ኣ": 634,
      "ወ": 635,
      "ያ": 636,
      "ይ": 637,
      "ፍ": 638,
      "ᏹ": 639,
      "ᛖ": 640,
      "ᵇ": 641,
      "ᵉ": 642,
      "ḍ": 643,
      "ḥ": 644,
      "ḩ": 645,
      "ḵ": 646,
      "ḻ": 647,
      "ṁ": 648,
      "ṃ": 649,
      "ṅ": 650,
      "ṇ": 651,
      "ṛ": 652,
      "ṟ": 653,
      "ṣ": 654,
      "ṭ": 655,
      "ṯ": 656,
      "ẓ": 657,
      "ẕ": 658,
      "ạ": 659,
      "ả": 660,
      "ấ": 661,
      "ầ": 662,
      "ậ": 663,
      "ắ": 664,
      "ặ": 665,
      "ẽ": 666,
      "ế": 667,
      "ề": 668,
      "ể": 669,
      "ễ": 670,
      "ệ": 671,
      "ỉ": 672,
      "ọ": 673,
      "ỏ": 674,
      "ố": 675,
      "ồ": 676,
      "ổ": 677,
      "ỗ": 678,
      "ộ": 679,
      "ớ": 680,
      "ờ": 681,
      "ở": 682,
      "ợ": 683,
      "ụ": 684,
      "ủ": 685,
      "ứ": 686,
      "ừ": 687,
      "ử": 688,
      "ữ": 689,
      "ự": 690,
      "ỳ": 691,
      "ἀ": 692,
      "ἑ": 693,
      "ἔ": 694,
      "ἡ": 695,
      "ὐ": 696,
      "ὤ": 697,
      "ὦ": 698,
      "ὰ": 699,
      "ά": 700,
      "ί": 701,
      "ᾳ": 702,
      "ῖ": 703,
      "​": 704,
      "‌": 705,
      "‎": 706,
      "‐": 707,
      "‑": 708,
      "–": 709,
      "—": 710,
      "―": 711,
      "‘": 712,
      "’": 713,
      "“": 714,
      "”": 715,
      "„": 716,
      "†": 717,
      "•": 718,
      "…": 719,
      "‭": 720,
      "′": 721,
      "″": 722,
      "⁄": 723,
      "⁺": 724,
      "⁻": 725,
      "₀": 726,
      "₁": 727,
      "₂": 728,
      "₃": 729,
      "₄": 730,
      "₅": 731,
      "₆": 732,
      "₈": 733,
      "₤": 734,
      "₦": 735,
      "€": 736,
      "₹": 737,
      "№": 738,
      "™": 739,
      "⅘": 740,
      "⅛": 741,
      "→": 742,
      "∈": 743,
      "−": 744,
      "√": 745,
      "∞": 746,
      "∼": 747,
      "≈": 748,
      "≔": 749,
      "≤": 750,
      "≥": 751,
      "⊂": 752,
      "⊆": 753,
      "⋅": 754,
      "⌀": 755,
      "①": 756,
      "②": 757,
      "③": 758,
      "④": 759,
      "⑤": 760,
      "⑥": 761,
      "⑦": 762,
      "◾": 763,
      "★": 764,
      "☆": 765,
      "♠": 766,
      "♣": 767,
      "♥": 768,
      "♦": 769,
      "♪": 770,
      "♫": 771,
      "♬": 772,
      "⟨": 773,
      "⟩": 774,
      "⬄": 775,
      "⿰": 776,
      "⿱": 777,
      "⿺": 778,
      "、": 779,
      "《": 780,
      "》": 781,
      "「": 782,
      "」": 783,
      "『": 784,
      "』": 785,
      "あ": 786,
      "え": 787,
      "お": 788,
      "か": 789,
      "が": 790,
      "き": 791,
      "く": 792,
      "け": 793,
      "こ": 794,
      "ご": 795,
      "さ": 796,
      "ざ": 797,
      "し": 798,
      "す": 799,
      "せ": 800,
      "ぜ": 801,
      "た": 802,
      "ち": 803,
      "つ": 804,
      "づ": 805,
      "て": 806,
      "で": 807,
      "と": 808,
      "な": 809,
      "に": 810,
      "ね": 811,
      "の": 812,
      "は": 813,
      "ひ": 814,
      "び": 815,
      "ま": 816,
      "み": 817,
      "め": 818,
      "も": 819,
      "ゃ": 820,
      "や": 821,
      "ら": 822,
      "り": 823,
      "る": 824,
      "れ": 825,
      "ろ": 826,
      "わ": 827,
      "を": 828,
      "ん": 829,
      "ア": 830,
      "ィ": 831,
      "イ": 832,
      "ウ": 833,
      "ェ": 834,
      "エ": 835,
      "オ": 836,
      "カ": 837,
      "ガ": 838,
      "キ": 839,
      "ク": 840,
      "グ": 841,
      "ケ": 842,
      "コ": 843,
      "ゴ": 844,
      "サ": 845,
      "ザ": 846,
      "シ": 847,
      "ジ": 848,
      "ス": 849,
      "ズ": 850,
      "タ": 851,
      "ダ": 852,
      "ッ": 853,
      "テ": 854,
      "デ": 855,
      "ト": 856,
      "ド": 857,
      "ナ": 858,
      "ニ": 859,
      "バ": 860,
      "パ": 861,
      "ヒ": 862,
      "ビ": 863,
      "フ": 864,
      "ブ": 865,
      "プ": 866,
      "ベ": 867,
      "ペ": 868,
      "ホ": 869,
      "ボ": 870,
      "ポ": 871,
      "マ": 872,
      "ミ": 873,
      "ム": 874,
      "メ": 875,
      "モ": 876,
      "ャ": 877,
      "ヤ": 878,
      "ュ": 879,
      "ユ": 880,
      "ョ": 881,
      "ラ": 882,
      "リ": 883,
      "ル": 884,
      "ロ": 885,
      "ワ": 886,
      "ン": 887,
      "ヶ": 888,
      "・": 889,
      "ー": 890,
      "ㄌ": 891,
      "ㄑ": 892,
      "ㄒ": 893,
      "ㄓ": 894,
      "ㄕ": 895,
      "ㄘ": 896,
      "ㄚ": 897,
      "ㄢ": 898,
      "ㄣ": 899,
      "ㄤ": 900,
      "ㄧ": 901,
      "ㄨ": 902,
      "ㄩ": 903,
      "一": 904,
      "三": 905,
      "上": 906,
      "下": 907,
      "世": 908,
      "业": 909,
      "中": 910,
      "丸": 911,
      "久": 912,
      "亂": 913,
      "事": 914,
      "二": 915,
      "于": 916,
      "井": 917,
      "亡": 918,
      "京": 919,
      "人": 920,
      "介": 921,
      "仙": 922,
      "代": 923,
      "仲": 924,
      "伐": 925,
      "会": 926,
      "作": 927,
      "你": 928,
      "使": 929,
      "供": 930,
      "信": 931,
      "倉": 932,
      "値": 933,
      "倫": 934,
      "做": 935,
      "傳": 936,
      "元": 937,
      "光": 938,
      "公": 939,
      "共": 940,
      "关": 941,
      "兴": 942,
      "内": 943,
      "円": 944,
      "凱": 945,
      "刀": 946,
      "刃": 947,
      "分": 948,
      "刊": 949,
      "初": 950,
      "利": 951,
      "前": 952,
      "剣": 953,
      "力": 954,
      "务": 955,
      "動": 956,
      "勝": 957,
      "化": 958,
      "北": 959,
      "匯": 960,
      "區": 961,
      "十": 962,
      "協": 963,
      "南": 964,
      "博": 965,
      "卵": 966,
      "原": 967,
      "収": 968,
      "口": 969,
      "台": 970,
      "史": 971,
      "司": 972,
      "吉": 973,
      "名": 974,
      "后": 975,
      "味": 976,
      "命": 977,
      "和": 978,
      "啓": 979,
      "啦": 980,
      "喃": 981,
      "喇": 982,
      "喜": 983,
      "営": 984,
      "嘛": 985,
      "四": 986,
      "回": 987,
      "団": 988,
      "国": 989,
      "國": 990,
      "圖": 991,
      "土": 992,
      "在": 993,
      "均": 994,
      "城": 995,
      "培": 996,
      "堂": 997,
      "報": 998,
      "境": 999,
      "墨": 1000,
      "夏": 1001,
      "夕": 1002,
      "多": 1003,
      "大": 1004,
      "天": 1005,
      "夫": 1006,
      "央": 1007,
      "奈": 1008,
      "好": 1009,
      "子": 1010,
      "字": 1011,
      "存": 1012,
      "学": 1013,
      "守": 1014,
      "安": 1015,
      "完": 1016,
      "宗": 1017,
      "定": 1018,
      "宮": 1019,
      "實": 1020,
      "寿": 1021,
      "尹": 1022,
      "尾": 1023,
      "属": 1024,
      "山": 1025,
      "岁": 1026,
      "岛": 1027,
      "岡": 1028,
      "岩": 1029,
      "島": 1030,
      "崔": 1031,
      "川": 1032,
      "工": 1033,
      "巴": 1034,
      "市": 1035,
      "希": 1036,
      "帯": 1037,
      "幫": 1038,
      "干": 1039,
      "平": 1040,
      "幸": 1041,
      "幻": 1042,
      "広": 1043,
      "式": 1044,
      "弥": 1045,
      "彦": 1046,
      "御": 1047,
      "德": 1048,
      "心": 1049,
      "志": 1050,
      "忠": 1051,
      "念": 1052,
      "情": 1053,
      "想": 1054,
      "愛": 1055,
      "成": 1056,
      "我": 1057,
      "战": 1058,
      "戯": 1059,
      "戲": 1060,
      "戸": 1061,
      "扇": 1062,
      "才": 1063,
      "扬": 1064,
      "承": 1065,
      "技": 1066,
      "挂": 1067,
      "措": 1068,
      "揚": 1069,
      "摺": 1070,
      "敎": 1071,
      "敏": 1072,
      "教": 1073,
      "文": 1074,
      "斗": 1075,
      "新": 1076,
      "方": 1077,
      "日": 1078,
      "早": 1079,
      "旺": 1080,
      "昌": 1081,
      "時": 1082,
      "晃": 1083,
      "景": 1084,
      "智": 1085,
      "書": 1086,
      "會": 1087,
      "望": 1088,
      "朝": 1089,
      "木": 1090,
      "末": 1091,
      "本": 1092,
      "村": 1093,
      "束": 1094,
      "東": 1095,
      "松": 1096,
      "析": 1097,
      "染": 1098,
      "柚": 1099,
      "校": 1100,
      "桥": 1101,
      "森": 1102,
      "楊": 1103,
      "楼": 1104,
      "楽": 1105,
      "樂": 1106,
      "横": 1107,
      "次": 1108,
      "歌": 1109,
      "正": 1110,
      "步": 1111,
      "死": 1112,
      "民": 1113,
      "気": 1114,
      "水": 1115,
      "永": 1116,
      "江": 1117,
      "決": 1118,
      "沢": 1119,
      "河": 1120,
      "法": 1121,
      "活": 1122,
      "浦": 1123,
      "海": 1124,
      "清": 1125,
      "渋": 1126,
      "渡": 1127,
      "港": 1128,
      "湖": 1129,
      "漢": 1130,
      "漬": 1131,
      "澧": 1132,
      "濡": 1133,
      "火": 1134,
      "灯": 1135,
      "炊": 1136,
      "煮": 1137,
      "熱": 1138,
      "燃": 1139,
      "父": 1140,
      "物": 1141,
      "狙": 1142,
      "玉": 1143,
      "珍": 1144,
      "珪": 1145,
      "現": 1146,
      "球": 1147,
      "理": 1148,
      "琉": 1149,
      "生": 1150,
      "田": 1151,
      "由": 1152,
      "男": 1153,
      "町": 1154,
      "画": 1155,
      "畵": 1156,
      "疆": 1157,
      "疎": 1158,
      "発": 1159,
      "白": 1160,
      "的": 1161,
      "皇": 1162,
      "益": 1163,
      "盧": 1164,
      "県": 1165,
      "真": 1166,
      "知": 1167,
      "研": 1168,
      "破": 1169,
      "社": 1170,
      "祀": 1171,
      "神": 1172,
      "祥": 1173,
      "祭": 1174,
      "福": 1175,
      "稔": 1176,
      "稲": 1177,
      "積": 1178,
      "究": 1179,
      "笑": 1180,
      "第": 1181,
      "筆": 1182,
      "筑": 1183,
      "節": 1184,
      "系": 1185,
      "紅": 1186,
      "純": 1187,
      "素": 1188,
      "絵": 1189,
      "綱": 1190,
      "線": 1191,
      "縣": 1192,
      "结": 1193,
      "置": 1194,
      "美": 1195,
      "群": 1196,
      "義": 1197,
      "职": 1198,
      "股": 1199,
      "育": 1200,
      "能": 1201,
      "腕": 1202,
      "臨": 1203,
      "致": 1204,
      "臼": 1205,
      "興": 1206,
      "舞": 1207,
      "良": 1208,
      "芦": 1209,
      "花": 1210,
      "若": 1211,
      "英": 1212,
      "茶": 1213,
      "药": 1214,
      "莫": 1215,
      "藍": 1216,
      "藥": 1217,
      "藻": 1218,
      "虫": 1219,
      "蝶": 1220,
      "行": 1221,
      "街": 1222,
      "衫": 1223,
      "袁": 1224,
      "裕": 1225,
      "要": 1226,
      "観": 1227,
      "言": 1228,
      "記": 1229,
      "誌": 1230,
      "語": 1231,
      "議": 1232,
      "训": 1233,
      "讲": 1234,
      "谷": 1235,
      "豊": 1236,
      "象": 1237,
      "豫": 1238,
      "貞": 1239,
      "財": 1240,
      "賞": 1241,
      "赤": 1242,
      "赫": 1243,
      "起": 1244,
      "越": 1245,
      "蹴": 1246,
      "軍": 1247,
      "軒": 1248,
      "転": 1249,
      "轄": 1250,
      "轉": 1251,
      "辦": 1252,
      "辺": 1253,
      "込": 1254,
      "返": 1255,
      "进": 1256,
      "迫": 1257,
      "逆": 1258,
      "通": 1259,
      "週": 1260,
      "進": 1261,
      "遊": 1262,
      "運": 1263,
      "過": 1264,
      "道": 1265,
      "郎": 1266,
      "鄉": 1267,
      "鄰": 1268,
      "里": 1269,
      "野": 1270,
      "金": 1271,
      "鉄": 1272,
      "錦": 1273,
      "録": 1274,
      "鎮": 1275,
      "鑴": 1276,
      "長": 1277,
      "长": 1278,
      "開": 1279,
      "関": 1280,
      "问": 1281,
      "阪": 1282,
      "院": 1283,
      "霞": 1284,
      "靈": 1285,
      "青": 1286,
      "静": 1287,
      "面": 1288,
      "革": 1289,
      "韓": 1290,
      "音": 1291,
      "题": 1292,
      "風": 1293,
      "飯": 1294,
      "館": 1295,
      "香": 1296,
      "體": 1297,
      "高": 1298,
      "魁": 1299,
      "魚": 1300,
      "鮮": 1301,
      "鳥": 1302,
      "黃": 1303,
      "黄": 1304,
      "ꭴ": 1305,
      "ꭹ": 1306,
      "ꮅ": 1307,
      "ꮕ": 1308,
      "ꮝ": 1309,
      "ꮢ": 1310,
      "ꮣ": 1311,
      "ꯀ": 1312,
      "ꯁ": 1313,
      "ꯂ": 1314,
      "ꯃ": 1315,
      "ꯄ": 1316,
      "ꯅ": 1317,
      "ꯈ": 1318,
      "ꯉ": 1319,
      "ꯊ": 1320,
      "ꯍ": 1321,
      "ꯏ": 1322,
      "ꯑ": 1323,
      "ꯔ": 1324,
      "ꯕ": 1325,
      "ꯗ": 1326,
      "ꯜ": 1327,
      "ꯟ": 1328,
      "ꯡ": 1329,
      "ꯢ": 1330,
      "ꯣ": 1331,
      "ꯤ": 1332,
      "ꯥ": 1333,
      "ꯦ": 1334,
      "ꯧ": 1335,
      "ꯨ": 1336,
      "ꯩ": 1337,
      "가": 1338,
      "강": 1339,
      "괴": 1340,
      "국": 1341,
      "나": 1342,
      "널": 1343,
      "노": 1344,
      "대": 1345,
      "도": 1346,
      "두": 1347,
      "라": 1348,
      "란": 1349,
      "래": 1350,
      "럼": 1351,
      "리": 1352,
      "말": 1353,
      "매": 1354,
      "미": 1355,
      "민": 1356,
      "백": 1357,
      "보": 1358,
      "부": 1359,
      "불": 1360,
      "사": 1361,
      "산": 1362,
      "삼": 1363,
      "서": 1364,
      "선": 1365,
      "소": 1366,
      "술": 1367,
      "스": 1368,
      "승": 1369,
      "실": 1370,
      "아": 1371,
      "안": 1372,
      "애": 1373,
      "어": 1374,
      "옥": 1375,
      "왕": 1376,
      "우": 1377,
      "유": 1378,
      "윤": 1379,
      "이": 1380,
      "익": 1381,
      "일": 1382,
      "정": 1383,
      "제": 1384,
      "조": 1385,
      "중": 1386,
      "진": 1387,
      "창": 1388,
      "채": 1389,
      "최": 1390,
      "치": 1391,
      "코": 1392,
      "티": 1393,
      "포": 1394,
      "하": 1395,
      "한": 1396,
      "행": 1397,
      "헌": 1398,
      "혁": 1399,
      "협": 1400,
      "호": 1401,
      "화": 1402,
      "회": 1403,
      "휴": 1404,
      "희": 1405,
      "ﬂ": 1406,
      "︢": 1407,
      "ﺍ": 1408,
      "ﺒ": 1409,
      "ﻟ": 1410,
      "ﻨ": 1411,
      "ﻲ": 1412,
      "！": 1413,
      "（": 1414,
      "）": 1415,
      "，": 1416,
      "．": 1417,
      "２": 1418,
      "５": 1419,
      "？": 1420,
      "～": 1421,
      "�": 1422,
      "𐎹": 1423,
      "𒀸": 1424,
      "𒁺": 1425,
      "𒋗": 1426,
      "th": 1427,
      "in": 1428,
      "the": 1429,
      "an": 1430,
      "re": 1431,
      "ou": 1432,
      "on": 1433,
      "er": 1434,
      "at": 1435,
      "is": 1436,
      "to": 1437,
      "en": 1438,
      "it": 1439,
      "al": 1440,
      "and": 1441,
      "or": 1442,
      "as": 1443,
      "ing": 1444,
      "ed": 1445,
      "es": 1446,
      "you": 1447,
      "ar": 1448,
      "of": 1449,
      "he": 1450,
      "me": 1451,
      "st": 1452,
      "le": 1453,
      "no": 1454,
      "se": 1455,
      "wh": 1456,
      "ll": 1457,
      "ic": 1458,
      "be": 1459,
      "ve": 1460,
      "we": 1461,
      "ro": 1462,
      "that": 1463,
      "ha": 1464,
      "ay": 1465,
      "ch": 1466,
      "ly": 1467,
      "id": 1468,
      "so": 1469,
      "ion": 1470,
      "gh": 1471,
      "co": 1472,
      "for": 1473,
      "go": 1474,
      "ac": 1475,
      "was": 1476,
      "wi": 1477,
      "ld": 1478,
      "do": 1479,
      "ent": 1480,
      "lo": 1481,
      "li": 1482,
      "ut": 1483,
      "ver": 1484,
      "ri": 1485,
      "ad": 1486,
      "ke": 1487,
      "..": 1488,
      "un": 1489,
      "ge": 1490,
      "ir": 1491,
      "are": 1492,
      "am": 1493,
      "ght": 1494,
      "all": 1495,
      "ho": 1496,
      "im": 1497,
      "ab": 1498,
      "one": 1499,
      "mo": 1500,
      "ne": 1501,
      "with": 1502,
      "ter": 1503,
      "now": 1504,
      "out": 1505,
      "us": 1506,
      "de": 1507,
      "this": 1508,
      "what": 1509,
      "pe": 1510,
      "ur": 1511,
      "ce": 1512,
      "te": 1513,
      "have": 1514,
      "po": 1515,
      "not": 1516,
      "ther": 1517,
      "but": 1518,
      "fe": 1519,
      "they": 1520,
      "if": 1521,
      "ok": 1522,
      "ould": 1523,
      "ti": 1524,
      "tr": 1525,
      "su": 1526,
      "ye": 1527,
      "my": 1528,
      "here": 1529,
      "ant": 1530,
      "ust": 1531,
      "ain": 1532,
      "con": 1533,
      "his": 1534,
      "can": 1535,
      "ation": 1536,
      "there": 1537,
      "man": 1538,
      "bo": 1539,
      "oun": 1540,
      "ca": 1541,
      "pl": 1542,
      "sa": 1543,
      "know": 1544,
      "il": 1545,
      "she": 1546,
      "sh": 1547,
      "...": 1548,
      "up": 1549,
      "thing": 1550,
      "com": 1551,
      "rom": 1552,
      "our": 1553,
      "ag": 1554,
      "your": 1555,
      "by": 1556,
      "some": 1557,
      "per": 1558,
      "her": 1559,
      "don": 1560,
      "ct": 1561,
      "ul": 1562,
      "art": 1563,
      "from": 1564,
      "pro": 1565,
      "wor": 1566,
      "ple": 1567,
      "res": 1568,
      "qu": 1569,
      "get": 1570,
      "est": 1571,
      "od": 1572,
      "like": 1573,
      "ess": 1574,
      "had": 1575,
      "ah": 1576,
      "ally": 1577,
      "ill": 1578,
      "ex": 1579,
      "ate": 1580,
      "him": 1581,
      "ma": 1582,
      "ta": 1583,
      "who": 1584,
      "way": 1585,
      "ind": 1586,
      "very": 1587,
      "ie": 1588,
      "wn": 1589,
      "oh": 1590,
      "um": 1591,
      "ard": 1592,
      "red": 1593,
      "just": 1594,
      "ra": 1595,
      "fo": 1596,
      "ack": 1597,
      "about": 1598,
      "wo": 1599,
      "end": 1600,
      "ig": 1601,
      "how": 1602,
      "right": 1603,
      "were": 1604,
      "ink": 1605,
      "19": 1606,
      "na": 1607,
      "did": 1608,
      "ber": 1609,
      "well": 1610,
      "ry": 1611,
      "ment": 1612,
      "ong": 1613,
      "see": 1614,
      "ound": 1615,
      "ist": 1616,
      "ck": 1617,
      "use": 1618,
      "any": 1619,
      "ast": 1620,
      "when": 1621,
      "ity": 1622,
      "20": 1623,
      "ich": 1624,
      "will": 1625,
      "pp": 1626,
      "ine": 1627,
      "ight": 1628,
      "ive": 1629,
      "would": 1630,
      "la": 1631,
      "yeah": 1632,
      "ers": 1633,
      "them": 1634,
      "ide": 1635,
      "want": 1636,
      "other": 1637,
      "come": 1638,
      "think": 1639,
      "king": 1640,
      "ven": 1641,
      "got": 1642,
      "act": 1643,
      "then": 1644,
      "af": 1645,
      "look": 1646,
      "ish": 1647,
      "br": 1648,
      "has": 1649,
      "der": 1650,
      "let": 1651,
      "which": 1652,
      "ice": 1653,
      "day": 1654,
      "ort": 1655,
      "ous": 1656,
      "ty": 1657,
      "time": 1658,
      "where": 1659,
      "ren": 1660,
      "gr": 1661,
      "sp": 1662,
      "ap": 1663,
      "than": 1664,
      "say": 1665,
      "di": 1666,
      "mar": 1667,
      "ree": 1668,
      "said": 1669,
      "ough": 1670,
      "ol": 1671,
      "ci": 1672,
      "el": 1673,
      "good": 1674,
      "more": 1675,
      "yes": 1676,
      "itt": 1677,
      "off": 1678,
      "ace": 1679,
      "been": 1680,
      "gu": 1681,
      "beca": 1682,
      "cl": 1683,
      "new": 1684,
      "their": 1685,
      "bl": 1686,
      "peo": 1687,
      "people": 1688,
      "ans": 1689,
      "going": 1690,
      "pr": 1691,
      "back": 1692,
      "fir": 1693,
      "ass": 1694,
      "could": 1695,
      "over": 1696,
      "ite": 1697,
      "part": 1698,
      "ts": 1699,
      "ia": 1700,
      "two": 1701,
      "sto": 1702,
      "ure": 1703,
      "age": 1704,
      "ep": 1705,
      "ies": 1706,
      "ick": 1707,
      "sel": 1708,
      "ated": 1709,
      "ach": 1710,
      "ang": 1711,
      "ars": 1712,
      "bu": 1713,
      "first": 1714,
      "gre": 1715,
      "dis": 1716,
      "tor": 1717,
      "dy": 1718,
      "every": 1719,
      "fa": 1720,
      "ble": 1721,
      "down": 1722,
      "pt": 1723,
      "ph": 1724,
      "--": 1725,
      "min": 1726,
      "because": 1727,
      "ved": 1728,
      "ser": 1729,
      "ade": 1730,
      "work": 1731,
      "may": 1732,
      "ase": 1733,
      "after": 1734,
      "call": 1735,
      "si": 1736,
      "put": 1737,
      "into": 1738,
      "son": 1739,
      "also": 1740,
      "fore": 1741,
      "its": 1742,
      "em": 1743,
      "only": 1744,
      "why": 1745,
      "pres": 1746,
      "ary": 1747,
      "okay": 1748,
      "take": 1749,
      "ance": 1750,
      "mber": 1751,
      "pre": 1752,
      "mon": 1753,
      "coun": 1754,
      "car": 1755,
      "ater": 1756,
      "land": 1757,
      "able": 1758,
      "ves": 1759,
      "ving": 1760,
      "play": 1761,
      ".\"": 1762,
      "litt": 1763,
      "hi": 1764,
      "little": 1765,
      "jo": 1766,
      "form": 1767,
      "uh": 1768,
      "ps": 1769,
      "tal": 1770,
      "again": 1771,
      "ought": 1772,
      "ting": 1773,
      "bet": 1774,
      "ak": 1775,
      "ue": 1776,
      "these": 1777,
      "tell": 1778,
      "00": 1779,
      "mu": 1780,
      "spe": 1781,
      "ions": 1782,
      "cre": 1783,
      "pos": 1784,
      "really": 1785,
      "self": 1786,
      "om": 1787,
      "read": 1788,
      "most": 1789,
      "tur": 1790,
      "fr": 1791,
      "str": 1792,
      "cor": 1793,
      "make": 1794,
      "au": 1795,
      "cho": 1796,
      "try": 1797,
      "low": 1798,
      "need": 1799,
      "should": 1800,
      "does": 1801,
      "ning": 1802,
      "par": 1803,
      "llo": 1804,
      "ian": 1805,
      "too": 1806,
      "int": 1807,
      "long": 1808,
      "ence": 1809,
      "happ": 1810,
      "under": 1811,
      "men": 1812,
      "wa": 1813,
      "pa": 1814,
      "du": 1815,
      "nor": 1816,
      "ild": 1817,
      "gon": 1818,
      "even": 1819,
      "something": 1820,
      "mean": 1821,
      "many": 1822,
      "fu": 1823,
      "ga": 1824,
      "hel": 1825,
      "comm": 1826,
      "ud": 1827,
      "cent": 1828,
      "much": 1829,
      "ose": 1830,
      "dr": 1831,
      "bro": 1832,
      "201": 1833,
      "cont": 1834,
      "pen": 1835,
      "ile": 1836,
      "ical": 1837,
      "wr": 1838,
      "col": 1839,
      "ip": 1840,
      "ates": 1841,
      "gonna": 1842,
      "iz": 1843,
      "ned": 1844,
      "med": 1845,
      "mor": 1846,
      "side": 1847,
      "used": 1848,
      "made": 1849,
      "et": 1850,
      "before": 1851,
      "never": 1852,
      "went": 1853,
      "eng": 1854,
      "won": 1855,
      "fin": 1856,
      "cr": 1857,
      "mis": 1858,
      "didn": 1859,
      "vi": 1860,
      "port": 1861,
      "thr": 1862,
      "row": 1863,
      "mm": 1864,
      ",\"": 1865,
      "hand": 1866,
      "des": 1867,
      "old": 1868,
      "ms": 1869,
      "cour": 1870,
      "les": 1871,
      "ten": 1872,
      "great": 1873,
      "mr": 1874,
      "lie": 1875,
      "thank": 1876,
      "ction": 1877,
      "ire": 1878,
      "give": 1879,
      "ot": 1880,
      "bor": 1881,
      "sho": 1882,
      "three": 1883,
      "gen": 1884,
      "life": 1885,
      "cle": 1886,
      "tim": 1887,
      "ited": 1888,
      "200": 1889,
      "dif": 1890,
      "body": 1891,
      "ft": 1892,
      "ger": 1893,
      "ward": 1894,
      "rest": 1895,
      "ys": 1896,
      "pu": 1897,
      "those": 1898,
      "ually": 1899,
      "stand": 1900,
      "sing": 1901,
      "che": 1902,
      "through": 1903,
      "still": 1904,
      "ask": 1905,
      "je": 1906,
      "atch": 1907,
      "head": 1908,
      "ried": 1909,
      "sy": 1910,
      "ouse": 1911,
      "years": 1912,
      "gi": 1913,
      "feren": 1914,
      "sm": 1915,
      "love": 1916,
      "world": 1917,
      "ful": 1918,
      "night": 1919,
      "ton": 1920,
      "ition": 1921,
      "ever": 1922,
      "things": 1923,
      "vis": 1924,
      "vers": 1925,
      "care": 1926,
      "att": 1927,
      "clo": 1928,
      "ange": 1929,
      "sure": 1930,
      "thought": 1931,
      "fl": 1932,
      "inter": 1933,
      "show": 1934,
      "war": 1935,
      "amer": 1936,
      "ces": 1937,
      "cha": 1938,
      "found": 1939,
      "cal": 1940,
      "last": 1941,
      "start": 1942,
      "ations": 1943,
      "cer": 1944,
      "ign": 1945,
      "away": 1946,
      "called": 1947,
      "cess": 1948,
      "ily": 1949,
      "must": 1950,
      "home": 1951,
      "ise": 1952,
      "happen": 1953,
      "help": 1954,
      "light": 1955,
      "ds": 1956,
      "came": 1957,
      "pol": 1958,
      "ince": 1959,
      "member": 1960,
      "find": 1961,
      "\"\"": 1962,
      "ear": 1963,
      "house": 1964,
      "ict": 1965,
      "fri": 1966,
      "ways": 1967,
      "val": 1968,
      "doing": 1969,
      "being": 1970,
      "oney": 1971,
      "tain": 1972,
      "sha": 1973,
      "bit": 1974,
      "llow": 1975,
      "ff": 1976,
      "18": 1977,
      "ss": 1978,
      "big": 1979,
      "sou": 1980,
      "fam": 1981,
      "vie": 1982,
      "lot": 1983,
      "ath": 1984,
      "place": 1985,
      "name": 1986,
      "less": 1987,
      "such": 1988,
      "kill": 1989,
      "high": 1990,
      "gan": 1991,
      "wer": 1992,
      "stu": 1993,
      "friend": 1994,
      "own": 1995,
      "bab": 1996,
      "ste": 1997,
      "city": 1998,
      "set": 1999,
      "kind": 2000,
      "ced": 2001,
      "char": 2002,
      "hey": 2003,
      "sur": 2004,
      "sor": 2005,
      "vo": 2006,
      "irl": 2007,
      "americ": 2008,
      "\".": 2009,
      "cur": 2010,
      "god": 2011,
      "same": 2012,
      "ident": 2013,
      "child": 2014,
      "pri": 2015,
      "cond": 2016,
      "xt": 2017,
      "times": 2018,
      "comp": 2019,
      "num": 2020,
      "differen": 2021,
      "als": 2022,
      "bre": 2023,
      "ave": 2024,
      "reg": 2025,
      "erm": 2026,
      "another": 2027,
      "kes": 2028,
      "talk": 2029,
      "ating": 2030,
      "gl": 2031,
      "scho": 2032,
      "year": 2033,
      "ner": 2034,
      "might": 2035,
      "four": 2036,
      "girl": 2037,
      "feel": 2038,
      "while": 2039,
      "ased": 2040,
      "vent": 2041,
      "wal": 2042,
      "school": 2043,
      "main": 2044,
      "ele": 2045,
      "ress": 2046,
      "keep": 2047,
      "ready": 2048,
      "mus": 2049,
      "please": 2050,
      "mat": 2051,
      "around": 2052,
      "cy": 2053,
      "run": 2054,
      "ken": 2055,
      "bar": 2056,
      "open": 2057,
      "tri": 2058,
      "wait": 2059,
      "uni": 2060,
      "anything": 2061,
      "real": 2062,
      "bur": 2063,
      "always": 2064,
      "ank": 2065,
      "da": 2066,
      "nothing": 2067,
      "ason": 2068,
      "cted": 2069,
      "ational": 2070,
      "fun": 2071,
      "sen": 2072,
      "bus": 2073,
      "list": 2074,
      "ctor": 2075,
      "ted": 2076,
      "better": 2077,
      "led": 2078,
      "ek": 2079,
      "ash": 2080,
      "money": 2081,
      "ship": 2082,
      "number": 2083,
      "known": 2084,
      "win": 2085,
      "room": 2086,
      "left": 2087,
      "tre": 2088,
      "ters": 2089,
      "hu": 2090,
      "father": 2091,
      "water": 2092,
      ").": 2093,
      "belie": 2094,
      "states": 2095,
      "united": 2096,
      "\",": 2097,
      "far": 2098,
      "log": 2099,
      "point": 2100,
      "book": 2101,
      "uring": 2102,
      "ween": 2103,
      "though": 2104,
      "born": 2105,
      "ob": 2106,
      "person": 2107,
      "vid": 2108,
      "io": 2109,
      "done": 2110,
      "between": 2111,
      "publ": 2112,
      "),": 2113,
      "turn": 2114,
      "ball": 2115,
      "told": 2116,
      "air": 2117,
      "ute": 2118,
      "sir": 2119,
      "hun": 2120,
      "state": 2121,
      "next": 2122,
      "sorry": 2123,
      "mother": 2124,
      "199": 2125,
      "different": 2126,
      "lar": 2127,
      "both": 2128,
      "incl": 2129,
      "ial": 2130,
      "ings": 2131,
      "ular": 2132,
      "ics": 2133,
      "ju": 2134,
      "til": 2135,
      "ital": 2136,
      "ious": 2137,
      "ness": 2138,
      "gg": 2139,
      "full": 2140,
      "hal": 2141,
      "sc": 2142,
      "best": 2143,
      "sion": 2144,
      "bed": 2145,
      "second": 2146,
      "took": 2147,
      "follow": 2148,
      "add": 2149,
      "cial": 2150,
      "each": 2151,
      "later": 2152,
      "ents": 2153,
      "sub": 2154,
      "produ": 2155,
      "nam": 2156,
      "lt": 2157,
      "actually": 2158,
      "since": 2159,
      "vol": 2160,
      "har": 2161,
      "once": 2162,
      "course": 2163,
      "mp": 2164,
      "ef": 2165,
      "ket": 2166,
      "sim": 2167,
      "blo": 2168,
      "national": 2169,
      "until": 2170,
      "boy": 2171,
      "during": 2172,
      "ris": 2173,
      "ished": 2174,
      "lu": 2175,
      "gener": 2176,
      "line": 2177,
      "stop": 2178,
      "mal": 2179,
      "hold": 2180,
      "ze": 2181,
      "nat": 2182,
      "face": 2183,
      "mind": 2184,
      "dad": 2185,
      "arch": 2186,
      "coming": 2187,
      "oc": 2188,
      "hard": 2189,
      "joh": 2190,
      "saw": 2191,
      "commun": 2192,
      "everything": 2193,
      "ens": 2194,
      "plan": 2195,
      "leg": 2196,
      "law": 2197,
      "ors": 2198,
      "mer": 2199,
      "ual": 2200,
      "ins": 2201,
      "doesn": 2202,
      "?\"": 2203,
      "aren": 2204,
      "sit": 2205,
      "inte": 2206,
      "sol": 2207,
      "mi": 2208,
      "fi": 2209,
      "town": 2210,
      "que": 2211,
      "ub": 2212,
      "live": 2213,
      "quest": 2214,
      "pop": 2215,
      "lad": 2216,
      "american": 2217,
      "week": 2218,
      "small": 2219,
      "five": 2220,
      "maybe": 2221,
      "aster": 2222,
      "den": 2223,
      "john": 2224,
      "rel": 2225,
      "youn": 2226,
      "pass": 2227,
      "ities": 2228,
      "died": 2229,
      "appe": 2230,
      "stay": 2231,
      "10": 2232,
      "lan": 2233,
      "family": 2234,
      "gether": 2235,
      "together": 2236,
      "ult": 2237,
      "present": 2238,
      "mil": 2239,
      "ared": 2240,
      "ny": 2241,
      "ross": 2242,
      "today": 2243,
      "serv": 2244,
      "south": 2245,
      "six": 2246,
      "cut": 2247,
      "band": 2248,
      "pped": 2249,
      "bad": 2250,
      "gover": 2251,
      "enough": 2252,
      "wanted": 2253,
      "uary": 2254,
      "ped": 2255,
      "nice": 2256,
      "move": 2257,
      "north": 2258,
      "dire": 2259,
      "ord": 2260,
      "looking": 2261,
      "isn": 2262,
      "leave": 2263,
      "else": 2264,
      "tive": 2265,
      "198": 2266,
      "cord": 2267,
      "av": 2268,
      "without": 2269,
      "fer": 2270,
      "pret": 2271,
      "bir": 2272,
      "cri": 2273,
      "dec": 2274,
      "cept": 2275,
      "dri": 2276,
      "against": 2277,
      "sk": 2278,
      "huh": 2279,
      "sed": 2280,
      "gra": 2281,
      "proble": 2282,
      "ures": 2283,
      "seen": 2284,
      "hear": 2285,
      "quite": 2286,
      "kid": 2287,
      "wan": 2288,
      "says": 2289,
      "became": 2290,
      "fil": 2291,
      "young": 2292,
      "fect": 2293,
      "children": 2294,
      "team": 2295,
      "stru": 2296,
      "bas": 2297,
      "ments": 2298,
      "grou": 2299,
      "round": 2300,
      "public": 2301,
      "understand": 2302,
      "sco": 2303,
      "remember": 2304,
      "hur": 2305,
      "import": 2306,
      "watch": 2307,
      "gin": 2308,
      "ls": 2309,
      "few": 2310,
      "mill": 2311,
      "days": 2312,
      "univers": 2313,
      "believe": 2314,
      "build": 2315,
      "fuck": 2316,
      "hor": 2317,
      "ines": 2318,
      "getting": 2319,
      "woman": 2320,
      "tory": 2321,
      "op": 2322,
      "197": 2323,
      "tru": 2324,
      "iness": 2325,
      "music": 2326,
      "jan": 2327,
      "sle": 2328,
      "ific": 2329,
      "morning": 2330,
      "thir": 2331,
      "colle": 2332,
      "mic": 2333,
      "cons": 2334,
      "half": 2335,
      "power": 2336,
      "ush": 2337,
      "ative": 2338,
      "15": 2339,
      "ames": 2340,
      "yet": 2341,
      "fact": 2342,
      "ii": 2343,
      "happened": 2344,
      "brother": 2345,
      "pat": 2346,
      "lead": 2347,
      "stem": 2348,
      "ject": 2349,
      "death": 2350,
      "rele": 2351,
      "word": 2352,
      "dar": 2353,
      "game": 2354,
      "interest": 2355,
      "having": 2356,
      "mom": 2357,
      "job": 2358,
      "17": 2359,
      "ling": 2360,
      "peri": 2361,
      "shall": 2362,
      "heard": 2363,
      "asked": 2364,
      "soon": 2365,
      "country": 2366,
      "includ": 2367,
      "cus": 2368,
      "whole": 2369,
      "pay": 2370,
      "swe": 2371,
      "bi": 2372,
      "tra": 2373,
      "!\"": 2374,
      "near": 2375,
      "west": 2376,
      "heart": 2377,
      "ama": 2378,
      "ni": 2379,
      "change": 2380,
      "foot": 2381,
      "sal": 2382,
      "sun": 2383,
      "cap": 2384,
      "ants": 2385,
      "eyes": 2386,
      "sort": 2387,
      "ric": 2388,
      "met": 2389,
      "case": 2390,
      "eas": 2391,
      "possi": 2392,
      "ley": 2393,
      "door": 2394,
      "top": 2395,
      "black": 2396,
      "vil": 2397,
      "velo": 2398,
      "ba": 2399,
      "song": 2400,
      "eat": 2401,
      "ina": 2402,
      "hour": 2403,
      "offic": 2404,
      "dead": 2405,
      "turned": 2406,
      "fine": 2407,
      "view": 2408,
      "ru": 2409,
      "ones": 2410,
      "ring": 2411,
      "upon": 2412,
      "ister": 2413,
      "dam": 2414,
      "system": 2415,
      "dan": 2416,
      "exam": 2417,
      "ral": 2418,
      "himself": 2419,
      "listen": 2420,
      "gave": 2421,
      "prof": 2422,
      "aut": 2423,
      "ator": 2424,
      "tom": 2425,
      "fre": 2426,
      "sup": 2427,
      "important": 2428,
      "hon": 2429,
      "howe": 2430,
      "fall": 2431,
      "county": 2432,
      "order": 2433,
      "bring": 2434,
      "dra": 2435,
      "ago": 2436,
      "however": 2437,
      "gar": 2438,
      "guy": 2439,
      "fort": 2440,
      "certain": 2441,
      "comes": 2442,
      "pal": 2443,
      "already": 2444,
      "ists": 2445,
      "president": 2446,
      "dro": 2447,
      "oper": 2448,
      "000": 2449,
      "wrong": 2450,
      "fac": 2451,
      "vision": 2452,
      "ised": 2453,
      "class": 2454,
      "pect": 2455,
      "ither": 2456,
      "fight": 2457,
      "cra": 2458,
      "maj": 2459,
      "trans": 2460,
      "dist": 2461,
      "196": 2462,
      "white": 2463,
      "supp": 2464,
      "chang": 2465,
      "lish": 2466,
      "knew": 2467,
      "women": 2468,
      "probab": 2469,
      "bal": 2470,
      "sound": 2471,
      "ield": 2472,
      "pon": 2473,
      "someone": 2474,
      "saying": 2475,
      "ben": 2476,
      "cam": 2477,
      "talking": 2478,
      "spo": 2479,
      "university": 2480,
      "capt": 2481,
      "vir": 2482,
      "ution": 2483,
      "month": 2484,
      "contin": 2485,
      "cas": 2486,
      "party": 2487,
      "wards": 2488,
      "govern": 2489,
      "mid": 2490,
      "walk": 2491,
      "trying": 2492,
      "gy": 2493,
      "along": 2494,
      "itch": 2495,
      "often": 2496,
      "tern": 2497,
      "means": 2498,
      "sw": 2499,
      "comple": 2500,
      "equ": 2501,
      "lim": 2502,
      "12": 2503,
      "whe": 2504,
      "mark": 2505,
      "die": 2506,
      "road": 2507,
      "gram": 2508,
      "pretty": 2509,
      "gone": 2510,
      "began": 2511,
      "ili": 2512,
      "var": 2513,
      "started": 2514,
      "pur": 2515,
      "van": 2516,
      "wife": 2517,
      "ism": 2518,
      "key": 2519,
      "sent": 2520,
      "polit": 2521,
      "human": 2522,
      "posed": 2523,
      "miss": 2524,
      ".”": 2525,
      "lear": 2526,
      "pie": 2527,
      "os": 2528,
      "ically": 2529,
      "wanna": 2530,
      "emp": 2531,
      "16": 2532,
      "eu": 2533,
      "ith": 2534,
      "late": 2535,
      "wel": 2536,
      "sign": 2537,
      "idea": 2538,
      "app": 2539,
      "anim": 2540,
      "played": 2541,
      "lau": 2542,
      "story": 2543,
      "free": 2544,
      "develo": 2545,
      "cu": 2546,
      "sat": 2547,
      "fire": 2548,
      "tt": 2549,
      "clear": 2550,
      "probably": 2551,
      "vic": 2552,
      "train": 2553,
      "ja": 2554,
      "reason": 2555,
      "ries": 2556,
      "area": 2557,
      "ized": 2558,
      "dep": 2559,
      "vel": 2560,
      "making": 2561,
      "hello": 2562,
      "une": 2563,
      "tem": 2564,
      "ages": 2565,
      "plac": 2566,
      "suc": 2567,
      "business": 2568,
      "ghter": 2569,
      "test": 2570,
      "company": 2571,
      "plain": 2572,
      "ont": 2573,
      "ats": 2574,
      "goes": 2575,
      "ury": 2576,
      "hy": 2577,
      "wood": 2578,
      "government": 2579,
      "orig": 2580,
      "baby": 2581,
      "matter": 2582,
      "squ": 2583,
      "star": 2584,
      "beaut": 2585,
      "drink": 2586,
      "group": 2587,
      "ons": 2588,
      "lost": 2589,
      "ground": 2590,
      "pain": 2591,
      "hind": 2592,
      "guys": 2593,
      "ended": 2594,
      "wasn": 2595,
      "dre": 2596,
      "dou": 2597,
      "mes": 2598,
      "ann": 2599,
      "blood": 2600,
      "allow": 2601,
      "short": 2602,
      "hm": 2603,
      "hope": 2604,
      "ney": 2605,
      "ches": 2606,
      "ility": 2607,
      "gold": 2608,
      "ster": 2609,
      "true": 2610,
      "happy": 2611,
      "exc": 2612,
      "haven": 2613,
      "contro": 2614,
      "working": 2615,
      "vide": 2616,
      "30": 2617,
      "cast": 2618,
      "sometimes": 2619,
      "mad": 2620,
      "flo": 2621,
      "distr": 2622,
      "writ": 2623,
      "fic": 2624,
      "moment": 2625,
      "teach": 2626,
      "grand": 2627,
      "thanks": 2628,
      "problem": 2629,
      "mag": 2630,
      "rich": 2631,
      "break": 2632,
      "english": 2633,
      "jap": 2634,
      "dau": 2635,
      "partic": 2636,
      "almost": 2637,
      "sleep": 2638,
      "large": 2639,
      "nine": 2640,
      "general": 2641,
      "194": 2642,
      "bri": 2643,
      "origin": 2644,
      "field": 2645,
      "inst": 2646,
      "wouldn": 2647,
      "ied": 2648,
      "roy": 2649,
      "mur": 2650,
      "island": 2651,
      "station": 2652,
      "yourself": 2653,
      "ional": 2654,
      "brit": 2655,
      "ork": 2656,
      "stree": 2657,
      "looked": 2658,
      "fair": 2659,
      "gun": 2660,
      "early": 2661,
      "japan": 2662,
      "dog": 2663,
      "ko": 2664,
      "search": 2665,
      "ese": 2666,
      "rad": 2667,
      "given": 2668,
      "del": 2669,
      "aw": 2670,
      "deal": 2671,
      "rid": 2672,
      "march": 2673,
      "ran": 2674,
      "pose": 2675,
      "sci": 2676,
      "hands": 2677,
      "dow": 2678,
      "organ": 2679,
      "sil": 2680,
      "ison": 2681,
      "chur": 2682,
      "close": 2683,
      "ude": 2684,
      "bum": 2685,
      "cro": 2686,
      "195": 2687,
      "friends": 2688,
      "rent": 2689,
      "event": 2690,
      "bill": 2691,
      "shi": 2692,
      "mrs": 2693,
      "using": 2694,
      "food": 2695,
      "become": 2696,
      "eight": 2697,
      "sever": 2698,
      "ately": 2699,
      "france": 2700,
      "taken": 2701,
      "cou": 2702,
      "pet": 2703,
      "ier": 2704,
      "ka": 2705,
      "rock": 2706,
      "speak": 2707,
      "possible": 2708,
      "doctor": 2709,
      "cup": 2710,
      "film": 2711,
      "wonder": 2712,
      "reach": 2713,
      "stuff": 2714,
      "rece": 2715,
      "released": 2716,
      "lly": 2717,
      "movie": 2718,
      "question": 2719,
      "looks": 2720,
      "ctive": 2721,
      "killed": 2722,
      "words": 2723,
      "fur": 2724,
      "board": 2725,
      "york": 2726,
      "guess": 2727,
      "quick": 2728,
      "aged": 2729,
      "net": 2730,
      "front": 2731,
      "profess": 2732,
      "record": 2733,
      "gent": 2734,
      "ulation": 2735,
      "sea": 2736,
      "taking": 2737,
      "myself": 2738,
      "pick": 2739,
      "tele": 2740,
      "step": 2741,
      "january": 2742,
      "season": 2743,
      "rope": 2744,
      "cla": 2745,
      "daughter": 2746,
      "wish": 2747,
      "ham": 2748,
      "14": 2749,
      "appro": 2750,
      "fast": 2751,
      "brought": 2752,
      "phone": 2753,
      "fig": 2754,
      "ilt": 2755,
      "several": 2756,
      "major": 2757,
      "prin": 2758,
      "check": 2759,
      "jack": 2760,
      "ined": 2761,
      "ino": 2762,
      "thy": 2763,
      "thor": 2764,
      "loc": 2765,
      "least": 2766,
      "seven": 2767,
      "million": 2768,
      "behind": 2769,
      "hit": 2770,
      "exact": 2771,
      "captain": 2772,
      "pict": 2773,
      "moun": 2774,
      "inform": 2775,
      "series": 2776,
      "program": 2777,
      "ched": 2778,
      "paper": 2779,
      "cause": 2780,
      "alright": 2781,
      "uc": 2782,
      "prom": 2783,
      "sold": 2784,
      "court": 2785,
      "langu": 2786,
      "teen": 2787,
      "vill": 2788,
      "lon": 2789,
      "ural": 2790,
      "ient": 2791,
      "married": 2792,
      "pan": 2793,
      "13": 2794,
      "fle": 2795,
      "example": 2796,
      "either": 2797,
      "grow": 2798,
      "gust": 2799,
      "22": 2800,
      "makes": 2801,
      "bon": 2802,
      "ug": 2803,
      "buy": 2804,
      "strong": 2805,
      "bye": 2806,
      "ides": 2807,
      "iful": 2808,
      "rather": 2809,
      "report": 2810,
      "police": 2811,
      "por": 2812,
      "ering": 2813,
      "aust": 2814,
      "ford": 2815,
      "fully": 2816,
      "ously": 2817,
      "stead": 2818,
      "hen": 2819,
      "san": 2820,
      "lea": 2821,
      "haps": 2822,
      "success": 2823,
      "action": 2824,
      "respon": 2825,
      "alone": 2826,
      "ices": 2827,
      "living": 2828,
      "church": 2829,
      "perhaps": 2830,
      "lled": 2831,
      "wes": 2832,
      "poor": 2833,
      "selves": 2834,
      "cir": 2835,
      "cos": 2836,
      "depart": 2837,
      "dear": 2838,
      "py": 2839,
      "abo": 2840,
      "ene": 2841,
      "tro": 2842,
      "east": 2843,
      "district": 2844,
      "park": 2845,
      "dred": 2846,
      "river": 2847,
      "couldn": 2848,
      "meet": 2849,
      "lling": 2850,
      "everyone": 2851,
      "special": 2852,
      "depend": 2853,
      "fif": 2854,
      "others": 2855,
      "named": 2856,
      "lay": 2857,
      "stra": 2858,
      "vor": 2859,
      "lady": 2860,
      "attack": 2861,
      "logy": 2862,
      "support": 2863,
      "ances": 2864,
      "chr": 2865,
      "usually": 2866,
      "charac": 2867,
      "cost": 2868,
      "box": 2869,
      "beautiful": 2870,
      "hundred": 2871,
      "utes": 2872,
      "ler": 2873,
      "tou": 2874,
      "mine": 2875,
      "thinking": 2876,
      "morrow": 2877,
      "till": 2878,
      "prote": 2879,
      "earth": 2880,
      "third": 2881,
      "green": 2882,
      "office": 2883,
      "ding": 2884,
      "chris": 2885,
      "ming": 2886,
      "twent": 2887,
      "bs": 2888,
      "street": 2889,
      "geor": 2890,
      "bel": 2891,
      "held": 2892,
      "conf": 2893,
      "secre": 2894,
      "europe": 2895,
      "gn": 2896,
      "anger": 2897,
      "tail": 2898,
      "joy": 2899,
      "works": 2900,
      "itten": 2901,
      "built": 2902,
      "common": 2903,
      "resu": 2904,
      "based": 2905,
      "sep": 2906,
      "within": 2907,
      "ards": 2908,
      "begin": 2909,
      "album": 2910,
      "building": 2911,
      ",”": 2912,
      "sus": 2913,
      "tit": 2914,
      "inv": 2915,
      "non": 2916,
      "ged": 2917,
      "pping": 2918,
      "inside": 2919,
      "minute": 2920,
      "moved": 2921,
      "wash": 2922,
      "scre": 2923,
      "british": 2924,
      "ught": 2925,
      "21": 2926,
      "shit": 2927,
      "ane": 2928,
      "send": 2929,
      "va": 2930,
      "remain": 2931,
      "igh": 2932,
      "past": 2933,
      "sex": 2934,
      "history": 2935,
      "local": 2936,
      "tw": 2937,
      "super": 2938,
      "rench": 2939,
      "nove": 2940,
      "hus": 2941,
      "dece": 2942,
      "flow": 2943,
      "news": 2944,
      "german": 2945,
      "ties": 2946,
      "cover": 2947,
      "tember": 2948,
      "ize": 2949,
      "position": 2950,
      "mary": 2951,
      "dle": 2952,
      "wall": 2953,
      "issu": 2954,
      "50": 2955,
      "zy": 2956,
      "trou": 2957,
      "lou": 2958,
      "sport": 2959,
      "among": 2960,
      "following": 2961,
      "bes": 2962,
      "gest": 2963,
      "tech": 2964,
      "club": 2965,
      "exactly": 2966,
      "service": 2967,
      "fish": 2968,
      "gets": 2969,
      "wants": 2970,
      "july": 2971,
      "answer": 2972,
      "terri": 2973,
      "ague": 2974,
      "din": 2975,
      "ality": 2976,
      "apri": 2977,
      "including": 2978,
      "september": 2979,
      "const": 2980,
      "playing": 2981,
      "master": 2982,
      "hell": 2983,
      "ale": 2984,
      "count": 2985,
      "rain": 2986,
      "ured": 2987,
      "11": 2988,
      "gotta": 2989,
      "mas": 2990,
      "twenty": 2991,
      "hair": 2992,
      "whatever": 2993,
      "outside": 2994,
      "dom": 2995,
      "gor": 2996,
      "bra": 2997,
      "anne": 2998,
      "ief": 2999,
      "mee": 3000,
      "across": 3001,
      "aking": 3002,
      "gree": 3003,
      "itting": 3004,
      "gro": 3005,
      "yo": 3006,
      "wear": 3007,
      "wind": 3008,
      "everybody": 3009,
      "stud": 3010,
      "blue": 3011,
      "safe": 3012,
      "pho": 3013,
      "champ": 3014,
      "press": 3015,
      "sense": 3016,
      "single": 3017,
      "cry": 3018,
      "tomorrow": 3019,
      "igned": 3020,
      "former": 3021,
      "jud": 3022,
      "shut": 3023,
      "french": 3024,
      "hill": 3025,
      "lord": 3026,
      "ki": 3027,
      "june": 3028,
      "roman": 3029,
      "months": 3030,
      "vin": 3031,
      "football": 3032,
      ".'": 3033,
      "ung": 3034,
      "sl": 3035,
      "hot": 3036,
      "anyone": 3037,
      "heal": 3038,
      "exp": 3039,
      "minutes": 3040,
      "thern": 3041,
      "match": 3042,
      "ature": 3043,
      "post": 3044,
      "easy": 3045,
      "tiv": 3046,
      "dark": 3047,
      "written": 3048,
      "western": 3049,
      "pes": 3050,
      "concer": 3051,
      "boys": 3052,
      "raid": 3053,
      "laugh": 3054,
      "iled": 3055,
      "cum": 3056,
      "ban": 3057,
      "recei": 3058,
      "ks": 3059,
      "century": 3060,
      "graph": 3061,
      "ump": 3062,
      "arr": 3063,
      "august": 3064,
      "whether": 3065,
      "lin": 3066,
      "brid": 3067,
      "dream": 3068,
      "tried": 3069,
      "fell": 3070,
      "christ": 3071,
      "vered": 3072,
      "ges": 3073,
      "develop": 3074,
      "tors": 3075,
      "sar": 3076,
      "lying": 3077,
      "pot": 3078,
      "ana": 3079,
      "dest": 3080,
      "thous": 3081,
      "soci": 3082,
      "iety": 3083,
      "ues": 3084,
      "lived": 3085,
      "def": 3086,
      "ided": 3087,
      "spir": 3088,
      "secret": 3089,
      "force": 3090,
      "ron": 3091,
      "zz": 3092,
      "april": 3093,
      "proper": 3094,
      "cold": 3095,
      "complete": 3096,
      "25": 3097,
      "ow": 3098,
      "ired": 3099,
      "mou": 3100,
      "thousand": 3101,
      "mir": 3102,
      "ya": 3103,
      "write": 3104,
      "octo": 3105,
      "clean": 3106,
      "london": 3107,
      "educ": 3108,
      "shar": 3109,
      "hang": 3110,
      "cell": 3111,
      "iter": 3112,
      "24": 3113,
      "cks": 3114,
      "october": 3115,
      "chance": 3116,
      "bert": 3117,
      "population": 3118,
      "ctr": 3119,
      "anyway": 3120,
      "lives": 3121,
      "summ": 3122,
      "felt": 3123,
      "husband": 3124,
      "ctions": 3125,
      "voice": 3126,
      "department": 3127,
      "reco": 3128,
      "trad": 3129,
      "sch": 3130,
      "tic": 3131,
      "worry": 3132,
      "tour": 3133,
      "conne": 3134,
      "rail": 3135,
      "december": 3136,
      "rob": 3137,
      "cross": 3138,
      "sam": 3139,
      "information": 3140,
      "flu": 3141,
      "instead": 3142,
      "cies": 3143,
      "england": 3144,
      "cat": 3145,
      "army": 3146,
      "process": 3147,
      "unch": 3148,
      "mot": 3149,
      "tee": 3150,
      "november": 3151,
      "members": 3152,
      "table": 3153,
      "0s": 3154,
      "language": 3155,
      "draw": 3156,
      "iss": 3157,
      "cook": 3158,
      "wro": 3159,
      "shot": 3160,
      "college": 3161,
      "changed": 3162,
      "worked": 3163,
      "chair": 3164,
      "current": 3165,
      "tries": 3166,
      "sister": 3167,
      "somebody": 3168,
      "command": 3169,
      "space": 3170,
      "gress": 3171,
      "paren": 3172,
      "cul": 3173,
      "reli": 3174,
      "zer": 3175,
      "sof": 3176,
      "trust": 3177,
      "particular": 3178,
      "wrote": 3179,
      "hol": 3180,
      "tie": 3181,
      "priv": 3182,
      "hours": 3183,
      "inde": 3184,
      "experi": 3185,
      "couple": 3186,
      "games": 3187,
      "arm": 3188,
      "truth": 3189,
      "plic": 3190,
      "region": 3191,
      "attle": 3192,
      "appear": 3193,
      "seems": 3194,
      "lies": 3195,
      "mach": 3196,
      "pi": 3197,
      "febr": 3198,
      "pract": 3199,
      "february": 3200,
      "inc": 3201,
      "window": 3202,
      "za": 3203,
      "bat": 3204,
      "bow": 3205,
      "television": 3206,
      "193": 3207,
      "quar": 3208,
      "america": 3209,
      "luck": 3210,
      "invol": 3211,
      "ider": 3212,
      "fill": 3213,
      "knows": 3214,
      "ples": 3215,
      "peter": 3216,
      "rus": 3217,
      "formed": 3218,
      "design": 3219,
      "diffic": 3220,
      "bly": 3221,
      "chief": 3222,
      "control": 3223,
      "cannot": 3224,
      "served": 3225,
      "although": 3226,
      "author": 3227,
      "mand": 3228,
      "lat": 3229,
      "type": 3230,
      "ked": 3231,
      "daddy": 3232,
      "tonight": 3233,
      "tract": 3234,
      "grad": 3235,
      "kids": 3236,
      "ians": 3237,
      "except": 3238,
      "bell": 3239,
      "serious": 3240,
      "gas": 3241,
      "ker": 3242,
      "2013": 3243,
      "represent": 3244,
      "feet": 3245,
      "takes": 3246,
      "comput": 3247,
      "video": 3248,
      "lam": 3249,
      "soc": 3250,
      "ply": 3251,
      "tree": 3252,
      "return": 3253,
      "birth": 3254,
      "trave": 3255,
      "mountain": 3256,
      "mit": 3257,
      "gri": 3258,
      "asure": 3259,
      "piece": 3260,
      "iam": 3261,
      "george": 3262,
      "ram": 3263,
      "running": 3264,
      "sud": 3265,
      "award": 3266,
      "atic": 3267,
      "social": 3268,
      "girls": 3269,
      "cing": 3270,
      "2010": 3271,
      "due": 3272,
      "associ": 3273,
      "letter": 3274,
      "eye": 3275,
      "indian": 3276,
      "dress": 3277,
      "meeting": 3278,
      "longer": 3279,
      "commune": 3280,
      "jim": 3281,
      "beat": 3282,
      "horse": 3283,
      "bear": 3284,
      "ending": 3285,
      "ency": 3286,
      "itions": 3287,
      "lied": 3288,
      "defin": 3289,
      "fro": 3290,
      "fucking": 3291,
      "accord": 3292,
      "afraid": 3293,
      "enter": 3294,
      "frank": 3295,
      "bank": 3296,
      "supposed": 3297,
      "honey": 3298,
      "level": 3299,
      "international": 3300,
      "forget": 3301,
      "perfect": 3302,
      "hurt": 3303,
      "kept": 3304,
      "dies": 3305,
      "ener": 3306,
      "slow": 3307,
      "learn": 3308,
      "trouble": 3309,
      "sudden": 3310,
      "covered": 3311,
      "unk": 3312,
      "tian": 3313,
      "middle": 3314,
      "village": 3315,
      "james": 3316,
      "cil": 3317,
      "popular": 3318,
      "ses": 3319,
      "picture": 3320,
      "incre": 3321,
      "offe": 3322,
      "memor": 3323,
      "electr": 3324,
      "touch": 3325,
      "sand": 3326,
      "stre": 3327,
      "period": 3328,
      "waiting": 3329,
      "cried": 3330,
      "uck": 3331,
      "hael": 3332,
      "acc": 3333,
      "100": 3334,
      "track": 3335,
      "descri": 3336,
      "champion": 3337,
      "themselves": 3338,
      "arri": 3339,
      "dered": 3340,
      "player": 3341,
      "23": 3342,
      "han": 3343,
      "hosp": 3344,
      "bud": 3345,
      "queen": 3346,
      "wed": 3347,
      "hea": 3348,
      "needs": 3349,
      "mouth": 3350,
      "catch": 3351,
      "medi": 3352,
      "thre": 3353,
      "adv": 3354,
      "jour": 3355,
      "fut": 3356,
      "excuse": 3357,
      "thou": 3358,
      "league": 3359,
      "union": 3360,
      "pound": 3361,
      "sett": 3362,
      "engine": 3363,
      "agree": 3364,
      "stri": 3365,
      "william": 3366,
      "character": 3367,
      "prison": 3368,
      "received": 3369,
      "capital": 3370,
      "fran": 3371,
      "moder": 3372,
      "mun": 3373,
      "push": 3374,
      "uses": 3375,
      "feat": 3376,
      "bul": 3377,
      "cially": 3378,
      "cool": 3379,
      "accept": 3380,
      "tar": 3381,
      "treat": 3382,
      "worth": 3383,
      "crit": 3384,
      "career": 3385,
      "ata": 3386,
      "save": 3387,
      "gentle": 3388,
      "tered": 3389,
      "ified": 3390,
      "ray": 3391,
      "forest": 3392,
      "vince": 3393,
      "thes": 3394,
      "broad": 3395,
      "mul": 3396,
      "rul": 3397,
      "ond": 3398,
      "seemed": 3399,
      "wered": 3400,
      "mommy": 3401,
      "pic": 3402,
      "throw": 3403,
      "sty": 3404,
      "mhm": 3405,
      "lab": 3406,
      "appeared": 3407,
      "bey": 3408,
      "straight": 3409,
      "above": 3410,
      "ory": 3411,
      "created": 3412,
      "books": 3413,
      "lock": 3414,
      "deep": 3415,
      "ded": 3416,
      "include": 3417,
      "amoun": 3418,
      "countries": 3419,
      "damn": 3420,
      "imag": 3421,
      "michael": 3422,
      "summer": 3423,
      "bag": 3424,
      "uation": 3425,
      "further": 3426,
      "entire": 3427,
      "afric": 3428,
      "glass": 3429,
      "role": 3430,
      "stat": 3431,
      "pers": 3432,
      "explain": 3433,
      "econ": 3434,
      "eder": 3435,
      "surpr": 3436,
      "central": 3437,
      "study": 3438,
      "ilar": 3439,
      "minis": 3440,
      "famous": 3441,
      "hall": 3442,
      "funny": 3443,
      "smo": 3444,
      "mc": 3445,
      "nic": 3446,
      "project": 3447,
      "mum": 3448,
      "ada": 3449,
      "according": 3450,
      "und": 3451,
      "sum": 3452,
      "tori": 3453,
      "ida": 3454,
      "milit": 3455,
      "az": 3456,
      "fix": 3457,
      "dut": 3458,
      "telling": 3459,
      "solute": 3460,
      "unt": 3461,
      "cture": 3462,
      "austral": 3463,
      "hop": 3464,
      "bot": 3465,
      "drive": 3466,
      "tired": 3467,
      "carry": 3468,
      "doll": 3469,
      "ships": 3470,
      "evening": 3471,
      "bridge": 3472,
      "ony": 3473,
      "ribut": 3474,
      "gard": 3475,
      "sugg": 3476,
      "parents": 3477,
      "fan": 3478,
      "ened": 3479,
      "ention": 3480,
      "iet": 3481,
      "bt": 3482,
      "decided": 3483,
      "ror": 3484,
      "moving": 3485,
      "certainly": 3486,
      "stone": 3487,
      "phys": 3488,
      "wow": 3489,
      "mac": 3490,
      "claim": 3491,
      "final": 3492,
      "eh": 3493,
      "nia": 3494,
      "cli": 3495,
      "opp": 3496,
      "wide": 3497,
      "cts": 3498,
      "itself": 3499,
      "sweet": 3500,
      "recogn": 3501,
      "weeks": 3502,
      "26": 3503,
      "ery": 3504,
      "hospital": 3505,
      "republic": 3506,
      "future": 3507,
      "28": 3508,
      "stick": 3509,
      "male": 3510,
      "tv": 3511,
      "wild": 3512,
      "ail": 3513,
      "feeling": 3514,
      "figure": 3515,
      "requ": 3516,
      "center": 3517,
      "passed": 3518,
      "photo": 3519,
      "giving": 3520,
      "mass": 3521,
      "original": 3522,
      "famili": 3523,
      "expect": 3524,
      "whose": 3525,
      "cape": 3526,
      "exist": 3527,
      "suggest": 3528,
      "continu": 3529,
      "ference": 3530,
      "01": 3531,
      "wise": 3532,
      "enjoy": 3533,
      "glad": 3534,
      "community": 3535,
      "base": 3536,
      "pas": 3537,
      "absolute": 3538,
      "nobody": 3539,
      "crazy": 3540,
      "camp": 3541,
      "ather": 3542,
      "loy": 3543,
      "stood": 3544,
      "contain": 3545,
      "problems": 3546,
      "sla": 3547,
      "japanese": 3548,
      "fing": 3549,
      "ati": 3550,
      "similar": 3551,
      "ahead": 3552,
      "sage": 3553,
      "seem": 3554,
      "opened": 3555,
      "places": 3556,
      "ences": 3557,
      "india": 3558,
      "27": 3559,
      "term": 3560,
      "2011": 3561,
      "standing": 3562,
      "ky": 3563,
      "ox": 3564,
      "sequ": 3565,
      "relation": 3566,
      "stage": 3567,
      "david": 3568,
      "mater": 3569,
      "color": 3570,
      "spec": 3571,
      "effect": 3572,
      "danger": 3573,
      "finally": 3574,
      "sick": 3575,
      "beginning": 3576,
      "29": 3577,
      "species": 3578,
      "placed": 3579,
      "peace": 3580,
      "sym": 3581,
      "espe": 3582,
      "necess": 3583,
      "modern": 3584,
      "parts": 3585,
      "agon": 3586,
      "mission": 3587,
      "rac": 3588,
      "tel": 3589,
      "2006": 3590,
      "floor": 3591,
      "jes": 3592,
      "demo": 3593,
      "animals": 3594,
      "returned": 3595,
      "suppose": 3596,
      "battle": 3597,
      "estab": 3598,
      "interesting": 3599,
      "2012": 3600,
      "boo": 3601,
      "cali": 3602,
      "fly": 3603,
      "nes": 3604,
      "tex": 3605,
      "quiet": 3606,
      "director": 3607,
      "ali": 3608,
      "ered": 3609,
      "henry": 3610,
      "ws": 3611,
      "especially": 3612,
      "glo": 3613,
      "sell": 3614,
      "herself": 3615,
      "quickly": 3616,
      "anti": 3617,
      "uk": 3618,
      "ns": 3619,
      "total": 3620,
      "actor": 3621,
      "finished": 3622,
      "natural": 3623,
      "virgin": 3624,
      "research": 3625,
      "plant": 3626,
      "indust": 3627,
      "science": 3628,
      "separ": 3629,
      "decis": 3630,
      "multi": 3631,
      "cru": 3632,
      "ium": 3633,
      "sitting": 3634,
      "verse": 3635,
      "rap": 3636,
      "fellow": 3637,
      "ption": 3638,
      "poin": 3639,
      "paid": 3640,
      "happens": 3641,
      "tax": 3642,
      "appoint": 3643,
      "viously": 3644,
      "compan": 3645,
      "jer": 3646,
      "province": 3647,
      "brown": 3648,
      "followed": 3649,
      "40": 3650,
      "eli": 3651,
      "fit": 3652,
      "germany": 3653,
      "health": 3654,
      "thus": 3655,
      "comb": 3656,
      "society": 3657,
      "date": 3658,
      "activ": 3659,
      "boat": 3660,
      "pair": 3661,
      "kno": 3662,
      "card": 3663,
      "dance": 3664,
      "suff": 3665,
      "leaving": 3666,
      "located": 3667,
      "hum": 3668,
      "zing": 3669,
      "council": 3670,
      "viol": 3671,
      "gal": 3672,
      "pack": 3673,
      "spl": 3674,
      "anybody": 3675,
      "forward": 3676,
      "load": 3677,
      "prince": 3678,
      "hat": 3679,
      "announ": 3680,
      "whom": 3681,
      "plus": 3682,
      "respect": 3683,
      "radio": 3684,
      "acy": 3685,
      "minister": 3686,
      "tin": 3687,
      "rose": 3688,
      "aint": 3689,
      "ager": 3690,
      "ops": 3691,
      "hood": 3692,
      "neigh": 3693,
      "students": 3694,
      "cab": 3695,
      "towards": 3696,
      "welcome": 3697,
      "ji": 3698,
      "blow": 3699,
      "path": 3700,
      "ceed": 3701,
      "political": 3702,
      "host": 3703,
      "royal": 3704,
      "dig": 3705,
      "paul": 3706,
      "iling": 3707,
      "fear": 3708,
      "washing": 3709,
      "ging": 3710,
      "questions": 3711,
      "miles": 3712,
      "strange": 3713,
      "kingdom": 3714,
      "hung": 3715,
      "ially": 3716,
      "thro": 3717,
      "riage": 3718,
      "officer": 3719,
      "coast": 3720,
      "speaking": 3721,
      "version": 3722,
      "bour": 3723,
      "ization": 3724,
      "writing": 3725,
      "amount": 3726,
      "egg": 3727,
      "answered": 3728,
      "join": 3729,
      "commit": 3730,
      "ination": 3731,
      "lose": 3732,
      "iel": 3733,
      "indeed": 3734,
      "oud": 3735,
      "psy": 3736,
      "intro": 3737,
      "nal": 3738,
      "mention": 3739,
      "los": 3740,
      "education": 3741,
      "difficult": 3742,
      "cand": 3743,
      "rout": 3744,
      "bob": 3745,
      "chi": 3746,
      "iday": 3747,
      "direct": 3748,
      "dev": 3749,
      "coll": 3750,
      "ils": 3751,
      "consider": 3752,
      "icy": 3753,
      "amp": 3754,
      "private": 3755,
      "cop": 3756,
      "coach": 3757,
      "nature": 3758,
      "ooh": 3759,
      "leader": 3760,
      "provid": 3761,
      "sess": 3762,
      "somewhere": 3763,
      "max": 3764,
      "square": 3765,
      "liter": 3766,
      "development": 3767,
      "uncle": 3768,
      "experience": 3769,
      "(\"": 3770,
      "ore": 3771,
      "belong": 3772,
      "seeing": 3773,
      "published": 3774,
      "swi": 3775,
      "yours": 3776,
      "rup": 3777,
      "ends": 3778,
      "scare": 3779,
      "tu": 3780,
      "loved": 3781,
      "apart": 3782,
      "terms": 3783,
      "tempt": 3784,
      "sn": 3785,
      "lake": 3786,
      "subject": 3787,
      "bird": 3788,
      "introdu": 3789,
      "ado": 3790,
      "fat": 3791,
      "dick": 3792,
      "lands": 3793,
      "equal": 3794,
      "thom": 3795,
      "various": 3796,
      "constru": 3797,
      "energy": 3798,
      "influ": 3799,
      "ston": 3800,
      "xic": 3801,
      "reached": 3802,
      "page": 3803,
      "finish": 3804,
      "numbers": 3805,
      "arms": 3806,
      "market": 3807,
      "califor": 3808,
      "mb": 3809,
      "clothes": 3810,
      "none": 3811,
      "recor": 3812,
      "seat": 3813,
      "pull": 3814,
      "ability": 3815,
      "deser": 3816,
      "itive": 3817,
      "fol": 3818,
      "professional": 3819,
      "ible": 3820,
      "ify": 3821,
      "itted": 3822,
      "abad": 3823,
      "allowed": 3824,
      "dinner": 3825,
      "hid": 3826,
      "kar": 3827,
      "discus": 3828,
      "itional": 3829,
      "california": 3830,
      "size": 3831,
      "anymore": 3832,
      "2014": 3833,
      "snow": 3834,
      "caught": 3835,
      "speed": 3836,
      "simple": 3837,
      "apo": 3838,
      "guard": 3839,
      "pir": 3840,
      "pun": 3841,
      "ense": 3842,
      "termin": 3843,
      "span": 3844,
      "epis": 3845,
      "gain": 3846,
      "independ": 3847,
      "recent": 3848,
      "meant": 3849,
      "ently": 3850,
      "ician": 3851,
      "medic": 3852,
      "forgot": 3853,
      "pected": 3854,
      "involved": 3855,
      "clim": 3856,
      "exe": 3857,
      "alive": 3858,
      "stor": 3859,
      "forms": 3860,
      "shows": 3861,
      "drug": 3862,
      "sad": 3863,
      "kets": 3864,
      "suit": 3865,
      "prove": 3866,
      "ques": 3867,
      "ising": 3868,
      "title": 3869,
      "volution": 3870,
      "stair": 3871,
      "sour": 3872,
      "dio": 3873,
      "ordin": 3874,
      "lines": 3875,
      "2007": 3876,
      "weight": 3877,
      "pression": 3878,
      "princess": 3879,
      "destroy": 3880,
      "mess": 3881,
      "heav": 3882,
      "scient": 3883,
      "bility": 3884,
      "plat": 3885,
      "spirit": 3886,
      "roll": 3887,
      "brain": 3888,
      "christian": 3889,
      "heavy": 3890,
      "neg": 3891,
      "antic": 3892,
      "sounds": 3893,
      "lic": 3894,
      "hero": 3895,
      "dry": 3896,
      "ode": 3897,
      "value": 3898,
      "needed": 3899,
      "gives": 3900,
      "sky": 3901,
      "suddenly": 3902,
      "native": 3903,
      "lor": 3904,
      "itution": 3905,
      "immedi": 3906,
      "scott": 3907,
      "tea": 3908,
      "ville": 3909,
      "honest": 3910,
      "hous": 3911,
      "moon": 3912,
      "2016": 3913,
      "produced": 3914,
      "situation": 3915,
      "responsi": 3916,
      "computer": 3917,
      "favor": 3918,
      "cult": 3919,
      "vy": 3920,
      "rate": 3921,
      "alex": 3922,
      "absolutely": 3923,
      "race": 3924,
      "stup": 3925,
      "manage": 3926,
      "alan": 3927,
      "?”": 3928,
      "astern": 3929,
      "\")": 3930,
      "military": 3931,
      "ender": 3932,
      "cens": 3933,
      "ula": 3934,
      "spent": 3935,
      "anci": 3936,
      "plays": 3937,
      "chan": 3938,
      "iment": 3939,
      "brand": 3940,
      "liver": 3941,
      "logical": 3942,
      "indi": 3943,
      "added": 3944,
      "census": 3945,
      "broke": 3946,
      "econom": 3947,
      "ease": 3948,
      "hate": 3949,
      "imp": 3950,
      "result": 3951,
      "attention": 3952,
      "mix": 3953,
      "aha": 3954,
      "bought": 3955,
      "lf": 3956,
      "active": 3957,
      "envir": 3958,
      "conside": 3959,
      "visit": 3960,
      "considered": 3961,
      "boss": 3962,
      "nar": 3963,
      "rect": 3964,
      "earli": 3965,
      "ament": 3966,
      "stopped": 3967,
      "tho": 3968,
      "noon": 3969,
      "ica": 3970,
      "grew": 3971,
      "richard": 3972,
      "gate": 3973,
      "ref": 3974,
      "murder": 3975,
      "environ": 3976,
      "ax": 3977,
      "bang": 3978,
      "nur": 3979,
      "occur": 3980,
      "stupid": 3981,
      "raised": 3982,
      "bles": 3983,
      "meaning": 3984,
      "points": 3985,
      "mart": 3986,
      "shouldn": 3987,
      "largest": 3988,
      "avail": 3989,
      "init": 3990,
      "exper": 3991,
      "trade": 3992,
      "broken": 3993,
      "2009": 3994,
      "regular": 3995,
      "rights": 3996,
      "bing": 3997,
      "shoot": 3998,
      "decl": 3999,
      "compet": 4000,
      "leng": 4001,
      "acqu": 4002,
      "civil": 4003,
      "phi": 4004,
      "phy": 4005,
      "hole": 4006,
      "names": 4007,
      "bis": 4008,
      "....": 4009,
      "spring": 4010,
      "vious": 4011,
      "hurry": 4012,
      "camer": 4013,
      "ior": 4014,
      "bran": 4015,
      "sey": 4016,
      "groups": 4017,
      "division": 4018,
      "prime": 4019,
      "vert": 4020,
      "warm": 4021,
      "castle": 4022,
      "stairs": 4023,
      "secur": 4024,
      "lots": 4025,
      "promise": 4026,
      "opport": 4027,
      "bright": 4028,
      "soft": 4029,
      "oly": 4030,
      "access": 4031,
      "2008": 4032,
      "personal": 4033,
      "simply": 4034,
      "zo": 4035,
      "fool": 4036,
      "bay": 4037,
      "sme": 4038,
      "extra": 4039,
      "prep": 4040,
      "normal": 4041,
      "ably": 4042,
      "issue": 4043,
      "aver": 4044,
      "yer": 4045,
      "asking": 4046,
      "2015": 4047,
      "cket": 4048,
      "site": 4049,
      "watching": 4050,
      "ev": 4051,
      "2000": 4052,
      "completely": 4053,
      "democr": 4054,
      "rep": 4055,
      "opportun": 4056,
      "southern": 4057,
      "animal": 4058,
      "ancient": 4059,
      "nation": 4060,
      "tall": 4061,
      "acade": 4062,
      "virginia": 4063,
      "knock": 4064,
      "joined": 4065,
      "smith": 4066,
      "sight": 4067,
      "birds": 4068,
      "winter": 4069,
      "bull": 4070,
      "swee": 4071,
      "liber": 4072,
      "meth": 4073,
      "unless": 4074,
      "robert": 4075,
      "thirty": 4076,
      "explo": 4077,
      "section": 4078,
      "individ": 4079,
      ".,": 4080,
      "text": 4081,
      "vies": 4082,
      "charge": 4083,
      "doubt": 4084,
      "lla": 4085,
      "china": 4086,
      "faith": 4087,
      "charles": 4088,
      "ku": 4089,
      "sive": 4090,
      "reed": 4091,
      "firm": 4092,
      "bound": 4093,
      "price": 4094,
      "clock": 4095,
      "closed": 4096,
      "governor": 4097,
      "techno": 4098,
      "share": 4099,
      "writer": 4100,
      "therefore": 4101,
      "difference": 4102,
      "included": 4103,
      "bath": 4104,
      "ald": 4105,
      "address": 4106,
      "records": 4107,
      "pin": 4108,
      "wit": 4109,
      "knowled": 4110,
      "founded": 4111,
      "environment": 4112,
      "bun": 4113,
      "coffe": 4114,
      "assist": 4115,
      "milk": 4116,
      "ids": 4117,
      "reading": 4118,
      "northern": 4119,
      "higher": 4120,
      "cit": 4121,
      "chick": 4122,
      "wake": 4123,
      "approach": 4124,
      "jesus": 4125,
      "190": 4126,
      "pow": 4127,
      "songs": 4128,
      "zed": 4129,
      "flor": 4130,
      "crow": 4131,
      "kh": 4132,
      "cele": 4133,
      "fresh": 4134,
      "inois": 4135,
      "len": 4136,
      "below": 4137,
      "compe": 4138,
      "starting": 4139,
      "dir": 4140,
      "wound": 4141,
      "illinois": 4142,
      "resul": 4143,
      "length": 4144,
      "mel": 4145,
      "sele": 4146,
      "perfor": 4147,
      "coffee": 4148,
      "lli": 4149,
      "pray": 4150,
      "2005": 4151,
      "wonderful": 4152,
      "refer": 4153,
      "carried": 4154,
      "congress": 4155,
      "comfort": 4156,
      "feder": 4157,
      "itor": 4158,
      "marriage": 4159,
      "evid": 4160,
      "fes": 4161,
      "anal": 4162,
      "oil": 4163,
      "scot": 4164,
      "celebr": 4165,
      "60": 4166,
      "careful": 4167,
      "regard": 4168,
      "iers": 4169,
      "inves": 4170,
      "media": 4171,
      "store": 4172,
      "nearly": 4173,
      "bloody": 4174,
      "edge": 4175,
      "talked": 4176,
      "benef": 4177,
      "sna": 4178,
      "ators": 4179,
      "yester": 4180,
      "detail": 4181,
      "shop": 4182,
      "likely": 4183,
      "marry": 4184,
      "washington": 4185,
      "scene": 4186,
      "drop": 4187,
      "yesterday": 4188,
      "arts": 4189,
      "trees": 4190,
      "families": 4191,
      "nit": 4192,
      "astic": 4193,
      "teacher": 4194,
      "itely": 4195,
      "legal": 4196,
      "interested": 4197,
      "kin": 4198,
      "ners": 4199,
      "aff": 4200,
      "lower": 4201,
      "rick": 4202,
      "areas": 4203,
      "object": 4204,
      "review": 4205,
      "2022": 4206,
      "production": 4207,
      "professor": 4208,
      "nut": 4209,
      "movement": 4210,
      "training": 4211,
      "kiss": 4212,
      "antly": 4213,
      "colum": 4214,
      "skin": 4215,
      "honor": 4216,
      "continued": 4217,
      "fred": 4218,
      "tran": 4219,
      "histor": 4220,
      "european": 4221,
      "block": 4222,
      "protect": 4223,
      "style": 4224,
      "dun": 4225,
      "nie": 4226,
      "sli": 4227,
      "uce": 4228,
      "jose": 4229,
      "cases": 4230,
      "execut": 4231,
      "ark": 4232,
      "ura": 4233,
      "happening": 4234,
      "bio": 4235,
      "corpor": 4236,
      "lights": 4237,
      "ome": 4238,
      "oce": 4239,
      "ara": 4240,
      "weather": 4241,
      "shir": 4242,
      "thomas": 4243,
      "evidence": 4244,
      "nan": 4245,
      "sis": 4246,
      "sian": 4247,
      "viet": 4248,
      "plane": 4249,
      "weren": 4250,
      "eating": 4251,
      "onto": 4252,
      "ument": 4253,
      "consci": 4254,
      "nu": 4255,
      "spot": 4256,
      "performan": 4257,
      "note": 4258,
      "caused": 4259,
      "feed": 4260,
      "comed": 4261,
      "princi": 4262,
      "lee": 4263,
      "iced": 4264,
      "pieces": 4265,
      "data": 4266,
      "istic": 4267,
      "scal": 4268,
      "via": 4269,
      "code": 4270,
      "motion": 4271,
      "farm": 4272,
      "weak": 4273,
      "lovely": 4274,
      "iction": 4275,
      "birthday": 4276,
      "association": 4277,
      "hmm": 4278,
      "developed": 4279,
      "available": 4280,
      "iran": 4281,
      "huge": 4282,
      "heaven": 4283,
      "security": 4284,
      "bla": 4285,
      "specific": 4286,
      "ride": 4287,
      "wheel": 4288,
      "movies": 4289,
      "joe": 4290,
      "bottom": 4291,
      "jam": 4292,
      "stories": 4293,
      "ech": 4294,
      "temp": 4295,
      "announced": 4296,
      "arrest": 4297,
      "percent": 4298,
      "paris": 4299,
      "changes": 4300,
      "mexic": 4301,
      "stars": 4302,
      "stock": 4303,
      "showed": 4304,
      "temper": 4305,
      "bac": 4306,
      "putting": 4307,
      "double": 4308,
      "scared": 4309,
      "gil": 4310,
      "services": 4311,
      "zen": 4312,
      "neck": 4313,
      "fourth": 4314,
      "icle": 4315,
      "emer": 4316,
      "schools": 4317,
      "lished": 4318,
      "cath": 4319,
      "rer": 4320,
      "sac": 4321,
      "choice": 4322,
      "election": 4323,
      "empire": 4324,
      "necessary": 4325,
      "wil": 4326,
      "offer": 4327,
      "mostly": 4328,
      "forces": 4329,
      "ami": 4330,
      "calling": 4331,
      "australia": 4332,
      "sid": 4333,
      "bled": 4334,
      "burg": 4335,
      "tot": 4336,
      "beach": 4337,
      "helped": 4338,
      "italian": 4339,
      "fighting": 4340,
      "cis": 4341,
      "sie": 4342,
      "sem": 4343,
      "spa": 4344,
      "loss": 4345,
      "turning": 4346,
      "fortun": 4347,
      "judge": 4348,
      "assu": 4349,
      "adminis": 4350,
      "model": 4351,
      "lets": 4352,
      "mont": 4353,
      "cred": 4354,
      "link": 4355,
      "worse": 4356,
      "audi": 4357,
      "accident": 4358,
      "method": 4359,
      "asing": 4360,
      "extre": 4361,
      "letters": 4362,
      "communic": 4363,
      "spoke": 4364,
      "rian": 4365,
      "twel": 4366,
      "esty": 4367,
      "gue": 4368,
      "imagine": 4369,
      "dor": 4370,
      "contract": 4371,
      "rab": 4372,
      "rub": 4373,
      "official": 4374,
      "forth": 4375,
      "docum": 4376,
      "demand": 4377,
      "create": 4378,
      "jump": 4379,
      "reci": 4380,
      "burn": 4381,
      "nick": 4382,
      "successful": 4383,
      "muse": 4384,
      "yu": 4385,
      "forced": 4386,
      "mail": 4387,
      "palace": 4388,
      "knowledge": 4389,
      "cars": 4390,
      "decision": 4391,
      "bc": 4392,
      "dish": 4393,
      "distance": 4394,
      "gs": 4395,
      "angry": 4396,
      "walked": 4397,
      "eastern": 4398,
      "iron": 4399,
      "message": 4400,
      "terrible": 4401,
      "isa": 4402,
      "account": 4403,
      "learned": 4404,
      "immediately": 4405,
      "pig": 4406,
      "ré": 4407,
      "rule": 4408,
      "ission": 4409,
      "lyn": 4410,
      "dum": 4411,
      "reve": 4412,
      "repe": 4413,
      "icip": 4414,
      "expected": 4415,
      "afternoon": 4416,
      "2004": 4417,
      "wing": 4418,
      "ria": 4419,
      "whoa": 4420,
      "championship": 4421,
      "municip": 4422,
      "ials": 4423,
      "mut": 4424,
      "channe": 4425,
      "acting": 4426,
      "flat": 4427,
      "illy": 4428,
      "disease": 4429,
      "scri": 4430,
      "holding": 4431,
      "brothers": 4432,
      "philo": 4433,
      "garden": 4434,
      "hotel": 4435,
      "busy": 4436,
      "continue": 4437,
      "yellow": 4438,
      "basket": 4439,
      "micro": 4440,
      "ext": 4441,
      "istan": 4442,
      "spend": 4443,
      "fail": 4444,
      "correct": 4445,
      "kick": 4446,
      "auto": 4447,
      "occas": 4448,
      "pictures": 4449,
      "earlier": 4450,
      "tig": 4451,
      "condu": 4452,
      "policy": 4453,
      "politician": 4454,
      "threat": 4455,
      "stren": 4456,
      "foreign": 4457,
      "weap": 4458,
      "cher": 4459,
      "bling": 4460,
      "minus": 4461,
      "legs": 4462,
      "silver": 4463,
      "ocean": 4464,
      "alo": 4465,
      "2001": 4466,
      "rot": 4467,
      "campa": 4468,
      "fra": 4469,
      "theory": 4470,
      "chall": 4471,
      "189": 4472,
      "amed": 4473,
      "lax": 4474,
      "2020": 4475,
      "systems": 4476,
      "lucky": 4477,
      "cathol": 4478,
      "né": 4479,
      "slight": 4480,
      "liked": 4481,
      "committee": 4482,
      "parli": 4483,
      "patient": 4484,
      "events": 4485,
      "relig": 4486,
      "neither": 4487,
      "sail": 4488,
      "divid": 4489,
      "employ": 4490,
      "ai": 4491,
      "attempt": 4492,
      "domin": 4493,
      "ift": 4494,
      "partner": 4495,
      "believed": 4496,
      "mike": 4497,
      "currently": 4498,
      "'.": 4499,
      "serve": 4500,
      "fifty": 4501,
      "machine": 4502,
      "mate": 4503,
      "consu": 4504,
      "instit": 4505,
      "aye": 4506,
      "soul": 4507,
      "museum": 4508,
      "thur": 4509,
      "escape": 4510,
      "sports": 4511,
      "olymp": 4512,
      "tas": 4513,
      "ideas": 4514,
      "established": 4515,
      "enemy": 4516,
      "avo": 4517,
      "iting": 4518,
      "ena": 4519,
      "release": 4520,
      "parliament": 4521,
      "hide": 4522,
      "canada": 4523,
      "adam": 4524,
      "usion": 4525,
      "settle": 4526,
      "meter": 4527,
      "beyond": 4528,
      "fash": 4529,
      "dia": 4530,
      "originally": 4531,
      "habit": 4532,
      "maid": 4533,
      "fault": 4534,
      "carol": 4535,
      "centre": 4536,
      "singer": 4537,
      "arab": 4538,
      "usual": 4539,
      "poly": 4540,
      "medical": 4541,
      "twelve": 4542,
      "walking": 4543,
      "directed": 4544,
      "youth": 4545,
      "corner": 4546,
      "2018": 4547,
      "dete": 4548,
      "ilities": 4549,
      "arrived": 4550,
      "africa": 4551,
      "dogs": 4552,
      "twice": 4553,
      "administr": 4554,
      "extreme": 4555,
      "sin": 4556,
      "berg": 4557,
      "ladies": 4558,
      "purpose": 4559,
      "screen": 4560,
      "gradu": 4561,
      "streng": 4562,
      "iff": 4563,
      "tival": 4564,
      "prize": 4565,
      "operation": 4566,
      "kore": 4567,
      "grant": 4568,
      "related": 4569,
      "florida": 4570,
      "rit": 4571,
      "whis": 4572,
      "lls": 4573,
      "formula": 4574,
      "opin": 4575,
      "pressed": 4576,
      "zero": 4577,
      "fashion": 4578,
      "nest": 4579,
      "direction": 4580,
      "satis": 4581,
      "()": 4582,
      "opt": 4583,
      "atl": 4584,
      "vere": 4585,
      "hamm": 4586,
      "players": 4587,
      "fru": 4588,
      "2017": 4589,
      "contact": 4590,
      "calm": 4591,
      "spanish": 4592,
      "staff": 4593,
      "hasn": 4594,
      "valley": 4595,
      "network": 4596,
      "leaves": 4597,
      "definitely": 4598,
      "relationship": 4599,
      "episode": 4600,
      "thee": 4601,
      "festival": 4602,
      "31": 4603,
      "ost": 4604,
      "beg": 4605,
      "35": 4606,
      "dé": 4607,
      "commer": 4608,
      "smart": 4609,
      "brief": 4610,
      "cities": 4611,
      "ises": 4612,
      "nel": 4613,
      "elected": 4614,
      "appointed": 4615,
      "pher": 4616,
      "ours": 4617,
      "justice": 4618,
      "calls": 4619,
      "crew": 4620,
      "throughout": 4621,
      "christmas": 4622,
      "houses": 4623,
      "missed": 4624,
      "practice": 4625,
      "technology": 4626,
      "dim": 4627,
      "pac": 4628,
      "sides": 4629,
      "saint": 4630,
      "chic": 4631,
      "obviously": 4632,
      "italy": 4633,
      "campaign": 4634,
      "ential": 4635,
      "ables": 4636,
      "syn": 4637,
      "electric": 4638,
      "folk": 4639,
      "philoso": 4640,
      "signed": 4641,
      "phil": 4642,
      "average": 4643,
      "scotland": 4644,
      "forty": 4645,
      "newspa": 4646,
      "186": 4647,
      "storm": 4648,
      "golden": 4649,
      "soldiers": 4650,
      "80": 4651,
      "aunt": 4652,
      "achie": 4653,
      "tells": 4654,
      "crime": 4655,
      "eventually": 4656,
      "fal": 4657,
      "jen": 4658,
      "inno": 4659,
      "commission": 4660,
      "tony": 4661,
      "rang": 4662,
      "sia": 4663,
      "resour": 4664,
      "function": 4665,
      "laws": 4666,
      "vari": 4667,
      "shoo": 4668,
      "scr": 4669,
      "driving": 4670,
      "notice": 4671,
      "bott": 4672,
      "anywhere": 4673,
      "survi": 4674,
      "arent": 4675,
      "signific": 4676,
      "growing": 4677,
      "unders": 4678,
      "eld": 4679,
      "hors": 4680,
      "uten": 4681,
      "defe": 4682,
      "orders": 4683,
      "pounds": 4684,
      "joseph": 4685,
      "tun": 4686,
      "female": 4687,
      "shire": 4688,
      "vote": 4689,
      "religi": 4690,
      "bid": 4691,
      "rough": 4692,
      "planet": 4693,
      "craft": 4694,
      "flowers": 4695,
      "cate": 4696,
      "metal": 4697,
      "pill": 4698,
      "pical": 4699,
      "aming": 4700,
      "hed": 4701,
      "mbe": 4702,
      "nose": 4703,
      "trip": 4704,
      "grown": 4705,
      "dangerous": 4706,
      "cow": 4707,
      "shown": 4708,
      "bless": 4709,
      "biggest": 4710,
      "flight": 4711,
      "railway": 4712,
      "ato": 4713,
      "sevent": 4714,
      "opening": 4715,
      "constitution": 4716,
      "filled": 4717,
      "medicine": 4718,
      "slo": 4719,
      "negative": 4720,
      "louis": 4721,
      "fla": 4722,
      "kinds": 4723,
      "70": 4724,
      "wine": 4725,
      "expen": 4726,
      "memory": 4727,
      "addition": 4728,
      "dropped": 4729,
      "victim": 4730,
      "dollars": 4731,
      "neighbor": 4732,
      "opportunity": 4733,
      "aries": 4734,
      "discovered": 4735,
      "industry": 4736,
      "fant": 4737,
      "rush": 4738,
      "drew": 4739,
      "gentlemen": 4740,
      "rules": 4741,
      "bread": 4742,
      "kent": 4743,
      "guest": 4744,
      "crimin": 4745,
      "rand": 4746,
      "strate": 4747,
      "travel": 4748,
      "culture": 4749,
      "laid": 4750,
      "positive": 4751,
      "material": 4752,
      "types": 4753,
      "fied": 4754,
      "issues": 4755,
      "performance": 4756,
      "cot": 4757,
      "basically": 4758,
      "religious": 4759,
      "range": 4760,
      "agreed": 4761,
      "inese": 4762,
      "gged": 4763,
      "witness": 4764,
      "highest": 4765,
      "teams": 4766,
      "aware": 4767,
      "een": 4768,
      "ping": 4769,
      "asia": 4770,
      "lift": 4771,
      "plants": 4772,
      "proud": 4773,
      "chem": 4774,
      "bitch": 4775,
      "solution": 4776,
      "itude": 4777,
      "greater": 4778,
      "stain": 4779,
      "older": 4780,
      "surface": 4781,
      "risk": 4782,
      "hook": 4783,
      "missing": 4784,
      "switch": 4785,
      "totally": 4786,
      "aii": 4787,
      "yard": 4788,
      "holy": 4789,
      "butter": 4790,
      "courage": 4791,
      "smaller": 4792,
      "characters": 4793,
      "student": 4794,
      "federal": 4795,
      "cock": 4796,
      "thinks": 4797,
      "slowly": 4798,
      "jac": 4799,
      "mort": 4800,
      "mistake": 4801,
      "manu": 4802,
      "2003": 4803,
      "bush": 4804,
      "easily": 4805,
      "asant": 4806,
      "chinese": 4807,
      "focus": 4808,
      "keeping": 4809,
      "darling": 4810,
      "wearing": 4811,
      "entertain": 4812,
      "tape": 4813,
      "apple": 4814,
      "particularly": 4815,
      "heat": 4816,
      "duty": 4817,
      "anda": 4818,
      "willing": 4819,
      "journal": 4820,
      "rank": 4821,
      "nomin": 4822,
      "bol": 4823,
      "choose": 4824,
      "chap": 4825,
      "satur": 4826,
      "protest": 4827,
      "rum": 4828,
      "thin": 4829,
      "reck": 4830,
      "atlan": 4831,
      "weir": 4832,
      "atives": 4833,
      "rat": 4834,
      "wick": 4835,
      "web": 4836,
      "secretary": 4837,
      "eth": 4838,
      "spread": 4839,
      "grey": 4840,
      "wis": 4841,
      "theat": 4842,
      "agent": 4843,
      "truck": 4844,
      "faces": 4845,
      "fare": 4846,
      "rural": 4847,
      "entered": 4848,
      "degree": 4849,
      "suf": 4850,
      "500": 4851,
      "vac": 4852,
      "bomb": 4853,
      "finan": 4854,
      "channel": 4855,
      "conference": 4856,
      "manager": 4857,
      "raise": 4858,
      "emper": 4859,
      "leading": 4860,
      "includes": 4861,
      "icient": 4862,
      "archite": 4863,
      "magaz": 4864,
      "investig": 4865,
      "angle": 4866,
      "2002": 4867,
      "finger": 4868,
      "kit": 4869,
      "revolution": 4870,
      "content": 4871,
      "!”": 4872,
      "kat": 4873,
      "pak": 4874,
      "unit": 4875,
      "mob": 4876,
      "trick": 4877,
      "apparent": 4878,
      "islands": 4879,
      "horses": 4880,
      "mode": 4881,
      "ulations": 4882,
      "refle": 4883,
      "eds": 4884,
      "devil": 4885,
      "studio": 4886,
      "surround": 4887,
      "pyré": 4888,
      "academy": 4889,
      "nées": 4890,
      "pyrénées": 4891,
      "enced": 4892,
      "demon": 4893,
      "heads": 4894,
      "lawyer": 4895,
      "myster": 4896,
      "possess": 4897,
      "lack": 4898,
      "tam": 4899,
      "copy": 4900,
      "tiques": 4901,
      "prevent": 4902,
      "smile": 4903,
      "quarter": 4904,
      "condition": 4905,
      "eggs": 4906,
      "atlantiques": 4907,
      "bits": 4908,
      "scar": 4909,
      "anna": 4910,
      "occup": 4911,
      "companies": 4912,
      "catholic": 4913,
      "45": 4914,
      "kitch": 4915,
      "rial": 4916,
      "ades": 4917,
      "yep": 4918,
      "actions": 4919,
      "fav": 4920,
      "picked": 4921,
      "chicago": 4922,
      "reser": 4923,
      "affair": 4924,
      "desp": 4925,
      "besides": 4926,
      "wet": 4927,
      "chuck": 4928,
      "generally": 4929,
      "frequ": 4930,
      ",--": 4931,
      "iv": 4932,
      "lia": 4933,
      "provide": 4934,
      "fox": 4935,
      "actress": 4936,
      "southwestern": 4937,
      "cash": 4938,
      "kins": 4939,
      "wrest": 4940,
      "instru": 4941,
      "rome": 4942,
      "tight": 4943,
      "product": 4944,
      "empty": 4945,
      "ano": 4946,
      "beth": 4947,
      "kee": 4948,
      "worried": 4949,
      "bigger": 4950,
      "killing": 4951,
      "particip": 4952,
      "jackson": 4953,
      "broadcast": 4954,
      "route": 4955,
      "90": 4956,
      "aled": 4957,
      "source": 4958,
      "sher": 4959,
      "pleasure": 4960,
      "print": 4961,
      "mentioned": 4962,
      "divided": 4963,
      "kne": 4964,
      "indic": 4965,
      "psycho": 4966,
      "asty": 4967,
      "designed": 4968,
      "atory": 4969,
      "robin": 4970,
      "phe": 4971,
      "itation": 4972,
      "alco": 4973,
      "roof": 4974,
      "evil": 4975,
      "libr": 4976,
      "188": 4977,
      "construction": 4978,
      "bast": 4979,
      "request": 4980,
      "qual": 4981,
      "counter": 4982,
      "powerful": 4983,
      "complex": 4984,
      "jimmy": 4985,
      "awards": 4986,
      "lieuten": 4987,
      "breath": 4988,
      "majesty": 4989,
      "waste": 4990,
      "impossible": 4991,
      "2021": 4992,
      "pressure": 4993,
      "speech": 4994,
      "larger": 4995,
      "remained": 4996,
      "loud": 4997,
      "measure": 4998,
      "standard": 4999,
      "brea": 5000,
      "ret": 5001,
      "sake": 5002,
      "pian": 5003,
      "tray": 5004,
      "plans": 5005,
      "mainly": 5006,
      "papers": 5007,
      "russian": 5008,
      "strength": 5009,
      "zi": 5010,
      "yeh": 5011,
      "officers": 5012,
      "freed": 5013,
      "organization": 5014,
      "religion": 5015,
      "tool": 5016,
      "excell": 5017,
      "greatest": 5018,
      "mountains": 5019,
      "determin": 5020,
      "2019": 5021,
      "izing": 5022,
      "singing": 5023,
      "critic": 5024,
      "competition": 5025,
      "jury": 5026,
      "reven": 5027,
      "african": 5028,
      "remind": 5029,
      "ona": 5030,
      "goal": 5031,
      "tai": 5032,
      "amazing": 5033,
      "clearly": 5034,
      "wedding": 5035,
      "meat": 5036,
      "stan": 5037,
      "reported": 5038,
      "dare": 5039,
      "progress": 5040,
      "shock": 5041,
      "grave": 5042,
      "recorded": 5043,
      "cree": 5044,
      "eff": 5045,
      "pap": 5046,
      "poll": 5047,
      "taught": 5048,
      "airport": 5049,
      "metro": 5050,
      "troops": 5051,
      "citiz": 5052,
      "(,": 5053,
      "...?": 5054,
      "crash": 5055,
      "location": 5056,
      "tournam": 5057,
      "kitchen": 5058,
      "kis": 5059,
      "mere": 5060,
      "shin": 5061,
      "pati": 5062,
      "steps": 5063,
      "rise": 5064,
      "sole": 5065,
      "liz": 5066,
      "produce": 5067,
      "effe": 5068,
      "property": 5069,
      "texas": 5070,
      "lieutenant": 5071,
      "meters": 5072,
      "convers": 5073,
      "blind": 5074,
      "drag": 5075,
      "tempor": 5076,
      "aur": 5077,
      "maintain": 5078,
      "gle": 5079,
      "insu": 5080,
      "shore": 5081,
      "breakfast": 5082,
      "replaced": 5083,
      "dragon": 5084,
      "flash": 5085,
      "management": 5086,
      "individual": 5087,
      "andre": 5088,
      "ira": 5089,
      "motor": 5090,
      "tural": 5091,
      "giant": 5092,
      "traditional": 5093,
      "teeth": 5094,
      "vey": 5095,
      "pool": 5096,
      "button": 5097,
      "stuck": 5098,
      "learning": 5099,
      "interview": 5100,
      "sexual": 5101,
      "taste": 5102,
      "otherwise": 5103,
      "shoes": 5104,
      "shape": 5105,
      "stream": 5106,
      "ari": 5107,
      "stal": 5108,
      "sec": 5109,
      "applic": 5110,
      "alcohol": 5111,
      "ghost": 5112,
      "1999": 5113,
      "surprise": 5114,
      "silly": 5115,
      "mechan": 5116,
      "aging": 5117,
      "consist": 5118,
      "rupt": 5119,
      "emperor": 5120,
      "performed": 5121,
      "rooms": 5122,
      "painting": 5123,
      "windows": 5124,
      "ordinary": 5125,
      "fright": 5126,
      "becomes": 5127,
      "conserv": 5128,
      "parte": 5129,
      "subst": 5130,
      "camera": 5131,
      "remark": 5132,
      "coat": 5133,
      "cancer": 5134,
      "phili": 5135,
      "corn": 5136,
      "runs": 5137,
      "universe": 5138,
      "independent": 5139,
      "transport": 5140,
      "weird": 5141,
      "flying": 5142,
      "gang": 5143,
      "lunch": 5144,
      "saved": 5145,
      "erson": 5146,
      "forever": 5147,
      "handle": 5148,
      "influence": 5149,
      "recently": 5150,
      "replied": 5151,
      "crying": 5152,
      "becoming": 5153,
      "francis": 5154,
      "ake": 5155,
      "tan": 5156,
      "structure": 5157,
      "features": 5158,
      "sque": 5159,
      "haw": 5160,
      "complain": 5161,
      "worst": 5162,
      "grace": 5163,
      "crack": 5164,
      "distribut": 5165,
      "ander": 5166,
      "conds": 5167,
      "spain": 5168,
      "failed": 5169,
      "prepared": 5170,
      "départe": 5171,
      "vice": 5172,
      "deb": 5173,
      "artist": 5174,
      "ification": 5175,
      "possibly": 5176,
      "holiday": 5177,
      "described": 5178,
      "département": 5179,
      "likes": 5180,
      "advent": 5181,
      "contribut": 5182,
      "starts": 5183,
      "prior": 5184,
      "results": 5185,
      "conditions": 5186,
      "ordered": 5187,
      "fold": 5188,
      "grat": 5189,
      "bub": 5190,
      "sleeping": 5191,
      "offered": 5192,
      "economic": 5193,
      "chocol": 5194,
      "municipality": 5195,
      "kni": 5196,
      "omy": 5197,
      "idence": 5198,
      "shout": 5199,
      "duck": 5200,
      "soldier": 5201,
      "multiple": 5202,
      "arg": 5203,
      "icles": 5204,
      "admir": 5205,
      "grass": 5206,
      "buried": 5207,
      "finding": 5208,
      "schol": 5209,
      "bass": 5210,
      "itar": 5211,
      "image": 5212,
      "oppos": 5213,
      "surprised": 5214,
      "gall": 5215,
      "wave": 5216,
      "circum": 5217,
      "directly": 5218,
      "fifth": 5219,
      "concerned": 5220,
      "comedy": 5221,
      "lit": 5222,
      "tch": 5223,
      "pocket": 5224,
      "appreci": 5225,
      "commander": 5226,
      "cous": 5227,
      "easier": 5228,
      "smell": 5229,
      "32": 5230,
      "turns": 5231,
      "decide": 5232,
      "dirty": 5233,
      "opinion": 5234,
      "ration": 5235,
      "wat": 5236,
      "grab": 5237,
      "mayor": 5238,
      "realize": 5239,
      "buildings": 5240,
      "journey": 5241,
      "lion": 5242,
      "rare": 5243,
      "onel": 5244,
      "contr": 5245,
      "jeff": 5246,
      "valu": 5247,
      "beauty": 5248,
      "circle": 5249,
      "greek": 5250,
      "labor": 5251,
      "physical": 5252,
      "mama": 5253,
      "pup": 5254,
      "pure": 5255,
      "seconds": 5256,
      "steal": 5257,
      "comfortable": 5258,
      "document": 5259,
      "gay": 5260,
      "advant": 5261,
      "platform": 5262,
      "fruit": 5263,
      "mn": 5264,
      "tower": 5265,
      "goodbye": 5266,
      "drinking": 5267,
      "fli": 5268,
      "mah": 5269,
      "ini": 5270,
      "concl": 5271,
      "istics": 5272,
      "barr": 5273,
      "bury": 5274,
      "reasons": 5275,
      "islam": 5276,
      "beha": 5277,
      "studied": 5278,
      "planning": 5279,
      "sunday": 5280,
      "tes": 5281,
      "quality": 5282,
      "winning": 5283,
      "listening": 5284,
      "split": 5285,
      "jum": 5286,
      "era": 5287,
      "upper": 5288,
      "frog": 5289,
      "hungry": 5290,
      "branch": 5291,
      "conscious": 5292,
      "sword": 5293,
      "ases": 5294,
      "americans": 5295,
      "daniel": 5296,
      "silence": 5297,
      "ey": 5298,
      "ulous": 5299,
      "invest": 5300,
      "authority": 5301,
      "alter": 5302,
      "ulty": 5303,
      "drama": 5304,
      "penn": 5305,
      "constant": 5306,
      "seriously": 5307,
      "effective": 5308,
      "36": 5309,
      "ening": 5310,
      "stro": 5311,
      "novel": 5312,
      "pope": 5313,
      "affe": 5314,
      "avoid": 5315,
      "ders": 5316,
      "afterwards": 5317,
      "friday": 5318,
      "increase": 5319,
      "mexico": 5320,
      "cub": 5321,
      "mig": 5322,
      "tough": 5323,
      "asc": 5324,
      "geo": 5325,
      "falls": 5326,
      "humans": 5327,
      "dude": 5328,
      "drunk": 5329,
      "crown": 5330,
      "costs": 5331,
      "instr": 5332,
      "ert": 5333,
      "nineteen": 5334,
      ",'": 5335,
      "cards": 5336,
      "forgive": 5337,
      "promo": 5338,
      "chamber": 5339,
      "swear": 5340,
      "connect": 5341,
      "sweetie": 5342,
      "scale": 5343,
      "ius": 5344,
      "km": 5345,
      "tong": 5346,
      "drum": 5347,
      "stayed": 5348,
      "financial": 5349,
      "ourselves": 5350,
      "promised": 5351,
      "orange": 5352,
      "losing": 5353,
      "separate": 5354,
      "tournament": 5355,
      "bak": 5356,
      "cise": 5357,
      "eve": 5358,
      "coal": 5359,
      "thered": 5360,
      "minor": 5361,
      "previous": 5362,
      "limited": 5363,
      "dressed": 5364,
      "onic": 5365,
      "armed": 5366,
      "norm": 5367,
      "reality": 5368,
      "programs": 5369,
      "tood": 5370,
      "safety": 5371,
      "delight": 5372,
      "pole": 5373,
      "honour": 5374,
      "ez": 5375,
      "tire": 5376,
      "workers": 5377,
      "1998": 5378,
      "languages": 5379,
      "favorite": 5380,
      "bia": 5381,
      "oned": 5382,
      "lect": 5383,
      "tering": 5384,
      "stein": 5385,
      "1996": 5386,
      "units": 5387,
      "pleased": 5388,
      "kings": 5389,
      "succeed": 5390,
      "arrange": 5391,
      "threw": 5392,
      "magazine": 5393,
      "vit": 5394,
      "ller": 5395,
      "veh": 5396,
      "chat": 5397,
      "anta": 5398,
      "plate": 5399,
      "knowing": 5400,
      "1997": 5401,
      "smoke": 5402,
      "perform": 5403,
      "illa": 5404,
      "numer": 5405,
      "balls": 5406,
      "target": 5407,
      "understood": 5408,
      "egy": 5409,
      "thick": 5410,
      "loves": 5411,
      "studies": 5412,
      "brave": 5413,
      "rb": 5414,
      "shel": 5415,
      "civi": 5416,
      "colon": 5417,
      "cric": 5418,
      "rocks": 5419,
      "apparently": 5420,
      "tle": 5421,
      "185": 5422,
      "187": 5423,
      "transl": 5424,
      "pred": 5425,
      "canad": 5426,
      "serge": 5427,
      "owner": 5428,
      "feels": 5429,
      "musical": 5430,
      "chicken": 5431,
      "kim": 5432,
      "mam": 5433,
      "vity": 5434,
      "meas": 5435,
      "carter": 5436,
      "etc": 5437,
      "gene": 5438,
      "shirt": 5439,
      "emot": 5440,
      "pit": 5441,
      "arily": 5442,
      "bodies": 5443,
      "...\"": 5444,
      "cycl": 5445,
      "spoken": 5446,
      "formula_": 5447,
      "chemical": 5448,
      "ears": 5449,
      "asle": 5450,
      "ador": 5451,
      "proved": 5452,
      "carbon": 5453,
      "jane": 5454,
      "curi": 5455,
      "laughing": 5456,
      "tend": 5457,
      "assem": 5458,
      "dos": 5459,
      "cere": 5460,
      "bother": 5461,
      "acted": 5462,
      "buck": 5463,
      "solve": 5464,
      "tiny": 5465,
      "asleep": 5466,
      "intell": 5467,
      "sugar": 5468,
      "everywhere": 5469,
      "icted": 5470,
      "cycle": 5471,
      "delic": 5472,
      "fixed": 5473,
      "ik": 5474,
      "debut": 5475,
      "streets": 5476,
      "candid": 5477,
      "intellig": 5478,
      "oo": 5479,
      "inct": 5480,
      "convent": 5481,
      "angeles": 5482,
      "trial": 5483,
      "belief": 5484,
      "appears": 5485,
      "custo": 5486,
      "responsible": 5487,
      "zig": 5488,
      "pattern": 5489,
      "jobs": 5490,
      "transfer": 5491,
      "treatment": 5492,
      "democratic": 5493,
      "34": 5494,
      "rs": 5495,
      "rings": 5496,
      "retired": 5497,
      "imper": 5498,
      "helping": 5499,
      "tommy": 5500,
      "favour": 5501,
      "soviet": 5502,
      "pete": 5503,
      "proof": 5504,
      "resist": 5505,
      "express": 5506,
      "shame": 5507,
      "priest": 5508,
      "introduced": 5509,
      "chocolate": 5510,
      "vation": 5511,
      "vot": 5512,
      "doors": 5513,
      "ima": 5514,
      "managed": 5515,
      "exhi": 5516,
      "surely": 5517,
      "hardly": 5518,
      "thousands": 5519,
      "appearance": 5520,
      "required": 5521,
      "rage": 5522,
      "grandma": 5523,
      "relax": 5524,
      "chase": 5525,
      "aret": 5526,
      "redu": 5527,
      "actual": 5528,
      "spin": 5529,
      "statement": 5530,
      "struck": 5531,
      "significant": 5532,
      "knight": 5533,
      "showing": 5534,
      "kenned": 5535,
      "jail": 5536,
      "drugs": 5537,
      "hedron": 5538,
      "flag": 5539,
      "steel": 5540,
      "driver": 5541,
      "politics": 5542,
      "guns": 5543,
      "toward": 5544,
      "disco": 5545,
      "magic": 5546,
      "keys": 5547,
      "ansas": 5548,
      "fought": 5549,
      "hans": 5550,
      "witch": 5551,
      "improve": 5552,
      "syl": 5553,
      "flower": 5554,
      "occasion": 5555,
      "despite": 5556,
      "library": 5557,
      "faster": 5558,
      "gam": 5559,
      "selling": 5560,
      "quit": 5561,
      "hadn": 5562,
      "dying": 5563,
      "pardon": 5564,
      "1995": 5565,
      "products": 5566,
      "understanding": 5567,
      "defeated": 5568,
      "manufact": 5569,
      "orches": 5570,
      "dee": 5571,
      "duke": 5572,
      "relative": 5573,
      "freedom": 5574,
      ".--": 5575,
      "vine": 5576,
      "isher": 5577,
      "serving": 5578,
      "basic": 5579,
      "fifteen": 5580,
      "quarters": 5581,
      "destroyed": 5582,
      "audience": 5583,
      "slightly": 5584,
      "64": 5585,
      "bare": 5586,
      "relie": 5587,
      "complic": 5588,
      "killer": 5589,
      "breaking": 5590,
      "harm": 5591,
      "teaching": 5592,
      "nasty": 5593,
      "skill": 5594,
      "rey": 5595,
      "weal": 5596,
      "sigh": 5597,
      "matters": 5598,
      "daily": 5599,
      "collection": 5600,
      "require": 5601,
      "scottish": 5602,
      "saturday": 5603,
      "kennedy": 5604,
      "mitted": 5605,
      "som": 5606,
      "concept": 5607,
      "tage": 5608,
      "gency": 5609,
      "brian": 5610,
      "bottle": 5611,
      "unfortun": 5612,
      "cake": 5613,
      "brook": 5614,
      "shadow": 5615,
      "falling": 5616,
      "credit": 5617,
      "iot": 5618,
      "dust": 5619,
      "kir": 5620,
      "twin": 5621,
      "noticed": 5622,
      "--\"": 5623,
      "drawn": 5624,
      "gentleman": 5625,
      "institute": 5626,
      "37": 5627,
      "von": 5628,
      "advis": 5629,
      "traf": 5630,
      "colonel": 5631,
      "victory": 5632,
      "walls": 5633,
      "accepted": 5634,
      "inspe": 5635,
      "pel": 5636,
      "previously": 5637,
      "fired": 5638,
      "38": 5639,
      "bin": 5640,
      "inju": 5641,
      "rence": 5642,
      "score": 5643,
      "britain": 5644,
      "graphy": 5645,
      "basketball": 5646,
      "ell": 5647,
      "invent": 5648,
      "sets": 5649,
      "goods": 5650,
      "sons": 5651,
      "fingers": 5652,
      "rapid": 5653,
      "dale": 5654,
      "owned": 5655,
      "1994": 5656,
      "northwest": 5657,
      "discuss": 5658,
      "aded": 5659,
      "tied": 5660,
      "map": 5661,
      "sphere": 5662,
      "shooting": 5663,
      "jun": 5664,
      "amend": 5665,
      "chain": 5666,
      "setting": 5667,
      "eleven": 5668,
      "bringing": 5669,
      "connected": 5670,
      "height": 5671,
      "bee": 5672,
      "ental": 5673,
      "affect": 5674,
      "passeng": 5675,
      "salt": 5676,
      "chairman": 5677,
      "kal": 5678,
      "theast": 5679,
      "reme": 5680,
      "pulled": 5681,
      "younger": 5682,
      "bishop": 5683,
      "canadian": 5684,
      "kan": 5685,
      "rated": 5686,
      "liqu": 5687,
      "comment": 5688,
      "laura": 5689,
      "dreams": 5690,
      "ais": 5691,
      "loose": 5692,
      "plent": 5693,
      "guil": 5694,
      "prefer": 5695,
      "indiana": 5696,
      "gt": 5697,
      "wings": 5698,
      "ths": 5699,
      "stad": 5700,
      "victori": 5701,
      "categor": 5702,
      "nis": 5703,
      "tha": 5704,
      "isto": 5705,
      "restaur": 5706,
      "signal": 5707,
      "majority": 5708,
      "opposite": 5709,
      "aim": 5710,
      "lind": 5711,
      "tag": 5712,
      "arrow": 5713,
      "illust": 5714,
      "formation": 5715,
      "1990": 5716,
      "awful": 5717,
      "advice": 5718,
      "details": 5719,
      "newspaper": 5720,
      "expensive": 5721,
      "sche": 5722,
      "tang": 5723,
      "wid": 5724,
      "diam": 5725,
      "changing": 5726,
      "republican": 5727,
      "throat": 5728,
      "sergeant": 5729,
      "usa": 5730,
      "closer": 5731,
      "solid": 5732,
      "defend": 5733,
      "ix": 5734,
      "rice": 5735,
      "sach": 5736,
      "grade": 5737,
      "disci": 5738,
      "tradition": 5739,
      "resources": 5740,
      "bone": 5741,
      "pier": 5742,
      "vous": 5743,
      "aland": 5744,
      "lips": 5745,
      "imum": 5746,
      "supre": 5747,
      "nathan": 5748,
      "colour": 5749,
      "1992": 5750,
      "eliza": 5751,
      "ib": 5752,
      "pink": 5753,
      "task": 5754,
      "beer": 5755,
      "tery": 5756,
      "afford": 5757,
      "paral": 5758,
      "calcul": 5759,
      "protection": 5760,
      "russia": 5761,
      "latin": 5762,
      "knife": 5763,
      "atom": 5764,
      "wore": 5765,
      "medal": 5766,
      "scen": 5767,
      "harry": 5768,
      "1980": 5769,
      "laughed": 5770,
      "powers": 5771,
      "traffic": 5772,
      "kur": 5773,
      "enge": 5774,
      "proceed": 5775,
      "maria": 5776,
      "joke": 5777,
      "damage": 5778,
      "hanging": 5779,
      "drawing": 5780,
      "settled": 5781,
      "forgotten": 5782,
      "dic": 5783,
      "narr": 5784,
      "rance": 5785,
      "hay": 5786,
      "gray": 5787,
      "els": 5788,
      "attend": 5789,
      "passing": 5790,
      "matches": 5791,
      "provided": 5792,
      "temperature": 5793,
      "vig": 5794,
      "shakes": 5795,
      "sees": 5796,
      "apt": 5797,
      "completed": 5798,
      "laughter": 5799,
      "remains": 5800,
      "pper": 5801,
      "therine": 5802,
      "conce": 5803,
      "dons": 5804,
      "highly": 5805,
      "1991": 5806,
      "dancing": 5807,
      "attacked": 5808,
      "status": 5809,
      "gers": 5810,
      "oured": 5811,
      "accom": 5812,
      "boom": 5813,
      "causes": 5814,
      "entirely": 5815,
      "mile": 5816,
      "anx": 5817,
      "chest": 5818,
      "boston": 5819,
      "helps": 5820,
      "senior": 5821,
      "?'": 5822,
      "mathem": 5823,
      "australian": 5824,
      "mixed": 5825,
      "bastard": 5826,
      "chant": 5827,
      "navy": 5828,
      "angel": 5829,
      "activity": 5830,
      "dal": 5831,
      "lone": 5832,
      "ov": 5833,
      "recomm": 5834,
      "chor": 5835,
      "advan": 5836,
      "ryan": 5837,
      "dram": 5838,
      "cheese": 5839,
      "regional": 5840,
      "1993": 5841,
      "effort": 5842,
      "horri": 5843,
      "mobile": 5844,
      "conversation": 5845,
      "advantage": 5846,
      "guilty": 5847,
      "xim": 5848,
      "ache": 5849,
      "exten": 5850,
      "uments": 5851,
      "susan": 5852,
      "bowl": 5853,
      "wy": 5854,
      "ware": 5855,
      "internet": 5856,
      "element": 5857,
      "factory": 5858,
      "fields": 5859,
      "hammad": 5860,
      "theatre": 5861,
      "',": 5862,
      "insur": 5863,
      "removed": 5864,
      "upstairs": 5865,
      "receive": 5866,
      "punish": 5867,
      "300": 5868,
      "99": 5869,
      "dess": 5870,
      "itors": 5871,
      "manner": 5872,
      "article": 5873,
      "quant": 5874,
      "shake": 5875,
      "feelings": 5876,
      "fancy": 5877,
      "contains": 5878,
      "excellent": 5879,
      "ires": 5880,
      "ology": 5881,
      "admit": 5882,
      "useful": 5883,
      "acts": 5884,
      "guitar": 5885,
      "cream": 5886,
      "ensive": 5887,
      "cute": 5888,
      "ros": 5889,
      "tears": 5890,
      "notes": 5891,
      "somehow": 5892,
      "swed": 5893,
      "establish": 5894,
      "33": 5895,
      "leve": 5896,
      "temple": 5897,
      "climate": 5898,
      "extremely": 5899,
      "behavi": 5900,
      "normally": 5901,
      "bite": 5902,
      "ee": 5903,
      "koh": 5904,
      "igan": 5905,
      "legis": 5906,
      "martin": 5907,
      "exer": 5908,
      "advance": 5909,
      "analys": 5910,
      "commercial": 5911,
      "ying": 5912,
      "solo": 5913,
      "advert": 5914,
      "sels": 5915,
      "mond": 5916,
      "planned": 5917,
      "budget": 5918,
      "ceremon": 5919,
      "kong": 5920,
      "mich": 5921,
      "utions": 5922,
      "laun": 5923,
      "strike": 5924,
      "thri": 5925,
      "sustain": 5926,
      "pleasant": 5927,
      "brad": 5928,
      "greg": 5929,
      "senate": 5930,
      "perfectly": 5931,
      "achieve": 5932,
      "\"?": 5933,
      "uals": 5934,
      "yan": 5935,
      "terror": 5936,
      "manip": 5937,
      "neighbour": 5938,
      "scientists": 5939,
      "ckey": 5940,
      "nations": 5941,
      "pha": 5942,
      "atta": 5943,
      "astr": 5944,
      "propos": 5945,
      "presence": 5946,
      "keeps": 5947,
      "treated": 5948,
      "juli": 5949,
      "trail": 5950,
      "claimed": 5951,
      "innocent": 5952,
      "mbered": 5953,
      "pakistan": 5954,
      "gift": 5955,
      "noise": 5956,
      "concent": 5957,
      "agric": 5958,
      "bride": 5959,
      "passion": 5960,
      "hearing": 5961,
      "ninety": 5962,
      "expand": 5963,
      "benefit": 5964,
      "pul": 5965,
      "ras": 5966,
      "core": 5967,
      "aces": 5968,
      "addons": 5969,
      "deput": 5970,
      "raw": 5971,
      "spon": 5972,
      "background": 5973,
      "frances": 5974,
      "parties": 5975,
      "bene": 5976,
      "teachers": 5977,
      "tube": 5978,
      "plenty": 5979,
      "ame": 5980,
      "jay": 5981,
      "wers": 5982,
      "atures": 5983,
      "attract": 5984,
      "meal": 5985,
      "somewhat": 5986,
      "diag": 5987,
      "ggle": 5988,
      "effects": 5989,
      "supreme": 5990,
      "chosen": 5991,
      "operations": 5992,
      "48": 5993,
      "bition": 5994,
      "ssing": 5995,
      "stations": 5996,
      "preser": 5997,
      "border": 5998,
      "flew": 5999,
      "eral": 6000,
      "alty": 6001,
      "fered": 6002,
      "whenever": 6003,
      "sarah": 6004,
      "excl": 6005,
      "brush": 6006,
      "highway": 6007,
      "iii": 6008,
      "fallen": 6009,
      "draft": 6010,
      "craw": 6011,
      "forts": 6012,
      "shoulder": 6013,
      "billion": 6014,
      "agreement": 6015,
      "bah": 6016,
      "pad": 6017,
      "abor": 6018,
      "dip": 6019,
      "marsh": 6020,
      "hip": 6021,
      "carefully": 6022,
      "variety": 6023,
      "chester": 6024,
      "georg": 6025,
      "bullet": 6026,
      "violence": 6027,
      "scientific": 6028,
      "historical": 6029,
      "hes": 6030,
      "artists": 6031,
      "staying": 6032,
      "piano": 6033,
      "tial": 6034,
      "estim": 6035,
      "sixty": 6036,
      "struct": 6037,
      "awarded": 6038,
      "circumst": 6039,
      "cousin": 6040,
      "dave": 6041,
      "divor": 6042,
      "1989": 6043,
      "hurric": 6044,
      "territory": 6045,
      "suggested": 6046,
      "apolog": 6047,
      "narrow": 6048,
      "challenge": 6049,
      "gment": 6050,
      "vive": 6051,
      "alice": 6052,
      "suck": 6053,
      "contest": 6054,
      "desire": 6055,
      "headed": 6056,
      "shah": 6057,
      "unique": 6058,
      "fund": 6059,
      "integr": 6060,
      "organis": 6061,
      "sharp": 6062,
      "hiding": 6063,
      "failure": 6064,
      "frame": 6065,
      "kansas": 6066,
      "restr": 6067,
      "isy": 6068,
      "ites": 6069,
      "root": 6070,
      "estic": 6071,
      "odd": 6072,
      "watched": 6073,
      "fortune": 6074,
      "silent": 6075,
      "cig": 6076,
      "severe": 6077,
      "vector": 6078,
      "pted": 6079,
      "preci": 6080,
      "trem": 6081,
      "rabbit": 6082,
      "rein": 6083,
      "aside": 6084,
      "icts": 6085,
      "ams": 6086,
      "primary": 6087,
      "hunting": 6088,
      "collect": 6089,
      "beside": 6090,
      "connection": 6091,
      "carrying": 6092,
      "cats": 6093,
      "presented": 6094,
      "remembered": 6095,
      "pent": 6096,
      "reaction": 6097,
      "peak": 6098,
      "poison": 6099,
      "response": 6100,
      "pacific": 6101,
      "aven": 6102,
      "wich": 6103,
      "thetic": 6104,
      "rier": 6105,
      "producer": 6106,
      "kidding": 6107,
      "excited": 6108,
      "braz": 6109,
      "insurance": 6110,
      "las": 6111,
      "inqu": 6112,
      "gler": 6113,
      "senator": 6114,
      "incident": 6115,
      "swimm": 6116,
      "arthur": 6117,
      "maz": 6118,
      "desper": 6119,
      "generation": 6120,
      "signs": 6121,
      "hills": 6122,
      "blame": 6123,
      "kers": 6124,
      "online": 6125,
      "endo": 6126,
      "stated": 6127,
      "cheer": 6128,
      "allows": 6129,
      "symbol": 6130,
      "uyeh": 6131,
      "hockey": 6132,
      "expression": 6133,
      "cia": 6134,
      "hundreds": 6135,
      "dutch": 6136,
      "ived": 6137,
      "ives": 6138,
      "pitch": 6139,
      "cel": 6140,
      "agency": 6141,
      "spect": 6142,
      "string": 6143,
      "jean": 6144,
      "shared": 6145,
      "equi": 6146,
      "vania": 6147,
      "confess": 6148,
      "familiar": 6149,
      "ots": 6150,
      "idiot": 6151,
      "confl": 6152,
      "upset": 6153,
      "worn": 6154,
      "pregn": 6155,
      "desc": 6156,
      "steve": 6157,
      "films": 6158,
      "administration": 6159,
      "entertainment": 6160,
      "shakespe": 6161,
      "aid": 6162,
      "tab": 6163,
      "dean": 6164,
      "deliver": 6165,
      "ski": 6166,
      "riding": 6167,
      "represented": 6168,
      "75": 6169,
      "sched": 6170,
      "valent": 6171,
      "invited": 6172,
      "increased": 6173,
      "locked": 6174,
      "glasses": 6175,
      "occurred": 6176,
      "tongue": 6177,
      "shakespeare": 6178,
      "inn": 6179,
      "edward": 6180,
      "rie": 6181,
      "ohio": 6182,
      "visions": 6183,
      "thoughts": 6184,
      "wales": 6185,
      "obtain": 6186,
      "sales": 6187,
      "drove": 6188,
      "growth": 6189,
      "declared": 6190,
      "39": 6191,
      "tum": 6192,
      "tub": 6193,
      "wend": 6194,
      "ani": 6195,
      "beast": 6196,
      "chart": 6197,
      "sheep": 6198,
      "wolf": 6199,
      "fame": 6200,
      "visible": 6201,
      "daw": 6202,
      "weekend": 6203,
      "approxim": 6204,
      "figures": 6205,
      "suspect": 6206,
      "experiment": 6207,
      "patients": 6208,
      "temporary": 6209,
      "cs": 6210,
      "onia": 6211,
      "congrat": 6212,
      "iles": 6213,
      "disappeared": 6214,
      "presents": 6215,
      "uniform": 6216,
      "harris": 6217,
      "custom": 6218,
      "analysis": 6219,
      "launched": 6220,
      "\").": 6221,
      "evolution": 6222,
      "itzer": 6223,
      "cles": 6224,
      "supported": 6225,
      "independence": 6226,
      "mous": 6227,
      "nig": 6228,
      "tone": 6229,
      "lean": 6230,
      "listed": 6231,
      "juice": 6232,
      "johnson": 6233,
      "1988": 6234,
      "basis": 6235,
      "1979": 6236,
      "paying": 6237,
      "carolina": 6238,
      "lif": 6239,
      "proposed": 6240,
      "examples": 6241,
      "fairly": 6242,
      "billy": 6243,
      "remo": 6244,
      "oul": 6245,
      "homes": 6246,
      "suic": 6247,
      "goodness": 6248,
      "burgh": 6249,
      "appeal": 6250,
      "incred": 6251,
      "global": 6252,
      "assistant": 6253,
      "weapons": 6254,
      "oak": 6255,
      "sab": 6256,
      "captured": 6257,
      "buddy": 6258,
      "desert": 6259,
      "executive": 6260,
      "settlement": 6261,
      "file": 6262,
      "hast": 6263,
      "wra": 6264,
      "consequ": 6265,
      "resident": 6266,
      "exchange": 6267,
      "instance": 6268,
      "confeder": 6269,
      "ucky": 6270,
      "featured": 6271,
      "materials": 6272,
      "crowd": 6273,
      "fate": 6274,
      "khan": 6275,
      "zone": 6276,
      "orient": 6277,
      "amy": 6278,
      "aband": 6279,
      "anton": 6280,
      "seek": 6281,
      "waited": 6282,
      "clever": 6283,
      "boyfriend": 6284,
      "intel": 6285,
      "slept": 6286,
      "leaders": 6287,
      "virt": 6288,
      "hurricane": 6289,
      "cue": 6290,
      "ita": 6291,
      "veget": 6292,
      "cob": 6293,
      "mole": 6294,
      "turkey": 6295,
      "oldest": 6296,
      "ireland": 6297,
      "sidney": 6298,
      "olympics": 6299,
      "bunch": 6300,
      "fed": 6301,
      "nd": 6302,
      "oli": 6303,
      "inhabit": 6304,
      "embarr": 6305,
      "chose": 6306,
      "winner": 6307,
      "1987": 6308,
      "squared": 6309,
      "sisters": 6310,
      "chapter": 6311,
      "appreciate": 6312,
      "bent": 6313,
      "ito": 6314,
      "jones": 6315,
      "plot": 6316,
      "tank": 6317,
      "soil": 6318,
      "unknown": 6319,
      "poe": 6320,
      "ultim": 6321,
      "gather": 6322,
      "pursu": 6323,
      "brilli": 6324,
      "economy": 6325,
      "embarrass": 6326,
      "44": 6327,
      "rhy": 6328,
      "conv": 6329,
      "estate": 6330,
      "phia": 6331,
      "faced": 6332,
      "seasons": 6333,
      "williams": 6334,
      "literature": 6335,
      "weapon": 6336,
      "criminal": 6337,
      "rh": 6338,
      "rant": 6339,
      "asha": 6340,
      "entially": 6341,
      "deck": 6342,
      "pension": 6343,
      "logist": 6344,
      "eaten": 6345,
      "opera": 6346,
      "supply": 6347,
      "apartment": 6348,
      "arrested": 6349,
      "giluyeh": 6350,
      "sacri": 6351,
      "begins": 6352,
      "philosophy": 6353,
      "kohgiluyeh": 6354,
      "oth": 6355,
      "tts": 6356,
      "puts": 6357,
      "happiness": 6358,
      "portion": 6359,
      "foundation": 6360,
      "1982": 6361,
      "officially": 6362,
      "classes": 6363,
      "marks": 6364,
      "associated": 6365,
      "baseball": 6366,
      "activities": 6367,
      "false": 6368,
      "wendy": 6369,
      "gur": 6370,
      "roles": 6371,
      "wire": 6372,
      "neare": 6373,
      "pla": 6374,
      "ridic": 6375,
      "acle": 6376,
      "ults": 6377,
      "grun": 6378,
      "stomach": 6379,
      "emily": 6380,
      "joint": 6381,
      "follows": 6382,
      "additional": 6383,
      "delay": 6384,
      "increasing": 6385,
      "korea": 6386,
      "pennsyl": 6387,
      "vest": 6388,
      "eric": 6389,
      "seed": 6390,
      "abs": 6391,
      "woo": 6392,
      "icks": 6393,
      "commonly": 6394,
      "obje": 6395,
      "1984": 6396,
      "profit": 6397,
      "healthy": 6398,
      "critical": 6399,
      "jersey": 6400,
      "emergency": 6401,
      "script": 6402,
      "argument": 6403,
      "bha": 6404,
      "tories": 6405,
      "agan": 6406,
      "mental": 6407,
      "guide": 6408,
      "mud": 6409,
      "moral": 6410,
      "glas": 6411,
      "realized": 6412,
      "burned": 6413,
      "harder": 6414,
      "appropri": 6415,
      "hoping": 6416,
      "determined": 6417,
      "orchestra": 6418,
      "levels": 6419,
      "fab": 6420,
      "isra": 6421,
      "acid": 6422,
      "doo": 6423,
      "spare": 6424,
      "prepar": 6425,
      "paint": 6426,
      "ugly": 6427,
      "crossed": 6428,
      "labour": 6429,
      "seventy": 6430,
      "sang": 6431,
      "iny": 6432,
      "feature": 6433,
      "wondering": 6434,
      "latter": 6435,
      "atlantic": 6436,
      "dur": 6437,
      "ggl": 6438,
      "aspect": 6439,
      "chin": 6440,
      "unlike": 6441,
      "agu": 6442,
      "lap": 6443,
      "engaged": 6444,
      "holds": 6445,
      "massach": 6446,
      "responsibility": 6447,
      "legisl": 6448,
      "massachuse": 6449,
      "exped": 6450,
      "bru": 6451,
      "blan": 6452,
      "assy": 6453,
      "friendly": 6454,
      "sixth": 6455,
      "limit": 6456,
      "diet": 6457,
      "client": 6458,
      "massachusetts": 6459,
      "gran": 6460,
      "cheap": 6461,
      "railroad": 6462,
      "elder": 6463,
      "michigan": 6464,
      "ec": 6465,
      "replace": 6466,
      "utter": 6467,
      "brings": 6468,
      "capac": 6469,
      "defense": 6470,
      "hong": 6471,
      "aran": 6472,
      "gos": 6473,
      "holly": 6474,
      "nervous": 6475,
      "matic": 6476,
      "madam": 6477,
      "lincol": 6478,
      "communication": 6479,
      "assembly": 6480,
      "uri": 6481,
      "inch": 6482,
      "reform": 6483,
      "ero": 6484,
      "aring": 6485,
      "provin": 6486,
      "19th": 6487,
      "borough": 6488,
      "1986": 6489,
      "trains": 6490,
      "woods": 6491,
      "recording": 6492,
      "mount": 6493,
      "techn": 6494,
      "mie": 6495,
      "tat": 6496,
      "stones": 6497,
      "usive": 6498,
      "tooth": 6499,
      "girlfriend": 6500,
      "tware": 6501,
      "concert": 6502,
      "software": 6503,
      "affairs": 6504,
      "pennsylvania": 6505,
      "jill": 6506,
      "kr": 6507,
      "zes": 6508,
      "infe": 6509,
      "irish": 6510,
      "discover": 6511,
      "cris": 6512,
      "steam": 6513,
      "compared": 6514,
      "rug": 6515,
      "suspic": 6516,
      "engineering": 6517,
      "photograph": 6518,
      "cricket": 6519,
      "lincoln": 6520,
      "pity": 6521,
      "zu": 6522,
      "charged": 6523,
      "ashed": 6524,
      "iowa": 6525,
      "1981": 6526,
      "pretend": 6527,
      "millions": 6528,
      "fairy": 6529,
      "respond": 6530,
      "principal": 6531,
      "amendment": 6532,
      "47": 6533,
      "gig": 6534,
      "asy": 6535,
      "mood": 6536,
      "conver": 6537,
      "proced": 6538,
      "ishing": 6539,
      "bron": 6540,
      "monday": 6541,
      "parish": 6542,
      "handsome": 6543,
      "stands": 6544,
      "1976": 6545,
      "flood": 6546,
      "hidden": 6547,
      "elizabeth": 6548,
      "49": 6549,
      "gul": 6550,
      "nin": 6551,
      "andy": 6552,
      "jewish": 6553,
      "rising": 6554,
      "squad": 6555,
      "concern": 6556,
      "suffering": 6557,
      "environmental": 6558,
      "bach": 6559,
      "jok": 6560,
      "lum": 6561,
      "ota": 6562,
      "gotten": 6563,
      "fili": 6564,
      "distur": 6565,
      "tropical": 6566,
      "screw": 6567,
      "techni": 6568,
      "suffered": 6569,
      "ziggler": 6570,
      "sink": 6571,
      "ume": 6572,
      "roger": 6573,
      "cooper": 6574,
      "pered": 6575,
      "feather": 6576,
      "marg": 6577,
      "overall": 6578,
      "tale": 6579,
      "merry": 6580,
      "towns": 6581,
      "heavi": 6582,
      "(;": 6583,
      "alous": 6584,
      "gods": 6585,
      "user": 6586,
      "poet": 6587,
      "prose": 6588,
      "display": 6589,
      "handed": 6590,
      "earned": 6591,
      "voy": 6592,
      "literally": 6593,
      "nominated": 6594,
      "wrestling": 6595,
      "revenge": 6596,
      "circumstances": 6597,
      "ae": 6598,
      "rd": 6599,
      "atmo": 6600,
      "colo": 6601,
      "acce": 6602,
      "plastic": 6603,
      "plement": 6604,
      "bug": 6605,
      "compon": 6606,
      "johnny": 6607,
      "1971": 6608,
      "eighty": 6609,
      "touched": 6610,
      "decisions": 6611,
      "detective": 6612,
      "jar": 6613,
      "wars": 6614,
      "goo": 6615,
      "kel": 6616,
      "tiger": 6617,
      "ette": 6618,
      "attended": 6619,
      "survive": 6620,
      "1985": 6621,
      "discovery": 6622,
      "asian": 6623,
      "edition": 6624,
      "finds": 6625,
      "180": 6626,
      "danny": 6627,
      "industrial": 6628,
      "wealth": 6629,
      "swal": 6630,
      "wag": 6631,
      "eras": 6632,
      "adult": 6633,
      "shri": 6634,
      "sale": 6635,
      "cultural": 6636,
      "hou": 6637,
      "wished": 6638,
      "aman": 6639,
      "fled": 6640,
      "truly": 6641,
      "pale": 6642,
      "thrown": 6643,
      "phas": 6644,
      "toms": 6645,
      "phr": 6646,
      "cheek": 6647,
      "regis": 6648,
      "dawn": 6649,
      "garage": 6650,
      "brig": 6651,
      "eighteen": 6652,
      "recognize": 6653,
      "existence": 6654,
      "46": 6655,
      "bones": 6656,
      "sne": 6657,
      "xon": 6658,
      "insp": 6659,
      "argu": 6660,
      "chess": 6661,
      "intended": 6662,
      "breast": 6663,
      "solved": 6664,
      "sentence": 6665,
      "speaker": 6666,
      "depends": 6667,
      "nurse": 6668,
      "challeng": 6669,
      "deputy": 6670,
      "suicide": 6671,
      "400": 6672,
      "assa": 6673,
      "noted": 6674,
      "igno": 6675,
      "berlin": 6676,
      "shortly": 6677,
      "recognized": 6678,
      "sufficient": 6679,
      "refused": 6680,
      "bust": 6681,
      "stir": 6682,
      "ulate": 6683,
      "whoever": 6684,
      "prefect": 6685,
      "creating": 6686,
      "zealand": 6687,
      "1978": 6688,
      "radi": 6689,
      "prepare": 6690,
      "beneath": 6691,
      "pants": 6692,
      "infl": 6693,
      "icking": 6694,
      "webs": 6695,
      "unable": 6696,
      "nights": 6697,
      "males": 6698,
      "legend": 6699,
      "milton": 6700,
      "combination": 6701,
      "nuts": 6702,
      "gian": 6703,
      "alli": 6704,
      "whist": 6705,
      "rode": 6706,
      "tip": 6707,
      "burst": 6708,
      "nearby": 6709,
      "domestic": 6710,
      "wounded": 6711,
      "scholar": 6712,
      "unfortunately": 6713,
      "mathemat": 6714,
      "jr": 6715,
      "reference": 6716,
      "enem": 6717,
      "weigh": 6718,
      "actors": 6719,
      "dozen": 6720,
      "shh": 6721,
      "tort": 6722,
      "elements": 6723,
      "pointed": 6724,
      "obvious": 6725,
      "buying": 6726,
      "fishing": 6727,
      "impact": 6728,
      "repeated": 6729,
      "envelo": 6730,
      "odes": 6731,
      "painted": 6732,
      "arrang": 6733,
      "random": 6734,
      "juni": 6735,
      "kish": 6736,
      "ario": 6737,
      "stress": 6738,
      "adel": 6739,
      "gee": 6740,
      "monster": 6741,
      "efforts": 6742,
      "equals": 6743,
      "hydro": 6744,
      "programme": 6745,
      "gardens": 6746,
      "fc": 6747,
      "toi": 6748,
      "alpha": 6749,
      "romantic": 6750,
      "spending": 6751,
      "counts": 6752,
      "underground": 6753,
      "symp": 6754,
      "eleph": 6755,
      "lane": 6756,
      "1970": 6757,
      "darkness": 6758,
      "statistics": 6759,
      "powder": 6760,
      "selected": 6761,
      "snake": 6762,
      "cotton": 6763,
      "swimming": 6764,
      "regre": 6765,
      "eding": 6766,
      "iding": 6767,
      "ented": 6768,
      "creation": 6769,
      "treasure": 6770,
      "1964": 6771,
      "doctors": 6772,
      "twist": 6773,
      "romanized": 6774,
      "properly": 6775,
      "dedic": 6776,
      "folks": 6777,
      "discipl": 6778,
      "brilliant": 6779,
      "wand": 6780,
      "poem": 6781,
      "aki": 6782,
      "shook": 6783,
      "charlie": 6784,
      "burning": 6785,
      "marked": 6786,
      "stadium": 6787,
      "advanced": 6788,
      "owe": 6789,
      "retire": 6790,
      "ained": 6791,
      "gging": 6792,
      "1975": 6793,
      "reports": 6794,
      "cruel": 6795,
      "zoo": 6796,
      "historic": 6797,
      "investigation": 6798,
      "complicated": 6799,
      "55": 6800,
      "dread": 6801,
      "pour": 6802,
      "stab": 6803,
      "moves": 6804,
      "vio": 6805,
      "gery": 6806,
      "attitude": 6807,
      "values": 6808,
      "walter": 6809,
      "sites": 6810,
      "importance": 6811,
      "sorts": 6812,
      "organiz": 6813,
      "explained": 6814,
      "appointment": 6815,
      "vietnam": 6816,
      "lonely": 6817,
      "vas": 6818,
      "rear": 6819,
      "perman": 6820,
      "cler": 6821,
      "borrow": 6822,
      "continues": 6823,
      "annual": 6824,
      "ridge": 6825,
      "kentucky": 6826,
      "cd": 6827,
      "nay": 6828,
      "lecture": 6829,
      "rol": 6830,
      "mod": 6831,
      "compound": 6832,
      "aircraft": 6833,
      "scat": 6834,
      "insist": 6835,
      "dealing": 6836,
      "organized": 6837,
      "horrible": 6838,
      "enemies": 6839,
      "rilla": 6840,
      "launch": 6841,
      "colors": 6842,
      "mister": 6843,
      "bitter": 6844,
      "goddess": 6845,
      "initi": 6846,
      "referred": 6847,
      "citizens": 6848,
      "secure": 6849,
      "41": 6850,
      "degre": 6851,
      "mann": 6852,
      "committed": 6853,
      "1974": 6854,
      "kilo": 6855,
      "slide": 6856,
      "degrees": 6857,
      "sally": 6858,
      "trap": 6859,
      "saving": 6860,
      "sages": 6861,
      "inet": 6862,
      "1972": 6863,
      "1973": 6864,
      "capable": 6865,
      "stronger": 6866,
      "reviews": 6867,
      "congratulations": 6868,
      "attor": 6869,
      "toy": 6870,
      "ingu": 6871,
      "heim": 6872,
      "leon": 6873,
      "seas": 6874,
      "ici": 6875,
      "clay": 6876,
      "simon": 6877,
      "1969": 6878,
      "pipe": 6879,
      "budd": 6880,
      "application": 6881,
      "cers": 6882,
      "gie": 6883,
      "hut": 6884,
      "matt": 6885,
      "bean": 6886,
      "deter": 6887,
      "convin": 6888,
      "hired": 6889,
      "funeral": 6890,
      "1983": 6891,
      "cooking": 6892,
      "belongs": 6893,
      "andrew": 6894,
      "ridiculous": 6895,
      "95": 6896,
      "avi": 6897,
      "boats": 6898,
      "physics": 6899,
      "restaurant": 6900,
      "patch": 6901,
      "lily": 6902,
      "aine": 6903,
      "describe": 6904,
      "tools": 6905,
      "mazra": 6906,
      "theme": 6907,
      "rod": 6908,
      "gel": 6909,
      "histori": 6910,
      "composed": 6911,
      "20th": 6912,
      "sip": 6913,
      "positions": 6914,
      "150": 6915,
      "mirror": 6916,
      "tracks": 6917,
      "critics": 6918,
      "francisco": 6919,
      "42": 6920,
      "mist": 6921,
      "anth": 6922,
      "holes": 6923,
      "tram": 6924,
      "stole": 6925,
      "premi": 6926,
      "creature": 6927,
      "communities": 6928,
      "purple": 6929,
      "ruled": 6930,
      "satisfied": 6931,
      "scarce": 6932,
      "mazraeh": 6933,
      "\"),": 6934,
      "ote": 6935,
      "rating": 6936,
      "infin": 6937,
      "ching": 6938,
      "neut": 6939,
      "saur": 6940,
      "waves": 6941,
      "talks": 6942,
      "obli": 6943,
      "volun": 6944,
      "badly": 6945,
      "horn": 6946,
      "switzer": 6947,
      "memorial": 6948,
      "fantastic": 6949,
      "fisher": 6950,
      "mates": 6951,
      "esh": 6952,
      "bec": 6953,
      "cole": 6954,
      "ila": 6955,
      "shell": 6956,
      "cert": 6957,
      "athlet": 6958,
      "relations": 6959,
      "servant": 6960,
      "factor": 6961,
      "1960": 6962,
      "equip": 6963,
      "roads": 6964,
      "fasc": 6965,
      "md": 6966,
      "santa": 6967,
      "toys": 6968,
      "gosh": 6969,
      "shopping": 6970,
      "jealous": 6971,
      "balance": 6972,
      "fleet": 6973,
      "instrument": 6974,
      "inspector": 6975,
      "bage": 6976,
      "income": 6977,
      "beating": 6978,
      "rig": 6979,
      "impress": 6980,
      "tives": 6981,
      "label": 6982,
      "typical": 6983,
      "normand": 6984,
      "fuel": 6985,
      "jected": 6986,
      "babies": 6987,
      "elect": 6988,
      "personally": 6989,
      "basse": 6990,
      "palm": 6991,
      "swing": 6992,
      "trained": 6993,
      "swim": 6994,
      "egypt": 6995,
      "switzerland": 6996,
      "1st": 6997,
      "lest": 6998,
      "shift": 6999,
      "bern": 7000,
      "subsequ": 7001,
      "checked": 7002,
      "splend": 7003,
      "nuclear": 7004,
      "boun": 7005,
      "jin": 7006,
      "rin": 7007,
      "thum": 7008,
      "reput": 7009,
      "encies": 7010,
      "herit": 7011,
      "maker": 7012,
      "1930": 7013,
      "fron": 7014,
      "calva": 7015,
      "goddamn": 7016,
      "driven": 7017,
      "michel": 7018,
      "bike": 7019,
      "operating": 7020,
      "applied": 7021,
      "potential": 7022,
      "ticket": 7023,
      "papa": 7024,
      "imperial": 7025,
      "bou": 7026,
      "theater": 7027,
      "neu": 7028,
      "ulated": 7029,
      "math": 7030,
      "betty": 7031,
      "mmm": 7032,
      "destru": 7033,
      "hunt": 7034,
      "1970s": 7035,
      "emplo": 7036,
      "exciting": 7037,
      "controlled": 7038,
      "crossing": 7039,
      "germans": 7040,
      "dollar": 7041,
      "oxford": 7042,
      "elimin": 7043,
      "appropriate": 7044,
      "calvados": 7045,
      "sly": 7046,
      "vul": 7047,
      "attr": 7048,
      "ares": 7049,
      "impression": 7050,
      "urally": 7051,
      "tric": 7052,
      "compar": 7053,
      "emma": 7054,
      "desk": 7055,
      "identity": 7056,
      "ministry": 7057,
      "honestly": 7058,
      "analy": 7059,
      "alternative": 7060,
      "website": 7061,
      "fans": 7062,
      "nas": 7063,
      "pus": 7064,
      "rho": 7065,
      "asion": 7066,
      "hem": 7067,
      "leaf": 7068,
      "accur": 7069,
      "decor": 7070,
      "singles": 7071,
      "mighty": 7072,
      "volume": 7073,
      "metres": 7074,
      "classic": 7075,
      "1968": 7076,
      "crook": 7077,
      "stephen": 7078,
      "rag": 7079,
      "uries": 7080,
      "iments": 7081,
      "howard": 7082,
      "lav": 7083,
      "counting": 7084,
      "stranger": 7085,
      "shoe": 7086,
      "harmon": 7087,
      "ladder": 7088,
      "miller": 7089,
      "hearts": 7090,
      "presidential": 7091,
      "frightened": 7092,
      "conservative": 7093,
      "adventure": 7094,
      "numerous": 7095,
      "atmosphere": 7096,
      "dge": 7097,
      "superi": 7098,
      "plum": 7099,
      "grate": 7100,
      "apply": 7101,
      "hypo": 7102,
      "massive": 7103,
      "enjoyed": 7104,
      "expert": 7105,
      "approximately": 7106,
      "erasmus": 7107,
      "bam": 7108,
      "lis": 7109,
      "lung": 7110,
      "alt": 7111,
      "nod": 7112,
      "liar": 7113,
      "iring": 7114,
      "shine": 7115,
      "rescue": 7116,
      "dynasty": 7117,
      "tons": 7118,
      "surren": 7119,
      "cutting": 7120,
      "vices": 7121,
      "figured": 7122,
      "porter": 7123,
      "titles": 7124,
      "conduct": 7125,
      "instructions": 7126,
      "affected": 7127,
      "paralle": 7128,
      "acceler": 7129,
      "equipment": 7130,
      "gir": 7131,
      "jess": 7132,
      "stall": 7133,
      "proto": 7134,
      "woke": 7135,
      "ception": 7136,
      "distingu": 7137,
      "1963": 7138,
      "sending": 7139,
      "cart": 7140,
      "oliver": 7141,
      "sig": 7142,
      "toast": 7143,
      "ora": 7144,
      "stable": 7145,
      "tians": 7146,
      "acks": 7147,
      "poses": 7148,
      "visited": 7149,
      "vocal": 7150,
      "voices": 7151,
      "fourteen": 7152,
      "adding": 7153,
      "bible": 7154,
      "pilot": 7155,
      "investment": 7156,
      "65": 7157,
      "pages": 7158,
      "tick": 7159,
      "caped": 7160,
      "pled": 7161,
      "agues": 7162,
      "buzz": 7163,
      "spell": 7164,
      "1977": 7165,
      "closely": 7166,
      "confidence": 7167,
      "device": 7168,
      "vehicle": 7169,
      "convention": 7170,
      "victoria": 7171,
      "margaret": 7172,
      "bbc": 7173,
      "gies": 7174,
      "orph": 7175,
      "eddie": 7176,
      "permission": 7177,
      "blast": 7178,
      "buff": 7179,
      "puzz": 7180,
      "cham": 7181,
      "identify": 7182,
      "possibility": 7183,
      "capture": 7184,
      "suffer": 7185,
      "alexander": 7186,
      "graduate": 7187,
      "scratch": 7188,
      "delicious": 7189,
      "pregnant": 7190,
      "ule": 7191,
      "covers": 7192,
      "ahmad": 7193,
      "indians": 7194,
      "nap": 7195,
      "clothing": 7196,
      "crap": 7197,
      "ternal": 7198,
      "machines": 7199,
      "sources": 7200,
      "georgia": 7201,
      "dino": 7202,
      "pts": 7203,
      "yon": 7204,
      "noble": 7205,
      "entrance": 7206,
      "delive": 7207,
      "shr": 7208,
      "naked": 7209,
      "marie": 7210,
      "pride": 7211,
      "meanwhile": 7212,
      "1945": 7213,
      "instant": 7214,
      "circu": 7215,
      "banks": 7216,
      "prisoners": 7217,
      "breathe": 7218,
      "intelligence": 7219,
      "diamond": 7220,
      "defeat": 7221,
      "notable": 7222,
      "engage": 7223,
      "genet": 7224,
      "confused": 7225,
      "separated": 7226,
      "cabin": 7227,
      "bathroom": 7228,
      "victims": 7229,
      "nathaniel": 7230,
      ".)": 7231,
      "kyo": 7232,
      "disney": 7233,
      "phones": 7234,
      "surgery": 7235,
      "blocks": 7236,
      "sixteen": 7237,
      "horror": 7238,
      "drinks": 7239,
      "initially": 7240,
      "liquid": 7241,
      "astron": 7242,
      "conflict": 7243,
      "attorney": 7244,
      "gus": 7245,
      "mant": 7246,
      "mouse": 7247,
      "cops": 7248,
      "tile": 7249,
      "compo": 7250,
      "bers": 7251,
      "disput": 7252,
      "phen": 7253,
      "centuries": 7254,
      "pens": 7255,
      "1967": 7256,
      "jacob": 7257,
      "install": 7258,
      "murdered": 7259,
      "issued": 7260,
      "authorities": 7261,
      "oxy": 7262,
      "adopted": 7263,
      "corporation": 7264,
      "neighborhood": 7265,
      "guests": 7266,
      "junior": 7267,
      "!'": 7268,
      "iro": 7269,
      "injury": 7270,
      "reward": 7271,
      "goti": 7272,
      "agents": 7273,
      "berry": 7274,
      "asks": 7275,
      "naturally": 7276,
      "studying": 7277,
      "necessarily": 7278,
      "korean": 7279,
      "succeeded": 7280,
      "civili": 7281,
      "skills": 7282,
      "scenes": 7283,
      "fiction": 7284,
      "gap": 7285,
      "nint": 7286,
      "yum": 7287,
      "remove": 7288,
      "returning": 7289,
      "ays": 7290,
      "unusual": 7291,
      "daisy": 7292,
      "earthqu": 7293,
      "greece": 7294,
      "columbia": 7295,
      "wilson": 7296,
      "jacket": 7297,
      "surrounded": 7298,
      "curious": 7299,
      "symptoms": 7300,
      "regret": 7301,
      "bie": 7302,
      "flies": 7303,
      "pra": 7304,
      "ugh": 7305,
      "belt": 7306,
      "shed": 7307,
      "wol": 7308,
      "pron": 7309,
      "versions": 7310,
      "stuart": 7311,
      "observed": 7312,
      "leads": 7313,
      "classical": 7314,
      "1944": 7315,
      "difficulty": 7316,
      "pushed": 7317,
      "combined": 7318,
      "revealed": 7319,
      "swallow": 7320,
      "editor": 7321,
      "wee": 7322,
      "brah": 7323,
      "warning": 7324,
      "1965": 7325,
      "defence": 7326,
      "slip": 7327,
      "assume": 7328,
      "seventeen": 7329,
      "breathing": 7330,
      "uel": 7331,
      "ww": 7332,
      "rip": 7333,
      "deli": 7334,
      "resto": 7335,
      "marine": 7336,
      "guaran": 7337,
      "stolen": 7338,
      "shoulders": 7339,
      "voc": 7340,
      "matthe": 7341,
      "musician": 7342,
      "1947": 7343,
      "engineer": 7344,
      "knocked": 7345,
      "methods": 7346,
      "architecture": 7347,
      "employe": 7348,
      "cular": 7349,
      "amo": 7350,
      "soup": 7351,
      "regions": 7352,
      "clause": 7353,
      "clubs": 7354,
      "banglad": 7355,
      "architect": 7356,
      "jumped": 7357,
      "inspired": 7358,
      "aa": 7359,
      "rust": 7360,
      "rog": 7361,
      "conven": 7362,
      "crush": 7363,
      "iously": 7364,
      "situ": 7365,
      "dumb": 7366,
      "maiden": 7367,
      "philip": 7368,
      "relief": 7369,
      "jur": 7370,
      "tched": 7371,
      "ugu": 7372,
      "thunder": 7373,
      "encour": 7374,
      "escaped": 7375,
      "bears": 7376,
      "betray": 7377,
      "goals": 7378,
      "negoti": 7379,
      "agger": 7380,
      "foss": 7381,
      "otto": 7382,
      "sensit": 7383,
      "avar": 7384,
      "views": 7385,
      "douglas": 7386,
      "controver": 7387,
      "videos": 7388,
      "provides": 7389,
      "individuals": 7390,
      "knees": 7391,
      "waters": 7392,
      "dash": 7393,
      "fles": 7394,
      "ias": 7395,
      "kha": 7396,
      "loo": 7397,
      "ads": 7398,
      "wanting": 7399,
      "disgust": 7400,
      "aud": 7401,
      "ruin": 7402,
      "lately": 7403,
      "deserve": 7404,
      "gained": 7405,
      "thurs": 7406,
      "yards": 7407,
      "argent": 7408,
      "sters": 7409,
      "geon": 7410,
      "nether": 7411,
      "sav": 7412,
      "explan": 7413,
      "bruce": 7414,
      "marily": 7415,
      "sooner": 7416,
      "properties": 7417,
      "index": 7418,
      "benefits": 7419,
      "recommend": 7420,
      "toilet": 7421,
      "nintendo": 7422,
      "bian": 7423,
      "batt": 7424,
      "obey": 7425,
      "vain": 7426,
      "arct": 7427,
      "leap": 7428,
      "allen": 7429,
      "depression": 7430,
      "cahedron": 7431,
      "regarded": 7432,
      "taiwan": 7433,
      "category": 7434,
      "accompl": 7435,
      "dates": 7436,
      "jung": 7437,
      "tender": 7438,
      "alleg": 7439,
      "dock": 7440,
      "letting": 7441,
      "opposed": 7442,
      "interests": 7443,
      "awes": 7444,
      "seventh": 7445,
      "washed": 7446,
      "remaining": 7447,
      "constit": 7448,
      "copies": 7449,
      "keeper": 7450,
      "inhabitants": 7451,
      "israel": 7452,
      "expedition": 7453,
      "google": 7454,
      "grateful": 7455,
      "cort": 7456,
      "lac": 7457,
      "ories": 7458,
      "rolled": 7459,
      "chand": 7460,
      "doc": 7461,
      "derer": 7462,
      "dynam": 7463,
      "polish": 7464,
      "gordon": 7465,
      "widely": 7466,
      "passage": 7467,
      "600": 7468,
      "gary": 7469,
      "enna": 7470,
      "ension": 7471,
      "urban": 7472,
      "confir": 7473,
      "bold": 7474,
      "donald": 7475,
      "essentially": 7476,
      "ideal": 7477,
      "assign": 7478,
      "minds": 7479,
      "thirteen": 7480,
      "pond": 7481,
      "nonsense": 7482,
      "quietly": 7483,
      "maximum": 7484,
      "objects": 7485,
      "demonstr": 7486,
      "stroke": 7487,
      "arranged": 7488,
      "superior": 7489,
      "hits": 7490,
      "tay": 7491,
      "vast": 7492,
      "recru": 7493,
      "itz": 7494,
      "rival": 7495,
      "hoped": 7496,
      "devices": 7497,
      "pee": 7498,
      "worship": 7499,
      "spite": 7500,
      "practical": 7501,
      "representatives": 7502,
      "boots": 7503,
      "sieur": 7504,
      "graduated": 7505,
      "43": 7506,
      "hart": 7507,
      "wreck": 7508,
      "loan": 7509,
      "trace": 7510,
      "sheet": 7511,
      "ppy": 7512,
      "guards": 7513,
      "stores": 7514,
      "muhammad": 7515,
      "elections": 7516,
      "drives": 7517,
      "grandfather": 7518,
      "pirates": 7519,
      "strategy": 7520,
      "normandie": 7521,
      "delivered": 7522,
      "oxygen": 7523,
      "98": 7524,
      "thief": 7525,
      "theo": 7526,
      "albert": 7527,
      "coordin": 7528,
      "dol": 7529,
      "hog": 7530,
      "cemeter": 7531,
      "aga": 7532,
      "1920": 7533,
      "clar": 7534,
      "items": 7535,
      "drown": 7536,
      "mystery": 7537,
      "reduced": 7538,
      "eager": 7539,
      "gates": 7540,
      "jing": 7541,
      "kay": 7542,
      "yd": 7543,
      "anno": 7544,
      "implement": 7545,
      "neil": 7546,
      "articles": 7547,
      "toronto": 7548,
      "intend": 7549,
      "brow": 7550,
      "otic": 7551,
      "lux": 7552,
      "communist": 7553,
      "profession": 7554,
      "telephone": 7555,
      "electricity": 7556,
      "ceremony": 7557,
      "phase": 7558,
      "xi": 7559,
      "οu": 7560,
      "chased": 7561,
      "entry": 7562,
      "imate": 7563,
      "catherine": 7564,
      "shu": 7565,
      "ressing": 7566,
      "answers": 7567,
      "mono": 7568,
      "uded": 7569,
      "morgan": 7570,
      "singapo": 7571,
      "founder": 7572,
      "struggle": 7573,
      "consists": 7574,
      "districts": 7575,
      "dunno": 7576,
      "repeat": 7577,
      "dramatic": 7578,
      "brazil": 7579,
      "prefecture": 7580,
      "thursday": 7581,
      "singapore": 7582,
      "gic": 7583,
      "sain": 7584,
      "revol": 7585,
      "itan": 7586,
      "moments": 7587,
      "debt": 7588,
      "tier": 7589,
      "sul": 7590,
      "worthy": 7591,
      "illness": 7592,
      "umes": 7593,
      "reduce": 7594,
      "grain": 7595,
      "frag": 7596,
      "barbar": 7597,
      "operated": 7598,
      "defined": 7599,
      "loaded": 7600,
      "discussion": 7601,
      "branches": 7602,
      "citizen": 7603,
      "valuable": 7604,
      "67": 7605,
      "option": 7606,
      "tues": 7607,
      "nowhere": 7608,
      "butt": 7609,
      "wherever": 7610,
      "headquarters": 7611,
      "register": 7612,
      "magn": 7613,
      "1941": 7614,
      "croat": 7615,
      "digital": 7616,
      "collap": 7617,
      "initial": 7618,
      "awesome": 7619,
      "bby": 7620,
      "dna": 7621,
      "dating": 7622,
      "jas": 7623,
      "kon": 7624,
      "ole": 7625,
      "bees": 7626,
      "kevin": 7627,
      "mini": 7628,
      "internal": 7629,
      "observ": 7630,
      "mercy": 7631,
      "alongside": 7632,
      "jazz": 7633,
      "daught": 7634,
      "slave": 7635,
      "diplo": 7636,
      "800": 7637,
      "indon": 7638,
      "haust": 7639,
      "kelly": 7640,
      "tear": 7641,
      "shield": 7642,
      "exhaust": 7643,
      "clou": 7644,
      "precise": 7645,
      "courts": 7646,
      "aska": 7647,
      "identified": 7648,
      "merchant": 7649,
      "1962": 7650,
      "equation": 7651,
      "politan": 7652,
      "albums": 7653,
      "wednes": 7654,
      "existing": 7655,
      "spiritual": 7656,
      "column": 7657,
      "granted": 7658,
      "efficient": 7659,
      "votes": 7660,
      "punishment": 7661,
      "avenue": 7662,
      "indones": 7663,
      "\"...": 7664,
      "tack": 7665,
      "lda": 7666,
      "lover": 7667,
      "loving": 7668,
      "allah": 7669,
      "cano": 7670,
      "sau": 7671,
      "persu": 7672,
      "partners": 7673,
      "stepped": 7674,
      "listened": 7675,
      "testing": 7676,
      "philadel": 7677,
      "pollution": 7678,
      "kissed": 7679,
      "composer": 7680,
      "cemetery": 7681,
      "daughters": 7682,
      "philadelphia": 7683,
      "ffe": 7684,
      "sought": 7685,
      "tren": 7686,
      "rolling": 7687,
      "rivers": 7688,
      "cloud": 7689,
      "hire": 7690,
      "aka": 7691,
      "spective": 7692,
      "persons": 7693,
      "collabor": 7694,
      "promoted": 7695,
      "diagno": 7696,
      "abandoned": 7697,
      "eag": 7698,
      "iries": 7699,
      "jon": 7700,
      "amin": 7701,
      "useless": 7702,
      "margin": 7703,
      "norman": 7704,
      "gib": 7705,
      "childhood": 7706,
      "mato": 7707,
      "miami": 7708,
      "1980s": 7709,
      "1966": 7710,
      "murderer": 7711,
      "austria": 7712,
      "picking": 7713,
      "extended": 7714,
      "emotions": 7715,
      "dawson": 7716,
      "cattle": 7717,
      "piz": 7718,
      "soap": 7719,
      "dove": 7720,
      "uts": 7721,
      "images": 7722,
      "typ": 7723,
      "iao": 7724,
      "dull": 7725,
      "syd": 7726,
      "cloth": 7727,
      "polic": 7728,
      "attacks": 7729,
      "winds": 7730,
      "educational": 7731,
      "meetings": 7732,
      "forests": 7733,
      "bags": 7734,
      "bourne": 7735,
      "heavily": 7736,
      "enor": 7737,
      "beck": 7738,
      "illegal": 7739,
      "whereas": 7740,
      "mistry": 7741,
      "smiling": 7742,
      "charges": 7743,
      "bedroom": 7744,
      "presently": 7745,
      "patri": 7746,
      "reasonable": 7747,
      "cleaning": 7748,
      "employment": 7749,
      "wicked": 7750,
      "merely": 7751,
      "philipp": 7752,
      "candidate": 7753,
      "precious": 7754,
      "technical": 7755,
      "splendid": 7756,
      "fried": 7757,
      "vard": 7758,
      "stim": 7759,
      "depos": 7760,
      "wayne": 7761,
      "counsel": 7762,
      "shops": 7763,
      "personality": 7764,
      "skir": 7765,
      "amongst": 7766,
      "experienced": 7767,
      "expecting": 7768,
      "sweden": 7769,
      "85": 7770,
      "dict": 7771,
      "gum": 7772,
      "ng": 7773,
      "nh": 7774,
      "pil": 7775,
      "error": 7776,
      "whit": 7777,
      "ghan": 7778,
      "hoo": 7779,
      "crete": 7780,
      "earn": 7781,
      "hunter": 7782,
      "scored": 7783,
      "collected": 7784,
      "freak": 7785,
      "1954": 7786,
      "session": 7787,
      "climb": 7788,
      "mexican": 7789,
      "iraq": 7790,
      "aisne": 7791,
      "97": 7792,
      "ala": 7793,
      "begun": 7794,
      "rober": 7795,
      "neat": 7796,
      "izes": 7797,
      "finn": 7798,
      "lotte": 7799,
      "friendship": 7800,
      "compass": 7801,
      "faction": 7802,
      "continent": 7803,
      "allowing": 7804,
      "description": 7805,
      "projects": 7806,
      "sympa": 7807,
      "lifted": 7808,
      "elephant": 7809,
      "dated": 7810,
      "dump": 7811,
      "fond": 7812,
      "punch": 7813,
      "aro": 7814,
      "hore": 7815,
      "laim": 7816,
      "clark": 7817,
      "stops": 7818,
      "preced": 7819,
      "monarch": 7820,
      "format": 7821,
      "iana": 7822,
      "gathered": 7823,
      "standards": 7824,
      "chemistry": 7825,
      "regiment": 7826,
      "elev": 7827,
      "distinct": 7828,
      "invasion": 7829,
      "crystal": 7830,
      "stretch": 7831,
      "violent": 7832,
      "occupied": 7833,
      "creek": 7834,
      "ashamed": 7835,
      "cass": 7836,
      "pse": 7837,
      "sper": 7838,
      "thread": 7839,
      "sailed": 7840,
      "pulling": 7841,
      "glor": 7842,
      "villages": 7843,
      "beaten": 7844,
      "claims": 7845,
      "optim": 7846,
      "models": 7847,
      "behavior": 7848,
      "wednesday": 7849,
      "bil": 7850,
      "eco": 7851,
      "vacc": 7852,
      "incorpor": 7853,
      "isk": 7854,
      "ardie": 7855,
      "divine": 7856,
      "disappear": 7857,
      "carriage": 7858,
      "formal": 7859,
      "muslim": 7860,
      "messages": 7861,
      "writers": 7862,
      "1956": 7863,
      "laughs": 7864,
      "intellect": 7865,
      "hatch": 7866,
      "adults": 7867,
      "una": 7868,
      "uss": 7869,
      "naz": 7870,
      "strang": 7871,
      "finance": 7872,
      "1990s": 7873,
      "merged": 7874,
      "passes": 7875,
      "reaching": 7876,
      "gently": 7877,
      "confident": 7878,
      "latest": 7879,
      "pirate": 7880,
      "capacity": 7881,
      "tuesday": 7882,
      "86": 7883,
      "hence": 7884,
      "jab": 7885,
      "retain": 7886,
      "ales": 7887,
      "altogether": 7888,
      "extr": 7889,
      "corps": 7890,
      "throne": 7891,
      "smiled": 7892,
      "survey": 7893,
      "universities": 7894,
      "spoon": 7895,
      "approved": 7896,
      "parent": 7897,
      "smooth": 7898,
      "racing": 7899,
      "introduce": 7900,
      "lords": 7901,
      "faithful": 7902,
      "awake": 7903,
      "iest": 7904,
      "kra": 7905,
      "seats": 7906,
      "hawa": 7907,
      "chim": 7908,
      "causing": 7909,
      "comic": 7910,
      "item": 7911,
      "landed": 7912,
      "shaw": 7913,
      "luke": 7914,
      "linear": 7915,
      "fier": 7916,
      "bai": 7917,
      "1960s": 7918,
      "hopefully": 7919,
      "churches": 7920,
      "1952": 7921,
      "cookie": 7922,
      "subjects": 7923,
      "emotional": 7924,
      "convinced": 7925,
      "anthony": 7926,
      "hated": 7927,
      "kil": 7928,
      "arc": 7929,
      "loop": 7930,
      "absor": 7931,
      "cave": 7932,
      "raph": 7933,
      "monsieur": 7934,
      "strict": 7935,
      "differences": 7936,
      "glory": 7937,
      "barn": 7938,
      "grapher": 7939,
      "patrick": 7940,
      "sung": 7941,
      "starred": 7942,
      "institution": 7943,
      "fifa": 7944,
      "screaming": 7945,
      "experiences": 7946,
      "documents": 7947,
      "reserve": 7948,
      "desperate": 7949,
      "ere": 7950,
      "nah": 7951,
      "pitt": 7952,
      "pump": 7953,
      "yay": 7954,
      "issa": 7955,
      "femin": 7956,
      "cakes": 7957,
      "spy": 7958,
      "tomb": 7959,
      "supporting": 7960,
      "photos": 7961,
      "campbell": 7962,
      "swift": 7963,
      "newspapers": 7964,
      "distribution": 7965,
      "narrator": 7966,
      "envelope": 7967,
      "matthew": 7968,
      "83": 7969,
      "89": 7970,
      "bars": 7971,
      "cure": 7972,
      "kas": 7973,
      "rics": 7974,
      "theless": 7975,
      "encourage": 7976,
      "andro": 7977,
      "archa": 7978,
      "liga": 7979,
      "partly": 7980,
      "beings": 7981,
      "curren": 7982,
      "probability": 7983,
      "virus": 7984,
      "thorough": 7985,
      "cells": 7986,
      "championships": 7987,
      "bacter": 7988,
      "sacred": 7989,
      "threatened": 7990,
      "invented": 7991,
      "incredible": 7992,
      "permanent": 7993,
      "cough": 7994,
      "semi": 7995,
      "hare": 7996,
      "rio": 7997,
      "foc": 7998,
      "clin": 7999,
      "polis": 8000,
      "lessly": 8001,
      "scand": 8002,
      "lucy": 8003,
      "tests": 8004,
      "developing": 8005,
      "computers": 8006,
      "sandy": 8007,
      "companion": 8008,
      "joining": 8009,
      "episodes": 8010,
      "regarding": 8011,
      "resource": 8012,
      "frequently": 8013,
      "printed": 8014,
      "dedicated": 8015,
      "volunte": 8016,
      "reputation": 8017,
      "gif": 8018,
      "kn": 8019,
      "karen": 8020,
      "dot": 8021,
      "whoops": 8022,
      "lesson": 8023,
      "ulture": 8024,
      "consid": 8025,
      "exclaim": 8026,
      "1958": 8027,
      "protected": 8028,
      "christians": 8029,
      "enterpr": 8030,
      "picardie": 8031,
      "jerry": 8032,
      "exercise": 8033,
      "hollywood": 8034,
      "netherlands": 8035,
      "57": 8036,
      "scan": 8037,
      "ón": 8038,
      "isol": 8039,
      "armen": 8040,
      "vet": 8041,
      "oted": 8042,
      "heading": 8043,
      "worldwide": 8044,
      "ctively": 8045,
      "romania": 8046,
      "possession": 8047,
      "parallel": 8048,
      "'?": 8049,
      "cine": 8050,
      "mour": 8051,
      "mack": 8052,
      "nun": 8053,
      "omin": 8054,
      "steven": 8055,
      "sector": 8056,
      "unhappy": 8057,
      "context": 8058,
      "cathe": 8059,
      "compos": 8060,
      "naval": 8061,
      "downstairs": 8062,
      "shower": 8063,
      "1961": 8064,
      "purposes": 8065,
      "largely": 8066,
      "1948": 8067,
      "depending": 8068,
      "potato": 8069,
      "sweethe": 8070,
      "slyne": 8071,
      "typically": 8072,
      "rix": 8073,
      "moz": 8074,
      "uled": 8075,
      "prophe": 8076,
      "intent": 8077,
      "penny": 8078,
      "miser": 8079,
      "shots": 8080,
      "hurts": 8081,
      "stern": 8082,
      "grandpa": 8083,
      "straw": 8084,
      "covering": 8085,
      "frozen": 8086,
      "throwing": 8087,
      "campus": 8088,
      "hosted": 8089,
      "journalist": 8090,
      "confirmed": 8091,
      "abe": 8092,
      "wu": 8093,
      "reign": 8094,
      "stam": 8095,
      "roots": 8096,
      "idge": 8097,
      "subur": 8098,
      "fake": 8099,
      "creative": 8100,
      "closing": 8101,
      "founding": 8102,
      "distant": 8103,
      "spirits": 8104,
      "memories": 8105,
      "olympic": 8106,
      "yi": 8107,
      "inse": 8108,
      "anni": 8109,
      "deh": 8110,
      "pear": 8111,
      "southeast": 8112,
      "ashes": 8113,
      "judy": 8114,
      "avan": 8115,
      "eases": 8116,
      "promin": 8117,
      "tickets": 8118,
      "electronic": 8119,
      "medium": 8120,
      "reveal": 8121,
      "injured": 8122,
      "passengers": 8123,
      "istol": 8124,
      "scheme": 8125,
      "rhyth": 8126,
      "phrase": 8127,
      "2nd": 8128,
      "bend": 8129,
      "fid": 8130,
      "jord": 8131,
      "lrb": 8132,
      "tos": 8133,
      "ortho": 8134,
      "neath": 8135,
      "users": 8136,
      "fee": 8137,
      "shif": 8138,
      "ultural": 8139,
      "brut": 8140,
      "renamed": 8141,
      "choo": 8142,
      "alien": 8143,
      "wounds": 8144,
      "employed": 8145,
      "mysterious": 8146,
      "bry": 8147,
      "ckets": 8148,
      "evol": 8149,
      "eigh": 8150,
      "rrb": 8151,
      "edi": 8152,
      "edin": 8153,
      "arse": 8154,
      "hears": 8155,
      "outs": 8156,
      "consum": 8157,
      "...!": 8158,
      "quer": 8159,
      "ignor": 8160,
      "offering": 8161,
      "newly": 8162,
      "blank": 8163,
      "backs": 8164,
      "carl": 8165,
      "genus": 8166,
      "hugh": 8167,
      "logists": 8168,
      "producing": 8169,
      "crimes": 8170,
      "thesis": 8171,
      "cabinet": 8172,
      "license": 8173,
      "opportunities": 8174,
      "specifically": 8175,
      "wheels": 8176,
      "exhibition": 8177,
      "premier": 8178,
      "lisa": 8179,
      "pis": 8180,
      "scor": 8181,
      "vant": 8182,
      "chip": 8183,
      "cod": 8184,
      "lims": 8185,
      "admitted": 8186,
      "sailing": 8187,
      "agers": 8188,
      "wax": 8189,
      "missou": 8190,
      "visual": 8191,
      "distin": 8192,
      "bald": 8193,
      "animated": 8194,
      "1942": 8195,
      "bills": 8196,
      "contained": 8197,
      "literary": 8198,
      "constructed": 8199,
      "platforms": 8200,
      "liberty": 8201,
      "ethnic": 8202,
      "vacation": 8203,
      "bubble": 8204,
      "passenger": 8205,
      "organizations": 8206,
      "sydney": 8207,
      "96": 8208,
      "gross": 8209,
      "ike": 8210,
      "lers": 8211,
      "uous": 8212,
      "iser": 8213,
      "ende": 8214,
      "algor": 8215,
      "modif": 8216,
      "enda": 8217,
      "diseases": 8218,
      "northeast": 8219,
      "gerald": 8220,
      "valid": 8221,
      "glen": 8222,
      "malay": 8223,
      "servants": 8224,
      "squir": 8225,
      "1943": 8226,
      "christop": 8227,
      "titled": 8228,
      "privile": 8229,
      "globe": 8230,
      "evident": 8231,
      "extent": 8232,
      "debate": 8233,
      "crisis": 8234,
      "pronoun": 8235,
      "policies": 8236,
      "missouri": 8237,
      "airl": 8238,
      "bren": 8239,
      "ego": 8240,
      "pine": 8241,
      "inner": 8242,
      "ico": 8243,
      "beans": 8244,
      "trunk": 8245,
      "offers": 8246,
      "inton": 8247,
      "gravity": 8248,
      "ruined": 8249,
      "yoon": 8250,
      "duties": 8251,
      "taxes": 8252,
      "slipped": 8253,
      "bubbles": 8254,
      "gill": 8255,
      "nag": 8256,
      "recur": 8257,
      "hers": 8258,
      "dont": 8259,
      "clare": 8260,
      "monkey": 8261,
      "intense": 8262,
      "boring": 8263,
      "visitors": 8264,
      "primarily": 8265,
      "fires": 8266,
      "youngest": 8267,
      "starring": 8268,
      "sciences": 8269,
      "involve": 8270,
      "definition": 8271,
      "housing": 8272,
      "administrative": 8273,
      "robinson": 8274,
      "admiral": 8275,
      "explanation": 8276,
      "bavar": 8277,
      "dign": 8278,
      "ining": 8279,
      "anced": 8280,
      "argue": 8281,
      "stack": 8282,
      "beard": 8283,
      "goat": 8284,
      "lime": 8285,
      "fever": 8286,
      "tap": 8287,
      "inda": 8288,
      "affili": 8289,
      "blew": 8290,
      "creatures": 8291,
      "fulness": 8292,
      "shaped": 8293,
      "hungar": 8294,
      "luther": 8295,
      "struggl": 8296,
      "excite": 8297,
      "1950": 8298,
      "shiv": 8299,
      "speaks": 8300,
      "successfully": 8301,
      "graphic": 8302,
      "representative": 8303,
      "selection": 8304,
      "principle": 8305,
      "roughly": 8306,
      "circuit": 8307,
      "sensitive": 8308,
      "zon": 8309,
      "tolo": 8310,
      "rollo": 8311,
      "wig": 8312,
      "adm": 8313,
      "abol": 8314,
      "motiv": 8315,
      "pei": 8316,
      "feld": 8317,
      "shan": 8318,
      "aston": 8319,
      "vessels": 8320,
      "underneath": 8321,
      "engines": 8322,
      "wondered": 8323,
      "genius": 8324,
      "jews": 8325,
      "clown": 8326,
      "warri": 8327,
      "sorrow": 8328,
      "midnight": 8329,
      "emphas": 8330,
      "wooden": 8331,
      "1946": 8332,
      "1959": 8333,
      "constantly": 8334,
      "select": 8335,
      "dimension": 8336,
      "lization": 8337,
      "widow": 8338,
      "apologize": 8339,
      "3rd": 8340,
      "athe": 8341,
      "tokyo": 8342,
      "icing": 8343,
      "abilities": 8344,
      "peas": 8345,
      "traged": 8346,
      "ulties": 8347,
      "guer": 8348,
      "assigned": 8349,
      "storage": 8350,
      "scary": 8351,
      "planes": 8352,
      "opposition": 8353,
      "1949": 8354,
      "strongly": 8355,
      "gradually": 8356,
      "accused": 8357,
      "acquired": 8358,
      "prayer": 8359,
      "occasionally": 8360,
      "harrison": 8361,
      "bilities": 8362,
      "ethan": 8363,
      "pm": 8364,
      "rah": 8365,
      "tion": 8366,
      "homo": 8367,
      "molly": 8368,
      "cement": 8369,
      "plates": 8370,
      "respe": 8371,
      "worker": 8372,
      "triangle": 8373,
      "faculty": 8374,
      "victor": 8375,
      "aboard": 8376,
      "sample": 8377,
      "arrive": 8378,
      "compete": 8379,
      "principles": 8380,
      "relatively": 8381,
      "rapidly": 8382,
      "attached": 8383,
      "poetry": 8384,
      "66": 8385,
      "wart": 8386,
      "rena": 8387,
      "referen": 8388,
      "alum": 8389,
      "wives": 8390,
      "lio": 8391,
      "motive": 8392,
      "pover": 8393,
      "ifu": 8394,
      "whoo": 8395,
      "raven": 8396,
      "brick": 8397,
      "spill": 8398,
      "turkish": 8399,
      "tenance": 8400,
      "kinda": 8401,
      "curtain": 8402,
      "muslims": 8403,
      "facing": 8404,
      "wishes": 8405,
      "hitler": 8406,
      "panic": 8407,
      "concerns": 8408,
      "pairs": 8409,
      "whispered": 8410,
      "customers": 8411,
      "sweetheart": 8412,
      "algorith": 8413,
      "dwell": 8414,
      "ean": 8415,
      "allies": 8416,
      "begged": 8417,
      "dem": 8418,
      "pless": 8419,
      "umph": 8420,
      "dios": 8421,
      "serves": 8422,
      "longest": 8423,
      "steady": 8424,
      "arrival": 8425,
      "pushing": 8426,
      "treaty": 8427,
      "relationships": 8428,
      "loads": 8429,
      "knee": 8430,
      "destruction": 8431,
      "christopher": 8432,
      "gender": 8433,
      "vex": 8434,
      "amanda": 8435,
      "decre": 8436,
      "landing": 8437,
      "udes": 8438,
      "cray": 8439,
      "suppor": 8440,
      "austen": 8441,
      "franz": 8442,
      "recognition": 8443,
      "competed": 8444,
      "shining": 8445,
      "inary": 8446,
      "org": 8447,
      "acles": 8448,
      "perce": 8449,
      "divide": 8450,
      "interrup": 8451,
      "lasted": 8452,
      "glance": 8453,
      "skip": 8454,
      "deaths": 8455,
      "limits": 8456,
      "bond": 8457,
      "exception": 8458,
      "celebrated": 8459,
      "farmers": 8460,
      "jenny": 8461,
      "mbeh": 8462,
      "sheriff": 8463,
      "instruments": 8464,
      "extensive": 8465,
      "dinosaur": 8466,
      "archae": 8467,
      "tolombeh": 8468,
      "**": 8469,
      "77": 8470,
      "emotion": 8471,
      "rats": 8472,
      "ux": 8473,
      "zan": 8474,
      "thic": 8475,
      "reply": 8476,
      "alarm": 8477,
      "iry": 8478,
      "moore": 8479,
      "decent": 8480,
      "peep": 8481,
      "fetch": 8482,
      "ifer": 8483,
      "concrete": 8484,
      "plor": 8485,
      "springs": 8486,
      "sors": 8487,
      "ballo": 8488,
      "writes": 8489,
      "1940": 8490,
      "jackie": 8491,
      "formerly": 8492,
      "1938": 8493,
      "filling": 8494,
      "christianity": 8495,
      "extraordinary": 8496,
      "bunny": 8497,
      "survived": 8498,
      "paintings": 8499,
      "earthquake": 8500,
      "aah": 8501,
      "bure": 8502,
      "nt": 8503,
      "nfl": 8504,
      "seized": 8505,
      "peasant": 8506,
      "bom": 8507,
      "prob": 8508,
      "parad": 8509,
      "greatly": 8510,
      "officials": 8511,
      "searching": 8512,
      "mounted": 8513,
      "panama": 8514,
      "franklin": 8515,
      "candy": 8516,
      "economics": 8517,
      "academic": 8518,
      "remote": 8519,
      "aper": 8520,
      "fy": 8521,
      "hud": 8522,
      "jona": 8523,
      "pau": 8524,
      "uff": 8525,
      "wwe": 8526,
      "yield": 8527,
      "rez": 8528,
      "icia": 8529,
      "chal": 8530,
      "entit": 8531,
      "keen": 8532,
      "cage": 8533,
      "spaces": 8534,
      "tales": 8535,
      "intention": 8536,
      "lessons": 8537,
      "sounded": 8538,
      "cured": 8539,
      "instantly": 8540,
      "1955": 8541,
      "flee": 8542,
      "mummy": 8543,
      "execution": 8544,
      "distributed": 8545,
      "provinces": 8546,
      "violet": 8547,
      "dat": 8548,
      "fs": 8549,
      "kang": 8550,
      "pc": 8551,
      "yang": 8552,
      "aron": 8553,
      "wels": 8554,
      "cox": 8555,
      "abi": 8556,
      "grac": 8557,
      "aux": 8558,
      "helic": 8559,
      "opens": 8560,
      "1953": 8561,
      "champions": 8562,
      "romance": 8563,
      "deeply": 8564,
      "blowing": 8565,
      "axis": 8566,
      "nancy": 8567,
      "documentary": 8568,
      "sighs": 8569,
      "nearer": 8570,
      "iciency": 8571,
      "vable": 8572,
      "adjust": 8573,
      "naught": 8574,
      "asshole": 8575,
      "pton": 8576,
      "server": 8577,
      "lightning": 8578,
      "nik": 8579,
      "offices": 8580,
      "damaged": 8581,
      "1939": 8582,
      "prisoner": 8583,
      "yugo": 8584,
      "whisper": 8585,
      "reckon": 8586,
      "metropolitan": 8587,
      "taylor": 8588,
      "mild": 8589,
      "oi": 8590,
      "yl": 8591,
      "nope": 8592,
      "cows": 8593,
      "navig": 8594,
      "prices": 8595,
      "gregor": 8596,
      "everyday": 8597,
      "fundam": 8598,
      "larry": 8599,
      "madame": 8600,
      "delta": 8601,
      "rainbow": 8602,
      "battery": 8603,
      "grief": 8604,
      "frogs": 8605,
      "liberal": 8606,
      "achieved": 8607,
      "baker": 8608,
      "performing": 8609,
      "barely": 8610,
      "obtained": 8611,
      "jonathan": 8612,
      "4th": 8613,
      "aqu": 8614,
      "wright": 8615,
      "inspir": 8616,
      "trin": 8617,
      "marke": 8618,
      "ensity": 8619,
      "universal": 8620,
      "facilities": 8621,
      "amounts": 8622,
      "bobby": 8623,
      "municipal": 8624,
      "manufacture": 8625,
      "structures": 8626,
      "alliance": 8627,
      "88": 8628,
      "cad": 8629,
      "faint": 8630,
      "ological": 8631,
      "inal": 8632,
      "inches": 8633,
      "reagan": 8634,
      "toler": 8635,
      "arian": 8636,
      "holl": 8637,
      "pets": 8638,
      "assass": 8639,
      "para": 8640,
      "cheers": 8641,
      "household": 8642,
      "charlotte": 8643,
      "farther": 8644,
      "beds": 8645,
      "garbage": 8646,
      "prints": 8647,
      "troubles": 8648,
      "gorge": 8649,
      "educated": 8650,
      "grim": 8651,
      "strip": 8652,
      "militia": 8653,
      "linked": 8654,
      "taipei": 8655,
      "agricultural": 8656,
      "exclusive": 8657,
      "cathedr": 8658,
      "bb": 8659,
      "ffin": 8660,
      "mia": 8661,
      "lem": 8662,
      "seal": 8663,
      "solar": 8664,
      "dogg": 8665,
      "nett": 8666,
      "seeking": 8667,
      "sible": 8668,
      "talent": 8669,
      "akes": 8670,
      "meantime": 8671,
      "mistakes": 8672,
      "interpret": 8673,
      "farmer": 8674,
      "scul": 8675,
      "presentation": 8676,
      "mickey": 8677,
      "factors": 8678,
      "stretched": 8679,
      "leadership": 8680,
      "influenced": 8681,
      "immediate": 8682,
      "consult": 8683,
      "suffolk": 8684,
      "buddhis": 8685,
      "clouds": 8686,
      "fierce": 8687,
      "120": 8688,
      ";\"": 8689,
      "kam": 8690,
      "tis": 8691,
      "instein": 8692,
      "ingly": 8693,
      "leans": 8694,
      "therap": 8695,
      "tily": 8696,
      "caval": 8697,
      "exists": 8698,
      "ieties": 8699,
      "downtown": 8700,
      "fras": 8701,
      "colony": 8702,
      "lifetime": 8703,
      "timore": 8704,
      "studios": 8705,
      "triumph": 8706,
      "rude": 8707,
      "1957": 8708,
      "shark": 8709,
      "sandwich": 8710,
      "franch": 8711,
      "cliff": 8712,
      "providing": 8713,
      "earliest": 8714,
      "pillow": 8715,
      "contrast": 8716,
      "divorced": 8717,
      "jordan": 8718,
      "eighth": 8719,
      "recycl": 8720,
      "homa": 8721,
      "caes": 8722,
      "exposed": 8723,
      "extin": 8724,
      "apples": 8725,
      "divisions": 8726,
      "monitor": 8727,
      "carto": 8728,
      "coron": 8729,
      "interior": 8730,
      "baron": 8731,
      "funds": 8732,
      "payment": 8733,
      "wheat": 8734,
      "policeman": 8735,
      "sara": 8736,
      "requires": 8737,
      "phew": 8738,
      "arrangement": 8739,
      "equivalent": 8740,
      "impressive": 8741,
      "genetic": 8742,
      "bangladesh": 8743,
      "enormous": 8744,
      "dall": 8745,
      "hr": 8746,
      "pion": 8747,
      "pant": 8748,
      "tune": 8749,
      "seated": 8750,
      "mock": 8751,
      "poland": 8752,
      "cance": 8753,
      "bos": 8754,
      "versary": 8755,
      "calend": 8756,
      "scots": 8757,
      "facts": 8758,
      "organic": 8759,
      "boxes": 8760,
      "judgment": 8761,
      "banana": 8762,
      "recovered": 8763,
      "agriculture": 8764,
      "sack": 8765,
      "reo": 8766,
      "haz": 8767,
      "sore": 8768,
      "hadi": 8769,
      "spray": 8770,
      "marshall": 8771,
      "clam": 8772,
      "morris": 8773,
      "functions": 8774,
      "legit": 8775,
      "lads": 8776,
      "baltimore": 8777,
      "particles": 8778,
      "representing": 8779,
      "lamb": 8780,
      "oppon": 8781,
      "chips": 8782,
      "introduction": 8783,
      "celebrate": 8784,
      "feeding": 8785,
      "tunnel": 8786,
      "injuries": 8787,
      "anxious": 8788,
      "tragedy": 8789,
      "cathedral": 8790,
      "aun": 8791,
      "fen": 8792,
      "tast": 8793,
      "isen": 8794,
      "dode": 8795,
      "lip": 8796,
      "adap": 8797,
      "barrel": 8798,
      "tribut": 8799,
      "julie": 8800,
      "files": 8801,
      "staring": 8802,
      "checking": 8803,
      "laying": 8804,
      "sharks": 8805,
      "robber": 8806,
      "chairs": 8807,
      "1937": 8808,
      "demanded": 8809,
      "manipur": 8810,
      "assault": 8811,
      "distinguished": 8812,
      "aired": 8813,
      "chel": 8814,
      "fice": 8815,
      "og": 8816,
      "inations": 8817,
      "hopes": 8818,
      "confirm": 8819,
      "bore": 8820,
      "shor": 8821,
      "expressed": 8822,
      "stopping": 8823,
      "monk": 8824,
      "portugu": 8825,
      "sens": 8826,
      "scow": 8827,
      "supper": 8828,
      "conscience": 8829,
      "scholars": 8830,
      "gallery": 8831,
      "marshal": 8832,
      "ultimately": 8833,
      "retirement": 8834,
      "focused": 8835,
      "excitement": 8836,
      "52": 8837,
      "fits": 8838,
      "fbi": 8839,
      "gab": 8840,
      "gau": 8841,
      "mask": 8842,
      "zar": 8843,
      "represents": 8844,
      "escort": 8845,
      "icians": 8846,
      "hamilton": 8847,
      "cope": 8848,
      "forbid": 8849,
      "pola": 8850,
      "sauce": 8851,
      "perspective": 8852,
      "torn": 8853,
      "counted": 8854,
      "mush": 8855,
      "barry": 8856,
      "ctors": 8857,
      "southwest": 8858,
      "bands": 8859,
      "movements": 8860,
      "elsewhere": 8861,
      "ferry": 8862,
      "boards": 8863,
      "secrets": 8864,
      "difficulties": 8865,
      "blair": 8866,
      "attempted": 8867,
      "adams": 8868,
      "hammer": 8869,
      "junction": 8870,
      "feathers": 8871,
      "fascin": 8872,
      "poverty": 8873,
      "helicop": 8874,
      "87": 8875,
      "cable": 8876,
      "hh": 8877,
      "mare": 8878,
      "ensure": 8879,
      "behalf": 8880,
      "covid": 8881,
      "immig": 8882,
      "usal": 8883,
      "jos": 8884,
      "nevertheless": 8885,
      "tennes": 8886,
      "scra": 8887,
      "musicians": 8888,
      "170": 8889,
      "cuff": 8890,
      "controls": 8891,
      "1951": 8892,
      "maryland": 8893,
      "safely": 8894,
      "containing": 8895,
      "sequence": 8896,
      "rachel": 8897,
      "fellows": 8898,
      "foolish": 8899,
      "dirt": 8900,
      "nelson": 8901,
      "stanley": 8902,
      "voted": 8903,
      "tremend": 8904,
      "rugby": 8905,
      "portuguese": 8906,
      "tennessee": 8907,
      "bart": 8908,
      "vital": 8909,
      "iti": 8910,
      "allied": 8911,
      "gear": 8912,
      "cane": 8913,
      "sometime": 8914,
      "astro": 8915,
      "backwards": 8916,
      "assess": 8917,
      "aks": 8918,
      "lloyd": 8919,
      "versus": 8920,
      "owners": 8921,
      "governments": 8922,
      "equally": 8923,
      "placing": 8924,
      "breaks": 8925,
      "furnit": 8926,
      "idae": 8927,
      "bullshit": 8928,
      "communications": 8929,
      "surrounding": 8930,
      "egyp": 8931,
      "proposal": 8932,
      "descend": 8933,
      "components": 8934,
      "furniture": 8935,
      "bited": 8936,
      "fm": 8937,
      "glow": 8938,
      "nad": 8939,
      "phis": 8940,
      "vary": 8941,
      "theastern": 8942,
      "outer": 8943,
      "anderson": 8944,
      "melo": 8945,
      "chlor": 8946,
      "dox": 8947,
      "carlos": 8948,
      "strain": 8949,
      "shares": 8950,
      "charming": 8951,
      "maine": 8952,
      "addle": 8953,
      "mercur": 8954,
      "casual": 8955,
      "walker": 8956,
      "welfare": 8957,
      "hindu": 8958,
      "austrian": 8959,
      "judges": 8960,
      "statue": 8961,
      "pointing": 8962,
      "finishing": 8963,
      "microphone": 8964,
      "conducted": 8965,
      "butterfly": 8966,
      "kirk": 8967,
      "expanded": 8968,
      "determine": 8969,
      "yugosla": 8970,
      "rors": 8971,
      "anchor": 8972,
      "orleans": 8973,
      "leo": 8974,
      "entering": 8975,
      "hollow": 8976,
      "feared": 8977,
      "sult": 8978,
      "ups": 8979,
      "explor": 8980,
      "presid": 8981,
      "horiz": 8982,
      "ralph": 8983,
      "freud": 8984,
      "grounds": 8985,
      "protein": 8986,
      "existed": 8987,
      "loyal": 8988,
      "considerable": 8989,
      "messeng": 8990,
      "refuse": 8991,
      "nucle": 8992,
      "protestant": 8993,
      "sacrifice": 8994,
      "assyrian": 8995,
      "subsequently": 8996,
      "exclaimed": 8997,
      "bé": 8998,
      "tid": 8999,
      "seeds": 9000,
      "accounts": 9001,
      "mans": 9002,
      "boot": 9003,
      "comments": 9004,
      "disappointed": 9005,
      "18th": 9006,
      "surve": 9007,
      "surname": 9008,
      "secondary": 9009,
      "sweat": 9010,
      "ilian": 9011,
      "belle": 9012,
      "smoking": 9013,
      "slaves": 9014,
      "taxi": 9015,
      "insul": 9016,
      "adventures": 9017,
      "delighted": 9018,
      "absence": 9019,
      "cm": 9020,
      "dang": 9021,
      "lid": 9022,
      "mers": 9023,
      "oon": 9024,
      "pam": 9025,
      "sate": 9026,
      "twi": 9027,
      "xx": 9028,
      "yοu": 9029,
      "enne": 9030,
      "stic": 9031,
      "chile": 9032,
      "abroad": 9033,
      "ateur": 9034,
      "gras": 9035,
      "spark": 9036,
      "fairies": 9037,
      "ictions": 9038,
      "wins": 9039,
      "mothers": 9040,
      "boyer": 9041,
      "decades": 9042,
      "depth": 9043,
      "cups": 9044,
      "tailor": 9045,
      "appearances": 9046,
      "landscape": 9047,
      "softly": 9048,
      "rubber": 9049,
      "briefly": 9050,
      "patience": 9051,
      "remarkable": 9052,
      "effectively": 9053,
      "transferred": 9054,
      "grunting": 9055,
      "radiation": 9056,
      "prominent": 9057,
      "5th": 9058,
      "diction": 9059,
      "fts": 9060,
      "pand": 9061,
      "pag": 9062,
      "pip": 9063,
      "ratt": 9064,
      "anthro": 9065,
      "reh": 9066,
      "meite": 9067,
      "lemon": 9068,
      "ambass": 9069,
      "excess": 9070,
      "vessel": 9071,
      "posing": 9072,
      "cleared": 9073,
      "matrix": 9074,
      "davis": 9075,
      "simp": 9076,
      "insane": 9077,
      "kidna": 9078,
      "colleagues": 9079,
      "sweep": 9080,
      "sunshine": 9081,
      "lamp": 9082,
      "imagination": 9083,
      "copper": 9084,
      "dishes": 9085,
      "fraud": 9086,
      "commissioner": 9087,
      "qualified": 9088,
      "applications": 9089,
      "translated": 9090,
      "resistance": 9091,
      "heritage": 9092,
      "considering": 9093,
      "lass": 9094,
      "pars": 9095,
      "punk": 9096,
      "rous": 9097,
      "ull": 9098,
      "recall": 9099,
      "rebell": 9100,
      "chill": 9101,
      "wipe": 9102,
      "impro": 9103,
      "neur": 9104,
      "uran": 9105,
      "essential": 9106,
      "lai": 9107,
      "guin": 9108,
      "pencil": 9109,
      "smack": 9110,
      "breed": 9111,
      "teddy": 9112,
      "trait": 9113,
      "doub": 9114,
      "magnet": 9115,
      "foods": 9116,
      "travelling": 9117,
      "surprising": 9118,
      "paste": 9119,
      "package": 9120,
      "bachel": 9121,
      "divorce": 9122,
      "mistress": 9123,
      "neuro": 9124,
      "phenom": 9125,
      "flesh": 9126,
      "hawaii": 9127,
      "!!": 9128,
      "dd": 9129,
      "fence": 9130,
      "oops": 9131,
      "rates": 9132,
      "tables": 9133,
      "hack": 9134,
      "chun": 9135,
      "accent": 9136,
      "leton": 9137,
      "selena": 9138,
      "parking": 9139,
      "flush": 9140,
      "earl": 9141,
      "queens": 9142,
      "1936": 9143,
      "broadway": 9144,
      "humor": 9145,
      "lynde": 9146,
      "rarely": 9147,
      "mantle": 9148,
      "entitled": 9149,
      "mercury": 9150,
      "dv": 9151,
      "tide": 9152,
      "tomato": 9153,
      "sting": 9154,
      "whil": 9155,
      "weed": 9156,
      "ambul": 9157,
      "tia": 9158,
      "bleeding": 9159,
      "courses": 9160,
      "cleve": 9161,
      "stell": 9162,
      "ringing": 9163,
      "jae": 9164,
      "crops": 9165,
      "panel": 9166,
      "touching": 9167,
      "slavery": 9168,
      "symbo": 9169,
      "violin": 9170,
      "jumping": 9171,
      "arabic": 9172,
      "philosopher": 9173,
      "blessed": 9174,
      "revenue": 9175,
      "attracted": 9176,
      "scattered": 9177,
      "eagle": 9178,
      "edinburgh": 9179,
      "cze": 9180,
      "dul": 9181,
      "echo": 9182,
      "jet": 9183,
      "pacqu": 9184,
      "rud": 9185,
      "refu": 9186,
      "vegas": 9187,
      "coins": 9188,
      "unconscious": 9189,
      "canon": 9190,
      "napole": 9191,
      "dug": 9192,
      "chapel": 9193,
      "followers": 9194,
      "osity": 9195,
      "awk": 9196,
      "practically": 9197,
      "suitable": 9198,
      "institutions": 9199,
      "kittie": 9200,
      "revolutionary": 9201,
      "estimated": 9202,
      "procedure": 9203,
      "enterprise": 9204,
      "meitei": 9205,
      "whilst": 9206,
      "pacquiao": 9207,
      "hitting": 9208,
      "nina": 9209,
      "infan": 9210,
      "altar": 9211,
      "icos": 9212,
      "veter": 9213,
      "rious": 9214,
      "indu": 9215,
      "preach": 9216,
      "reader": 9217,
      "nings": 9218,
      "despair": 9219,
      "logic": 9220,
      "160": 9221,
      "silk": 9222,
      "approval": 9223,
      "torial": 9224,
      "oxide": 9225,
      "belonged": 9226,
      "burnt": 9227,
      "kicked": 9228,
      "vehicles": 9229,
      "beliefs": 9230,
      "patterns": 9231,
      "infection": 9232,
      "mathematics": 9233,
      "discipline": 9234,
      "wolves": 9235,
      "bavaria": 9236,
      "caesar": 9237,
      "):": 9238,
      "92": 9239,
      "jason": 9240,
      "kor": 9241,
      "lined": 9242,
      "ml": 9243,
      "enthus": 9244,
      "itter": 9245,
      "icut": 9246,
      "chances": 9247,
      "allison": 9248,
      "raising": 9249,
      "click": 9250,
      "bucks": 9251,
      "disaster": 9252,
      "uela": 9253,
      "borders": 9254,
      "helpful": 9255,
      "shaking": 9256,
      "primit": 9257,
      "burden": 9258,
      "fern": 9259,
      "operate": 9260,
      "continental": 9261,
      "informed": 9262,
      "meets": 9263,
      "expans": 9264,
      "bearing": 9265,
      "routes": 9266,
      "refers": 9267,
      "nitro": 9268,
      "broadcasting": 9269,
      "hesit": 9270,
      "techniques": 9271,
      "attractive": 9272,
      "surrender": 9273,
      "philippines": 9274,
      "calendar": 9275,
      "91": 9276,
      "94": 9277,
      "yale": 9278,
      "thed": 9279,
      "ouch": 9280,
      "sob": 9281,
      "amateur": 9282,
      "impressed": 9283,
      "abund": 9284,
      "indig": 9285,
      "brus": 9286,
      "mayweather": 9287,
      "pressing": 9288,
      "genu": 9289,
      "jection": 9290,
      "intern": 9291,
      "treas": 9292,
      "airplane": 9293,
      "bloom": 9294,
      "denomin": 9295,
      "fighter": 9296,
      "tested": 9297,
      "billboard": 9298,
      "invite": 9299,
      "soccer": 9300,
      "ruler": 9301,
      "races": 9302,
      "witnesses": 9303,
      "mortal": 9304,
      "possessed": 9305,
      "gulf": 9306,
      "nhl": 9307,
      "bureau": 9308,
      "54": 9309,
      "56": 9310,
      "kle": 9311,
      "mall": 9312,
      "wrap": 9313,
      "ington": 9314,
      "chasing": 9315,
      "entre": 9316,
      "loco": 9317,
      "adapt": 9318,
      "abuse": 9319,
      "trun": 9320,
      "combat": 9321,
      "clan": 9322,
      "charity": 9323,
      "triple": 9324,
      "dropping": 9325,
      "euro": 9326,
      "programming": 9327,
      "portray": 9328,
      "returns": 9329,
      "options": 9330,
      "chuckles": 9331,
      "participate": 9332,
      "squee": 9333,
      "brooklyn": 9334,
      "dreadful": 9335,
      "indonesia": 9336,
      ".!": 9337,
      "cen": 9338,
      "iac": 9339,
      "othy": 9340,
      "yup": 9341,
      "melan": 9342,
      "beloved": 9343,
      "coin": 9344,
      "golf": 9345,
      "trag": 9346,
      "manif": 9347,
      "nazi": 9348,
      "ishna": 9349,
      "guine": 9350,
      "warrant": 9351,
      "deny": 9352,
      "relevant": 9353,
      "supplies": 9354,
      "bench": 9355,
      "hanged": 9356,
      "trusted": 9357,
      "designs": 9358,
      "ifying": 9359,
      "wisdom": 9360,
      "reflect": 9361,
      "aspects": 9362,
      "arctic": 9363,
      "roberts": 9364,
      "1000": 9365,
      "68": 9366,
      "900": 9367,
      "cant": 9368,
      "lun": 9369,
      "oath": 9370,
      "pia": 9371,
      "sr": 9372,
      "thal": 9373,
      "innit": 9374,
      "itis": 9375,
      "ariz": 9376,
      "ayan": 9377,
      "wilt": 9378,
      "improved": 9379,
      "nephew": 9380,
      "terry": 9381,
      "peek": 9382,
      "firms": 9383,
      "premie": 9384,
      "pene": 9385,
      "warn": 9386,
      "cuts": 9387,
      "gyp": 9388,
      "businesses": 9389,
      "furn": 9390,
      "locations": 9391,
      "aboo": 9392,
      "belgi": 9393,
      "sharing": 9394,
      "cookies": 9395,
      "oxid": 9396,
      "pigs": 9397,
      "conclusion": 9398,
      "islamic": 9399,
      "civilization": 9400,
      "colonial": 9401,
      "favourite": 9402,
      "residents": 9403,
      "houston": 9404,
      "scarcely": 9405,
      "disgusting": 9406,
      "battles": 9407,
      "genuine": 9408,
      "dak": 9409,
      "sket": 9410,
      "toes": 9411,
      "altern": 9412,
      "hee": 9413,
      "irrit": 9414,
      "sue": 9415,
      "convince": 9416,
      "shee": 9417,
      "quack": 9418,
      "quet": 9419,
      "exceed": 9420,
      "mari": 9421,
      "norway": 9422,
      "cares": 9423,
      "walt": 9424,
      "ggy": 9425,
      "harbour": 9426,
      "17th": 9427,
      "missions": 9428,
      "painter": 9429,
      "katherine": 9430,
      "chron": 9431,
      "receiving": 9432,
      "ministers": 9433,
      "assistance": 9434,
      "ricky": 9435,
      "shouted": 9436,
      "candidates": 9437,
      "jungle": 9438,
      "dallas": 9439,
      "ige": 9440,
      "pace": 9441,
      "wagon": 9442,
      "alicia": 9443,
      "beep": 9444,
      "robot": 9445,
      "goin": 9446,
      "accompan": 9447,
      "arena": 9448,
      "dong": 9449,
      "maim": 9450,
      "sery": 9451,
      "selfish": 9452,
      "helpless": 9453,
      "fuckin": 9454,
      "annie": 9455,
      "murray": 9456,
      "rocky": 9457,
      "circus": 9458,
      "flows": 9459,
      "masters": 9460,
      "jerk": 9461,
      "approaching": 9462,
      "resulted": 9463,
      "performances": 9464,
      "conductor": 9465,
      "deeper": 9466,
      "schedule": 9467,
      "alphabet": 9468,
      "pizza": 9469,
      "anniversary": 9470,
      "250": 9471,
      "81": 9472,
      "eva": 9473,
      "lance": 9474,
      "sno": 9475,
      "sections": 9476,
      "bels": 9477,
      "artific": 9478,
      "rescu": 9479,
      "mars": 9480,
      "disorder": 9481,
      "monaster": 9482,
      "helen": 9483,
      "voting": 9484,
      "nerves": 9485,
      "transmit": 9486,
      "grove": 9487,
      "electron": 9488,
      "scientist": 9489,
      "nursery": 9490,
      "weakness": 9491,
      "assumed": 9492,
      "participated": 9493,
      "connecticut": 9494,
      "translation": 9495,
      "saints": 9496,
      "intellectual": 9497,
      "presidency": 9498,
      "\";": 9499,
      "mason": 9500,
      "sic": 9501,
      "yed": 9502,
      "toss": 9503,
      "eno": 9504,
      "youtube": 9505,
      "lewis": 9506,
      "somal": 9507,
      "gospe": 9508,
      "vertex": 9509,
      "abstr": 9510,
      "nell": 9511,
      "martial": 9512,
      "mines": 9513,
      "minnes": 9514,
      "embr": 9515,
      "caravan": 9516,
      "drank": 9517,
      "peninsu": 9518,
      "tennis": 9519,
      "kindly": 9520,
      "regul": 9521,
      "burns": 9522,
      "funding": 9523,
      "stays": 9524,
      "trucks": 9525,
      "songwriter": 9526,
      "fluid": 9527,
      "cultiv": 9528,
      "batter": 9529,
      "neighbors": 9530,
      "farewell": 9531,
      "popeye": 9532,
      "shelter": 9533,
      "accurate": 9534,
      "delivery": 9535,
      "magnific": 9536,
      "squirrel": 9537,
      "satell": 9538,
      "%.": 9539,
      "72": 9540,
      "93": 9541,
      "nana": 9542,
      "pend": 9543,
      "án": 9544,
      "itals": 9545,
      "oft": 9546,
      "beef": 9547,
      "gown": 9548,
      "dod": 9549,
      "dore": 9550,
      "rians": 9551,
      "feast": 9552,
      "antis": 9553,
      "shy": 9554,
      "yourselves": 9555,
      "quad": 9556,
      "blin": 9557,
      "corrupt": 9558,
      "facility": 9559,
      "walks": 9560,
      "doug": 9561,
      "networks": 9562,
      "1934": 9563,
      "enjoying": 9564,
      "galax": 9565,
      "discussed": 9566,
      "rushed": 9567,
      "becca": 9568,
      "guarantee": 9569,
      "bacteria": 9570,
      "miserable": 9571,
      "accompanied": 9572,
      "700": 9573,
      "cc": 9574,
      "kun": 9575,
      "sits": 9576,
      "vak": 9577,
      "wen": 9578,
      "ão": 9579,
      "erie": 9580,
      "oro": 9581,
      "orbit": 9582,
      "mea": 9583,
      "sta": 9584,
      "lete": 9585,
      "lyrics": 9586,
      "coward": 9587,
      "amen": 9588,
      "usage": 9589,
      "1919": 9590,
      "spider": 9591,
      "mario": 9592,
      "minimum": 9593,
      "lawrence": 9594,
      "relatives": 9595,
      "welsh": 9596,
      "floating": 9597,
      "novels": 9598,
      "grocer": 9599,
      "tivity": 9600,
      "recovery": 9601,
      "travelled": 9602,
      "electrical": 9603,
      "colorado": 9604,
      "jesse": 9605,
      "federation": 9606,
      "commerce": 9607,
      "eldest": 9608,
      "bhaer": 9609,
      "vulner": 9610,
      "naughty": 9611,
      "bachelor": 9612,
      "primitive": 9613,
      "62": 9614,
      "bind": 9615,
      "cated": 9616,
      "gut": 9617,
      "knot": 9618,
      "mals": 9619,
      "zation": 9620,
      "zinc": 9621,
      "iner": 9622,
      "onds": 9623,
      "attemp": 9624,
      "edges": 9625,
      "weep": 9626,
      "limp": 9627,
      "abra": 9628,
      "deleg": 9629,
      "tiles": 9630,
      "contemporary": 9631,
      "wool": 9632,
      "minim": 9633,
      "angels": 9634,
      "kills": 9635,
      "grandmother": 9636,
      "cooked": 9637,
      "packed": 9638,
      "impul": 9639,
      "executed": 9640,
      "extension": 9641,
      "infantry": 9642,
      "attempts": 9643,
      "51": 9644,
      "hedge": 9645,
      "ivan": 9646,
      "oz": 9647,
      "rade": 9648,
      "itute": 9649,
      "ori": 9650,
      "meh": 9651,
      "stink": 9652,
      "stages": 9653,
      "secut": 9654,
      "geome": 9655,
      "abby": 9656,
      "poo": 9657,
      "plun": 9658,
      "choir": 9659,
      "souls": 9660,
      "fathers": 9661,
      "believes": 9662,
      "hara": 9663,
      "1950s": 9664,
      "layer": 9665,
      "crowded": 9666,
      "mammals": 9667,
      "measured": 9668,
      "protocol": 9669,
      "situations": 9670,
      "assignment": 9671,
      "awkward": 9672,
      "\"'": 9673,
      "aj": 9674,
      "cun": 9675,
      "oy": 9676,
      "inca": 9677,
      "ancy": 9678,
      "nold": 9679,
      "rocket": 9680,
[...]
