{
  "version": "1.0",
  "truncation": null,
  "padding": null,
  "added_tokens": [
    {
      "id": 1,
      "content": "[UNK]",
      "single_word": false,
      "lstrip": false,
      "rstrip": false,
      "normalized": false,
      "special": true
    },
    {
      "id": 2,
      "content": "[CLS]",
      "single_word": false,
      "lstrip": false,
      "rstrip": false,
      "normalized": false,
      "special": true
    },
    {
      "id": 3,
      "content": "[SEP]",
      "single_word": false,
      "lstrip": false,
      "rstrip": false,
      "normalized": false,
      "special": true
    },
    {
      "id": 4,
      "content": "[PAD]",
      "single_word": false,
      "lstrip": false,
      "rstrip": false,
      "normalized": false,
      "special": true
    },
    {
      "id": 5,
      "content": "[MASK]",
      "single_word": false,
      "lstrip": false,
      "rstrip": false,
      "normalized": false,
      "special": true
    }
  ],
  "normalizer": null,
  "pre_tokenizer": {
    "type": "Whitespace"
  },
  "post_processor": null,
  "decoder": null,
  "model": {
    "type": "Unigram",
    "unk_id": 0,
    "vocab": [
      [
        "<UNK>",
        0.0
      ],
      [
        "[UNK]",
        0.0
      ],
      [
        "[CLS]",
        0.0
      ],
      [
        "[SEP]",
        0.0
      ],
      [
        "[PAD]",
        0.0
      ],
      [
        "[MASK]",
        0.0
      ],
      [
        ".",
        -2.958975847240511
      ],
      [
        "s",
        -3.098506304418825
      ],
      [
        "t",
        -3.1574293686922488
      ],
      [
        ",",
        -3.230828181651919
      ],
      [
        "the",
        -3.3596410834525834
      ],
      [
        "i",
        -3.3732123004130035
      ],
      [
        "o",
        -3.4516556280502453
      ],
      [
        "a",
        -3.5555225327910946
      ],
      [
        "'",
        -3.811395793010231
      ],
      [
        "and",
        -4.094446574438493
      ],
      [
        "d",
        -4.122725781536696
      ],
      [
        "you",
        -4.251394711066556
      ],
      [
        "of",
        -4.256648122655076
      ],
      [
        "in",
        -4.387785818906114
      ],
      [
        "e",
        -4.477455298639509
      ],
      [
        "?",
        -4.564258122186034
      ],
      [
        "n",
        -4.654505276214703
      ],
      [
        "that",
        -4.697859150374287
      ],
      [
        "y",
        -4.8367123250160375
      ],
      [
        "\"",
        -4.961233408400901
      ],
      [
        "he",
        -5.04794708431443
      ],
      [
        "was",
        -5.05682691872126
      ],
      [
        "is",
        -5.066868732744112
      ],
      [
        "m",
        -5.08576076022209
      ],
      [
        "h",
        -5.199544619124254
      ],
      [
        "on",
        -5.218108002418187
      ],
      [
        "for",
        -5.2716386303310525
      ],
      [
        "!",
        -5.424210743447885
      ],
      [
        "we",
        -5.436287998935004
      ],
      [
        "-",
        -5.445232392365739
      ],
      [
        "what",
        -5.521142555471677
      ],
      [
        "this",
        -5.52343933282909
      ],
      [
        "with",
        -5.534985654454864
      ],
      [
        "are",
        -5.564419047596303
      ],
      [
        "be",
        -5.602441315401629
      ],
      [
        "f",
        -5.624625164587519
      ],
      [
        "ing",
        -5.630273797532304
      ],
      [
        "have",
        -5.646942276498516
      ],
      [
        "not",
        -5.739887450749585
      ],
      [
        "but",
        -5.759692312734236
      ],
      [
        "me",
        -5.774046696540061
      ],
      [
        "r",
        -5.821357314112069
      ],
      [
        "they",
        -5.83557203737603
      ],
      [
        "ly",
        -5.886289647005096
      ],
      [
        "his",
        -5.906539001323388
      ],
      [
        "all",
        -5.931868941151528
      ],
      [
        "there",
        -5.94464206308931
      ],
      [
        "re",
        -5.956253320617408
      ],
      [
        "can",
        -5.968554275379249
      ],
      [
        "one",
        -5.972227504711421
      ],
      [
        "...",
        -6.01606681256848
      ],
      [
        "by",
        -6.038545264086704
      ],
      [
        "my",
        -6.049152367377747
      ],
      [
        "from",
        -6.090440532789954
      ],
      [
        "she",
        -6.09685615854432
      ],
      [
        "know",
        -6.0976703910142085
      ],
      [
        "your",
        -6.1162176328493025
      ],
      [
        "her",
        -6.140332616431293
      ],
      [
        "u",
        -6.146561421869425
      ],
      [
        "an",
        -6.147950379924218
      ],
      [
        "like",
        -6.156273963549495
      ],
      [
        "don",
        -6.203829686269831
      ],
      [
        "had",
        -6.211694527188637
      ],
      [
        "up",
        -6.252030979392696
      ],
      [
        "(",
        -6.284701682031178
      ],
      [
        "out",
        -6.298467499876905
      ],
      [
        "just",
        -6.316855243099429
      ],
      [
        "about",
        -6.322279694842944
      ],
      [
        "or",
        -6.32358684754727
      ],
      [
        "him",
        -6.333222317842969
      ],
      [
        "go",
        -6.339635015426106
      ],
      [
        "were",
        -6.343773408339695
      ],
      [
        "here",
        -6.350466132340268
      ],
      [
        "get",
        -6.389096596077444
      ],
      [
        "l",
        -6.40838338810466
      ],
      [
        "well",
        -6.420303774400562
      ],
      [
        "now",
        -6.43481917233051
      ],
      [
        "ll",
        -6.459732612349653
      ],
      [
        "when",
        -6.462414168369522
      ],
      [
        "how",
        -6.466932210107808
      ],
      [
        "who",
        -6.47122955431235
      ],
      [
        "right",
        -6.480941051682489
      ],
      [
        "yeah",
        -6.532832483096877
      ],
      [
        "c",
        -6.551461740011156
      ],
      [
        "will",
        -6.559324263865848
      ],
      [
        ")",
        -6.58482166207903
      ],
      [
        "would",
        -6.6232788115605885
      ],
      [
        "b",
        -6.634599998607664
      ],
      [
        "which",
        -6.648283358723244
      ],
      [
        "time",
        -6.6507922568842694
      ],
      [
        "has",
        -6.662056624235589
      ],
      [
        "see",
        -6.665879315652585
      ],
      [
        "think",
        -6.668506705402837
      ],
      [
        "ve",
        -6.677332134176623
      ],
      [
        "come",
        -6.67805610312015
      ],
      [
        "some",
        -6.714474359525765
      ],
      [
        ":",
        -6.717781882221571
      ],
      [
        "said",
        -6.725889355566334
      ],
      [
        "did",
        -6.734774791331585
      ],
      [
        "more",
        -6.780841923827207
      ],
      [
        "got",
        -6.788090713121571
      ],
      [
        "w",
        -6.79956241048712
      ],
      [
        "want",
        -6.800008851342257
      ],
      [
        "good",
        -6.80033045539302
      ],
      [
        "g",
        -6.806150636096369
      ],
      [
        "where",
        -6.808721750850999
      ],
      [
        "been",
        -6.819604366543826
      ],
      [
        "their",
        -6.84284539422989
      ],
      [
        "people",
        -6.850618528219995
      ],
      [
        "them",
        -6.860226145770527
      ],
      [
        "going",
        -6.889324838136986
      ],
      [
        "p",
        -6.899601518351149
      ],
      [
        "very",
        -6.9111831063941604
      ],
      [
        ";",
        -6.915393372544472
      ],
      [
        "er",
        -6.91667791665682
      ],
      [
        "two",
        -6.943058616440794
      ],
      [
        "let",
        -6.947147138601467
      ],
      [
        "man",
        -6.9547692443004525
      ],
      [
        "over",
        -6.976322571189483
      ],
      [
        "back",
        -6.989852429365165
      ],
      [
        "other",
        -7.000436393301321
      ],
      [
        "us",
        -7.003850620818097
      ],
      [
        "first",
        -7.009903168099612
      ],
      [
        "could",
        -7.017716077881817
      ],
      [
        "yes",
        -7.046372599259229
      ],
      [
        "our",
        -7.050639701555523
      ],
      [
        "look",
        -7.054458338726501
      ],
      [
        "way",
        -7.0601038136782055
      ],
      [
        "because",
        -7.060137820373617
      ],
      [
        "down",
        -7.073955399540653
      ],
      [
        "k",
        -7.090926578920946
      ],
      [
        "also",
        -7.094010046691409
      ],
      [
        "say",
        -7.098783323660898
      ],
      [
        "take",
        -7.099453369689483
      ],
      [
        "why",
        -7.111310817770526
      ],
      [
        "okay",
        -7.116309784701299
      ],
      [
        "into",
        -7.121426510729403
      ],
      [
        "--",
        -7.148135850136287
      ],
      [
        "only",
        -7.148863186609619
      ],
      [
        "little",
        -7.17239310800924
      ],
      [
        "after",
        -7.17566310879927
      ],
      [
        "any",
        -7.215443482186931
      ],
      [
        "make",
        -7.220290939931882
      ],
      [
        "new",
        -7.238293519594352
      ],
      [
        "these",
        -7.242312219871202
      ],
      [
        "really",
        -7.249757812195414
      ],
      [
        "1",
        -7.319601704307871
      ],
      [
        "put",
        -7.334913351937496
      ],
      [
        "than",
        -7.342380701481643
      ],
      [
        "tell",
        -7.374673009736988
      ],
      [
        "something",
        -7.385157096193968
      ],
      [
        "2",
        -7.395051009399646
      ],
      [
        "mean",
        -7.405249552521234
      ],
      [
        "day",
        -7.409091582703972
      ],
      [
        "need",
        -7.4100102060297
      ],
      [
        "much",
        -7.420903300339617
      ],
      [
        "should",
        -7.445836887636899
      ],
      [
        "even",
        -7.454592785150632
      ],
      [
        "gonna",
        -7.4573047763109255
      ],
      [
        "made",
        -7.479995263349162
      ],
      [
        "before",
        -7.483950947792794
      ],
      [
        "off",
        -7.485051601151845
      ],
      [
        "ever",
        -7.504815465856613
      ],
      [
        "work",
        -7.52002107228966
      ],
      [
        "never",
        -7.521091181146021
      ],
      [
        "may",
        -7.524314702107626
      ],
      [
        "most",
        -7.526141492154794
      ],
      [
        "many",
        -7.539389431554383
      ],
      [
        "name",
        -7.5459708128719996
      ],
      [
        "again",
        -7.5486653137686925
      ],
      [
        "didn",
        -7.553486537778596
      ],
      [
        "give",
        -7.571051107256155
      ],
      [
        "great",
        -7.5711155873920415
      ],
      [
        "old",
        -7.573203675327525
      ],
      [
        "three",
        -7.582978752952467
      ],
      [
        "love",
        -7.598319982342186
      ],
      [
        "those",
        -7.61005656829672
      ],
      [
        "long",
        -7.620271845198117
      ],
      [
        "life",
        -7.6252199053051495
      ],
      [
        "through",
        -7.631503631018395
      ],
      [
        "thing",
        -7.634430768984219
      ],
      [
        "still",
        -7.635851711688055
      ],
      [
        "part",
        -7.637705327387101
      ],
      [
        "world",
        -7.657760724761108
      ],
      [
        "5",
        -7.680879927529345
      ],
      [
        "years",
        -7.683104809236477
      ],
      [
        "3",
        -7.684884928879457
      ],
      [
        "“",
        -7.695552872552167
      ],
      [
        "place",
        -7.696496981176894
      ],
      [
        "last",
        -7.7069676602816095
      ],
      [
        "thought",
        -7.714483368244112
      ],
      [
        "things",
        -7.72081345040618
      ],
      [
        "called",
        -7.72202733602958
      ],
      [
        "house",
        -7.7236528297112805
      ],
      [
        "home",
        -7.732315255843972
      ],
      [
        "went",
        -7.7323184425835585
      ],
      [
        "used",
        -7.740085989826168
      ],
      [
        "came",
        -7.743002368210625
      ],
      [
        "live",
        -7.7456708527920455
      ],
      [
        "must",
        -7.7563514279475605
      ],
      [
        "doing",
        -7.762407310485582
      ],
      [
        "4",
        -7.765456354599163
      ],
      [
        "6",
        -7.765910921815159
      ],
      [
        "v",
        -7.767344039761548
      ],
      [
        "away",
        -7.7706002900159135
      ],
      [
        "help",
        -7.773810943547055
      ],
      [
        "night",
        -7.775768852556681
      ],
      [
        "being",
        -7.785448614778705
      ],
      [
        "does",
        -7.805385199725629
      ],
      [
        "such",
        -7.806797664952041
      ],
      [
        "find",
        -7.826787755355424
      ],
      [
        "sure",
        -7.8389152477181625
      ],
      [
        "city",
        -7.845268548941505
      ],
      [
        "\"\"",
        -7.847740090340933
      ],
      [
        "erm",
        -7.852111676451255
      ],
      [
        "same",
        -7.867479851299837
      ],
      [
        "own",
        -7.872914057259818
      ],
      [
        "ies",
        -7.872993073714538
      ],
      [
        "kind",
        -7.883454915789793
      ],
      [
        "201",
        -7.887678850851756
      ],
      [
        "year",
        -7.8928455276800324
      ],
      [
        "another",
        -7.903580755417252
      ],
      [
        "thank",
        -7.904192387418108
      ],
      [
        "won",
        -7.923313981151768
      ],
      [
        "might",
        -7.924409282517447
      ],
      [
        "while",
        -7.925567495252025
      ],
      [
        "please",
        -7.93215632065966
      ],
      [
        "call",
        -7.936183476578121
      ],
      [
        "found",
        -7.94565758766138
      ],
      [
        "7",
        -7.946183100579274
      ],
      [
        "keep",
        -7.95110455580088
      ],
      [
        "lot",
        -7.9573492673616215
      ],
      [
        "hey",
        -7.95980379088674
      ],
      [
        "under",
        -7.967166409888367
      ],
      [
        "men",
        -7.972065127212476
      ],
      [
        "use",
        -7.972525348990283
      ],
      [
        "around",
        -7.977165838115395
      ],
      [
        "anything",
        -7.993733496046406
      ],
      [
        "big",
        -7.9941628228469135
      ],
      [
        "always",
        -7.99573672522958
      ],
      [
        "god",
        -7.996687445892563
      ],
      [
        "200",
        -7.997043773266332
      ],
      [
        "nothing",
        -8.0039263175985
      ],
      [
        "number",
        -8.011824866744512
      ],
      [
        "better",
        -8.013404590635565
      ],
      [
        "money",
        -8.021870541993781
      ],
      [
        "every",
        -8.026812044321076
      ],
      [
        "state",
        -8.028572846330023
      ],
      [
        "left",
        -8.028782944412596
      ],
      [
        "end",
        -8.034933215466081
      ],
      [
        "water",
        -8.03977571882552
      ],
      [
        "school",
        -8.041091152360082
      ],
      [
        "talk",
        -8.042620980648321
      ],
      [
        "united",
        -8.043920537303011
      ],
      [
        "war",
        -8.054387694215462
      ],
      [
        "born",
        -8.063517080155753
      ],
      [
        "car",
        -8.065118692733838
      ],
      [
        "king",
        -8.068947603632163
      ],
      [
        "between",
        -8.07962317495331
      ],
      [
        "side",
        -8.080151821423671
      ],
      [
        "change",
        -8.081567126547188
      ],
      [
        "states",
        -8.090908916269962
      ],
      [
        "different",
        -8.092435628118105
      ],
      [
        "next",
        -8.095181987819053
      ],
      [
        "father",
        -8.100340708508691
      ],
      [
        "sorry",
        -8.101808486900378
      ],
      [
        "each",
        -8.102762474133863
      ],
      [
        "sir",
        -8.107033117085063
      ],
      [
        "8",
        -8.109067504790952
      ],
      [
        "both",
        -8.11167729579676
      ],
      [
        "show",
        -8.126526959912196
      ],
      [
        "second",
        -8.133607961573855
      ],
      [
        "|",
        -8.135770519090892
      ],
      [
        "four",
        -8.138719506806872
      ],
      [
        "head",
        -8.13921282809453
      ],
      [
        "american",
        -8.158065675413027
      ],
      [
        "course",
        -8.159001160106817
      ],
      [
        "took",
        -8.159330213428147
      ],
      [
        "best",
        -8.160046903734216
      ],
      [
        "–",
        -8.165753474479262
      ],
      [
        "told",
        -8.16794753519201
      ],
      [
        "once",
        -8.17261067598621
      ],
      [
        "actually",
        -8.17331098585056
      ],
      [
        "stop",
        -8.178179869399615
      ],
      [
        "point",
        -8.181637368489458
      ],
      [
        "later",
        -8.18268953299013
      ],
      [
        "since",
        -8.187068489189512
      ],
      [
        "during",
        -8.18949456386676
      ],
      [
        "until",
        -8.189740740975749
      ],
      [
        "mother",
        -8.190971879159607
      ],
      [
        "play",
        -8.191915486548476
      ],
      [
        "high",
        -8.207151971214822
      ],
      [
        "move",
        -8.209632010186752
      ],
      [
        "known",
        -8.211554469892302
      ],
      [
        "everything",
        -8.220379489796759
      ],
      [
        "able",
        -8.22219845123406
      ],
      [
        "al",
        -8.233378926014122
      ],
      [
        "start",
        -8.235451759533856
      ],
      [
        "feel",
        -8.252173400074092
      ],
      [
        "saw",
        -8.253938846630325
      ],
      [
        "girl",
        -8.254345655758758
      ],
      [
        "doesn",
        -8.264340584006957
      ],
      [
        "five",
        -8.265154499947913
      ],
      [
        "maybe",
        -8.27648976200304
      ],
      [
        "nice",
        -8.280274863963854
      ],
      [
        "’",
        -8.282703623131528
      ],
      [
        "leave",
        -8.285708424415448
      ],
      [
        "together",
        -8.296107735640174
      ],
      [
        "family",
        -8.302438736271679
      ],
      [
        "nough",
        -8.303853425083448
      ],
      [
        "room",
        -8.304392244573211
      ],
      [
        "20",
        -8.306661561868207
      ],
      [
        "wait",
        -8.306679059188813
      ],
      [
        "boy",
        -8.307014519829465
      ],
      [
        "today",
        -8.309210706809353
      ],
      [
        "9",
        -8.309280308370052
      ],
      [
        "bit",
        -8.309805861431585
      ],
      [
        "bad",
        -8.311290758498078
      ],
      [
        "stay",
        -8.322645007858979
      ],
      [
        "th",
        -8.322944394312572
      ],
      [
        "wanted",
        -8.324696770719996
      ],
      [
        "else",
        -8.328035196568509
      ],
      [
        "line",
        -8.336315299277038
      ],
      [
        "face",
        -8.344328990001395
      ],
      [
        "coming",
        -8.350972756413332
      ],
      [
        "looking",
        -8.351360700497601
      ],
      [
        "case",
        -8.353841168364802
      ],
      [
        "believe",
        -8.356710776014173
      ],
      [
        "huh",
        -8.36097834445991
      ],
      [
        "though",
        -8.36692155656316
      ],
      [
        "against",
        -8.368073388714668
      ],
      [
        "x",
        -8.368446927811355
      ],
      [
        "small",
        -8.37502015535988
      ],
      [
        "problem",
        -8.377779013853697
      ],
      [
        "hard",
        -8.378041336952272
      ],
      [
        "without",
        -8.383048191412449
      ],
      [
        "far",
        -8.383403123014999
      ],
      [
        "quite",
        -8.384871610355331
      ],
      [
        "minute",
        -8.395072782971306
      ],
      [
        "few",
        -8.39543013443891
      ],
      [
        "ask",
        -8.395601807669426
      ],
      [
        "open",
        -8.400825996799982
      ],
      [
        "ness",
        -8.403022060395806
      ],
      [
        "became",
        -8.404763448167248
      ],
      [
        "book",
        -8.40755783433395
      ],
      [
        "19",
        -8.407679757366912
      ],
      [
        "young",
        -8.408031972722654
      ],
      [
        "children",
        -8.408575903497987
      ],
      [
        "town",
        -8.409870498041562
      ],
      [
        "person",
        -8.414852027843887
      ],
      [
        "),",
        -8.415129821056963
      ],
      [
        "remember",
        -8.41734172138485
      ],
      [
        "died",
        -8.422533921184431
      ],
      [
        "done",
        -8.423339585823246
      ],
      [
        "try",
        -8.423936724348353
      ],
      [
        "game",
        -8.424365555979815
      ],
      [
        "care",
        -8.426542695743642
      ],
      [
        "group",
        -8.429666303209416
      ],
      [
        "mind",
        -8.430181518056502
      ],
      [
        "order",
        -8.431380672468862
      ],
      [
        "seen",
        -8.433126201036941
      ],
      [
        "j",
        -8.437510301940044
      ],
      [
        "woman",
        -8.437709777526269
      ],
      [
        "getting",
        -8.43863055303524
      ],
      [
        "morning",
        -8.45502589311849
      ],
      [
        "hear",
        -8.46220121227538
      ],
      [
        "half",
        -8.464295138877347
      ],
      [
        ").",
        -8.468074804306571
      ],
      [
        "happened",
        -8.476796475985307
      ],
      [
        "having",
        -8.47838452471055
      ],
      [
        "land",
        -8.480553887441715
      ],
      [
        "death",
        -8.484417573529454
      ],
      [
        "run",
        -8.488596388774884
      ],
      [
        "john",
        -8.492162341792882
      ],
      [
        "north",
        -8.494180997225016
      ],
      [
        "light",
        -8.497287872505469
      ],
      [
        "asked",
        -8.498787560759173
      ],
      [
        "country",
        -8.49940806064387
      ],
      [
        "age",
        -8.501773729525317
      ],
      [
        "whole",
        -8.503627074987552
      ],
      [
        "real",
        -8.511993600658894
      ],
      [
        "heard",
        -8.515740602661914
      ],
      [
        "bring",
        -8.51714845854198
      ],
      [
        "question",
        -8.52164775055168
      ],
      [
        "friend",
        -8.52267010192023
      ],
      [
        "guy",
        -8.527080344610408
      ],
      [
        "universit",
        -8.527201752355067
      ],
      [
        "large",
        -8.530155591758309
      ],
      [
        "team",
        -8.537572817051906
      ],
      [
        "gave",
        -8.547705279313952
      ],
      [
        "south",
        -8.550490021844222
      ],
      [
        "himself",
        -8.551435601975863
      ],
      [
        "shall",
        -8.556868458645523
      ],
      [
        "less",
        -8.557857601453428
      ],
      [
        "says",
        -8.559241139069727
      ],
      [
        "important",
        -8.55951257305911
      ],
      [
        "cause",
        -8.560689213400885
      ],
      [
        "job",
        -8.562429946433681
      ],
      [
        "white",
        -8.562598469291569
      ],
      [
        "county",
        -8.565589962335705
      ],
      [
        "understand",
        -8.567698544789636
      ],
      [
        "already",
        -8.571516417288331
      ],
      [
        "movie",
        -8.57212678571407
      ],
      [
        "release",
        -8.572298735791696
      ],
      [
        "president",
        -8.572559809548395
      ],
      [
        "dead",
        -8.573850046795721
      ],
      [
        "fine",
        -8.579449318966816
      ],
      [
        "days",
        -8.58167675185667
      ],
      [
        "word",
        -8.582843518504788
      ],
      [
        "upon",
        -8.586124007675146
      ],
      [
        "wrong",
        -8.586373040910644
      ],
      [
        "six",
        -8.587523461780284
      ],
      [
        "turn",
        -8.588857938589966
      ],
      [
        "eyes",
        -8.5894889114537
      ],
      [
        "music",
        -8.591717251842983
      ],
      [
        "door",
        -8.592666433212713
      ],
      [
        "10",
        -8.593640030030492
      ],
      [
        "knew",
        -8.59694182308515
      ],
      [
        "women",
        -8.597684014238473
      ],
      [
        "national",
        -8.598541327516935
      ],
      [
        "red",
        -8.59978501987802
      ],
      [
        "round",
        -8.60177429717275
      ],
      [
        "talking",
        -8.602025655533645
      ],
      [
        "system",
        -8.602168027279804
      ],
      [
        "full",
        -8.604756634210757
      ],
      [
        "sort",
        -8.610803447168013
      ],
      [
        "self",
        -8.612148278695614
      ],
      [
        "fire",
        -8.61650801883263
      ],
      [
        "saying",
        -8.61690418300526
      ],
      [
        "black",
        -8.618175072737113
      ],
      [
        "power",
        -8.619325563150722
      ],
      [
        "someone",
        -8.619425690296325
      ],
      [
        "speak",
        -8.622964038690396
      ],
      [
        "?\"",
        -8.622989352828057
      ],
      [
        "trying",
        -8.632956729274248
      ],
      [
        "often",
        -8.634284677319227
      ],
      [
        "hold",
        -8.635708786438268
      ],
      [
        "idea",
        -8.636656079653115
      ],
      [
        "certain",
        -8.63709020489099
      ],
      [
        "general",
        -8.638381506780437
      ],
      [
        "kill",
        -8.643278580946651
      ],
      [
        "miss",
        -8.644006079429097
      ],
      [
        "pretty",
        -8.646020675673473
      ],
      [
        "began",
        -8.647929352646763
      ],
      [
        "matter",
        -8.648040935998115
      ],
      [
        "started",
        -8.65142116691893
      ],
      [
        "ar",
        -8.651668682098101
      ],
      [
        "party",
        -8.651781519986514
      ],
      [
        "heart",
        -8.65638788689189
      ],
      [
        "soon",
        -8.659354700351813
      ],
      [
        "probabl",
        -8.661989193576094
      ],
      [
        "!\"",
        -8.663276696993847
      ],
      [
        "read",
        -8.664289090962765
      ],
      [
        "/",
        -8.666523876598685
      ],
      [
        "government",
        -8.667585887519682
      ],
      [
        "wife",
        -8.669417594492458
      ],
      [
        "wanna",
        -8.67166306812968
      ],
      [
        "top",
        -8.672176486821495
      ],
      [
        "moment",
        -8.672199822723481
      ],
      [
        "brother",
        -8.676197938076868
      ],
      [
        "gone",
        -8.680444741803708
      ],
      [
        "close",
        -8.681017042445795
      ],
      [
        "pay",
        -8.682696408983595
      ],
      [
        "000",
        -8.685642521210049
      ],
      [
        ".”",
        -8.687805318556109
      ],
      [
        "late",
        -8.695918606785684
      ],
      [
        "station",
        -8.701749500532493
      ],
      [
        "making",
        -8.70776543806273
      ],
      [
        "along",
        -8.713346084733645
      ],
      [
        "business",
        -8.714550104755492
      ],
      [
        "story",
        -8.717071644997255
      ],
      [
        "hello",
        -8.719257504191425
      ],
      [
        "dad",
        -8.719423108363085
      ],
      [
        "fact",
        -8.720303255266565
      ],
      [
        "seem",
        -8.722803481572672
      ],
      [
        "ary",
        -8.724458610964739
      ],
      [
        "service",
        -8.725614374988048
      ],
      [
        "goes",
        -8.726994432705865
      ],
      [
        "times",
        -8.727966688805807
      ],
      [
        "baby",
        -8.730491442071433
      ],
      [
        "ready",
        -8.731336899248685
      ],
      [
        "count",
        -8.734386516477096
      ],
      [
        "true",
        -8.738707325488154
      ],
      [
        "lost",
        -8.739396041314148
      ],
      [
        "air",
        -8.73968342372839
      ],
      [
        "playe",
        -8.743119666433536
      ],
      [
        "199",
        -8.746415373766862
      ],
      [
        "early",
        -8.753314687650931
      ],
      [
        "ship",
        -8.753403196745928
      ],
      [
        "human",
        -8.756433303147395
      ],
      [
        "blood",
        -8.756759537724346
      ],
      [
        "company",
        -8.761342128515874
      ],
      [
        "sometimes",
        -8.763838526814517
      ],
      [
        "week",
        -8.764387573933995
      ],
      [
        "main",
        -8.769046726436919
      ],
      [
        "english",
        -8.773336121928157
      ],
      [
        "working",
        -8.775437069471494
      ],
      [
        "film",
        -8.775740675042815
      ],
      [
        "almost",
        -8.780962981341318
      ],
      [
        "example",
        -8.781373428736922
      ],
      [
        "million",
        -8.789943724852664
      ],
      [
        "15",
        -8.790226778213118
      ],
      [
        "197",
        -8.793173550931254
      ],
      [
        "guys",
        -8.795494557263417
      ],
      [
        "yourself",
        -8.799618021410119
      ],
      [
        "building",
        -8.804856558894578
      ],
      [
        "looked",
        -8.805111435829758
      ],
      [
        "france",
        -8.805944816539867
      ],
      [
        "listen",
        -8.8089227383701
      ],
      [
        "hope",
        -8.80895437254713
      ],
      [
        "daughter",
        -8.809909405070917
      ],
      [
        "drink",
        -8.813551627459809
      ],
      [
        "means",
        -8.817911827093601
      ],
      [
        "near",
        -8.819105298076774
      ],
      [
        "become",
        -8.822527753855624
      ],
      [
        "island",
        -8.823572164217413
      ],
      [
        "cut",
        -8.823818186398498
      ],
      [
        "body",
        -8.826735187041445
      ],
      [
        "18",
        -8.829094328725589
      ],
      [
        "free",
        -8.832396896509126
      ],
      [
        "happy",
        -8.834978868936362
      ],
      [
        "short",
        -8.835928049850203
      ],
      [
        "march",
        -8.836335805972633
      ],
      [
        "198",
        -8.837722914943065
      ],
      [
        "law",
        -8.83896362340504
      ],
      [
        "z",
        -8.839820486587213
      ],
      [
        "west",
        -8.843974723443962
      ],
      [
        "sleep",
        -8.85179502727915
      ],
      [
        "#",
        -8.858515661669864
      ],
      [
        "hands",
        -8.859495452890668
      ],
      [
        "mrs",
        -8.861658579946251
      ],
      [
        "district",
        -8.864190256489035
      ],
      [
        "stuff",
        -8.868507406619258
      ],
      [
        "killed",
        -8.877314649906486
      ],
      [
        "guess",
        -8.879394885845578
      ],
      [
        "child",
        -8.881239728065848
      ],
      [
        "meet",
        -8.888707458266248
      ],
      [
        "12",
        -8.890562796855017
      ],
      [
        "field",
        -8.891950424434782
      ],
      [
        "watch",
        -8.894274668900163
      ],
      [
        "januar",
        -8.8952895271419
      ],
      [
        "myself",
        -8.895549850261938
      ],
      [
        "food",
        -8.904088507844278
      ],
      [
        "several",
        -8.904489681877704
      ],
      [
        "force",
        -8.90459091428843
      ],
      [
        "brought",
        -8.905285824654998
      ],
      [
        "hat",
        -8.905634519295939
      ],
      [
        "given",
        -8.909901479708697
      ],
      [
        "front",
        -8.911226663153737
      ],
      [
        "piece",
        -8.914583930545076
      ],
      [
        "court",
        -8.914801415336669
      ],
      [
        "song",
        -8.916038391431222
      ],
      [
        "taking",
        -8.916822337930007
      ],
      [
        "least",
        -8.91741349963225
      ],
      [
        "behind",
        -8.918239738054332
      ],
      [
        "captain",
        -8.9207904975259
      ],
      [
        "office",
        -8.921085326233008
      ],
      [
        "thanks",
        -8.9216327733869
      ],
      [
        "york",
        -8.921956466210286
      ],
      [
        "wouldn",
        -8.923528702199372
      ],
      [
        "either",
        -8.929126913821023
      ],
      [
        "river",
        -8.929469963992092
      ],
      [
        "alright",
        -8.930162646736877
      ],
      [
        "friends",
        -8.93221040109831
      ],
      [
        "paper",
        -8.933744902553205
      ],
      [
        "196",
        -8.933879892703075
      ],
      [
        "rest",
        -8.935090402401357
      ],
      [
        "record",
        -8.93868604013694
      ],
      [
        "married",
        -8.93871319088727
      ],
      [
        "poor",
        -8.945039557986155
      ],
      [
        "alone",
        -8.946991198692738
      ],
      [
        "rather",
        -8.948296594354142
      ],
      [
        "ball",
        -8.948742020878896
      ],
      [
        "public",
        -8.948845822091723
      ],
      [
        "language",
        -8.951160608981233
      ],
      [
        "deal",
        -8.954425732269005
      ],
      [
        "answer",
        -8.957417501140728
      ],
      [
        "perhaps",
        -8.966162195640697
      ],
      [
        "beautiful",
        -8.966704279988063
      ],
      [
        "words",
        -8.96842612892634
      ],
      [
        "using",
        -8.968514983705177
      ],
      [
        "single",
        -8.96935730655715
      ],
      [
        "living",
        -8.972600592401088
      ],
      [
        "form",
        -8.973372561344155
      ],
      [
        "road",
        -8.975516583029862
      ],
      [
        "third",
        -8.97826781255917
      ],
      [
        "player",
        -8.979406591825818
      ],
      [
        "turned",
        -8.983762664886243
      ],
      [
        "common",
        -8.984253802218927
      ],
      [
        "doctor",
        -8.985686667236223
      ],
      [
        "reason",
        -8.987797092061282
      ],
      [
        "east",
        -8.98874887385846
      ],
      [
        "usual",
        -8.991927331138031
      ],
      [
        "ally",
        -8.994311573891398
      ],
      [
        "mom",
        -8.994776423306547
      ],
      [
        "everyone",
        -8.99655184865723
      ],
      [
        "eight",
        -8.996674952483904
      ],
      [
        "church",
        -9.00251249618626
      ],
      [
        "$",
        -9.004089363165019
      ],
      [
        "16",
        -9.004374948001296
      ],
      [
        "street",
        -9.008751056949265
      ],
      [
        "present",
        -9.009352750570454
      ],
      [
        "lady",
        -9.013950294178358
      ],
      [
        "term",
        -9.015530186679959
      ],
      [
        "taken",
        -9.017113099083359
      ],
      [
        "fight",
        -9.017870995945476
      ],
      [
        "held",
        -9.0210575812322
      ],
      [
        "dear",
        -9.021723079105978
      ],
      [
        "hundred",
        -9.02267628798841
      ],
      [
        "sister",
        -9.02371507359141
      ],
      [
        "voice",
        -9.02387921467055
      ],
      [
        "level",
        -9.024813297168983
      ],
      [
        "include",
        -9.026543781151581
      ],
      [
        "happen",
        -9.028151034534785
      ],
      [
        "centur",
        -9.028790278664179
      ],
      [
        "past",
        -9.0301747874817
      ],
      [
        "phone",
        -9.03598619426236
      ],
      [
        "cos",
        -9.038650277259345
      ],
      [
        "park",
        -9.042405128128298
      ],
      [
        "police",
        -9.042985190093951
      ],
      [
        "album",
        -9.044167869226499
      ],
      [
        "based",
        -9.048695662709084
      ],
      [
        "thinking",
        -9.050489543029297
      ],
      [
        "local",
        -9.050656107354783
      ],
      [
        "british",
        -9.051190515899073
      ],
      [
        "built",
        -9.053371093010803
      ],
      [
        "season",
        -9.057252915618026
      ],
      [
        "history",
        -9.061131930560489
      ],
      [
        "inside",
        -9.065061848332647
      ],
      [
        "write",
        -9.065960469142244
      ],
      [
        "17",
        -9.06605683651393
      ],
      [
        "wood",
        -9.07127694663393
      ],
      [
        "green",
        -9.072338258350078
      ],
      [
        "buy",
        -9.076774276995419
      ],
      [
        ",”",
        -9.077693030317779
      ],
      [
        "clear",
        -9.078422496955962
      ],
      [
        "receive",
        -9.079402895091743
      ],
      [
        "led",
        -9.07995257350077
      ],
      [
        "exactly",
        -9.082627059505073
      ],
      [
        "following",
        -9.083619512990623
      ],
      [
        "jul",
        -9.084321343297578
      ],
      [
        "walk",
        -9.087533796326353
      ],
      [
        "includin",
        -9.087752326970891
      ],
      [
        "region",
        -9.088256853461864
      ],
      [
        "check",
        -9.09090534665591
      ],
      [
        "ago",
        -9.09098266486826
      ],
      [
        "sent",
        -9.09121181956682
      ],
      [
        "30",
        -9.093467044401896
      ],
      [
        "german",
        -9.095545148848295
      ],
      [
        "couldn",
        -9.095776243725524
      ],
      [
        "original",
        -9.096353541090528
      ],
      [
        "wish",
        -9.096668142677217
      ],
      [
        "rock",
        -9.099171244679972
      ],
      [
        "hell",
        -9.100069310435849
      ],
      [
        "outside",
        -9.102813444707548
      ],
      [
        "act",
        -9.103116792531678
      ],
      [
        "twenty",
        -9.103417404993968
      ],
      [
        "special",
        -9.104011060901588
      ],
      [
        "mine",
        -9.105461431006294
      ],
      [
        "continue",
        -9.106199956235074
      ],
      [
        "blue",
        -9.10764880266537
      ],
      [
        "bird",
        -9.109241815332513
      ],
      [
        "major",
        -9.109280498771017
      ],
      [
        "ity",
        -9.110527223987415
      ],
      [
        "playing",
        -9.11121702785617
      ],
      [
        "across",
        -9.112037194179347
      ],
      [
        "gotta",
        -9.113243736559456
      ],
      [
        "%",
        -9.114553534530021
      ],
      [
        "club",
        -9.114655660577696
      ],
      [
        "result",
        -9.117139301523611
      ],
      [
        "everybody",
        -9.117820638939001
      ],
      [
        "fall",
        -9.11927326134413
      ],
      [
        "member",
        -9.120271231824761
      ],
      [
        "master",
        -9.122312117746205
      ],
      [
        "whatever",
        -9.122562046747802
      ],
      [
        "tomorrow",
        -9.123275156301201
      ],
      [
        "population",
        -9.124959862785484
      ],
      [
        "june",
        -9.127231334782579
      ],
      [
        "french",
        -9.129002400328163
      ],
      [
        "chance",
        -9.130639468118046
      ],
      [
        "fuck",
        -9.13152738617698
      ],
      [
        "ground",
        -9.132148690274
      ],
      [
        "possible",
        -9.132270598787951
      ],
      [
        "sound",
        -9.13399233046421
      ],
      [
        "college",
        -9.13645248852549
      ],
      [
        "written",
        -9.137705518863985
      ],
      [
        "dark",
        -9.138110487478631
      ],
      [
        "department",
        -9.13835022878245
      ],
      [
        "consider",
        -9.138688053501568
      ],
      [
        "eries",
        -9.140516197142663
      ],
      [
        "anyone",
        -9.144816039935197
      ],
      [
        "whether",
        -9.150639209269515
      ],
      [
        "ries",
        -9.152407698639536
      ],
      [
        "return",
        -9.15360246684368
      ],
      [
        "support",
        -9.154018652822266
      ],
      [
        "gold",
        -9.154470202767142
      ],
      [
        "august",
        -9.154918693747394
      ],
      [
        "shit",
        -9.156213276736668
      ],
      [
        "anyway",
        -9.159467532090215
      ],
      [
        "months",
        -9.159864598712772
      ],
      [
        "couple",
        -9.160427256586754
      ],
      [
        "cold",
        -9.16212107842858
      ],
      [
        "earth",
        -9.16379536686756
      ],
      [
        "hair",
        -9.163860403036939
      ],
      [
        "easy",
        -9.164467335169022
      ],
      [
        "former",
        -9.16520015056813
      ],
      [
        "table",
        -9.167987450150395
      ],
      [
        "haven",
        -9.169333284478252
      ],
      [
        "shot",
        -9.170350596164942
      ],
      [
        "tried",
        -9.170377656431224
      ],
      [
        "lord",
        -9.17158085959107
      ],
      [
        "rule",
        -9.173380681691159
      ],
      [
        "pril",
        -9.175953055118963
      ],
      [
        "space",
        -9.17678890168649
      ],
      [
        "till",
        -9.178370948215406
      ],
      [
        "sense",
        -9.178785531520733
      ],
      [
        "cost",
        -9.180891902084223
      ],
      [
        "dog",
        -9.186292575511896
      ],
      [
        "break",
        -9.186803763125862
      ],
      [
        "felt",
        -9.186936176826187
      ],
      [
        "thousand",
        -9.188644421818996
      ],
      [
        "issue",
        -9.188842223147827
      ],
      [
        "village",
        -9.189945035989862
      ],
      [
        "octob",
        -9.190332251579067
      ],
      [
        "trouble",
        -9.190892346211438
      ],
      [
        "aught",
        -9.191989874624085
      ],
      [
        "london",
        -9.19247489640697
      ],
      [
        "save",
        -9.194001492705263
      ],
      [
        "husband",
        -9.195738671971716
      ],
      [
        "character",
        -9.196105332753998
      ],
      [
        "football",
        -9.197834188072628
      ],
      [
        "11",
        -9.201673501422164
      ],
      [
        "control",
        -9.201696154230053
      ],
      [
        "star",
        -9.206245903507487
      ],
      [
        "december",
        -9.209412257773993
      ],
      [
        "america",
        -9.21290428807299
      ],
      [
        "instead",
        -9.21305665713751
      ],
      [
        "information",
        -9.21402917099018
      ],
      [
        "england",
        -9.215350119190841
      ],
      [
        "november",
        -9.216320657616437
      ],
      [
        "particular",
        -9.221192524626101
      ],
      [
        "among",
        -9.221265110728645
      ],
      [
        "looks",
        -9.22196998244981
      ],
      [
        "plan",
        -9.222984953241436
      ],
      [
        "army",
        -9.227242695765574
      ],
      [
        "worked",
        -9.227642044791633
      ],
      [
        "hurt",
        -9.228480638792416
      ],
      [
        "nine",
        -9.229487755614338
      ],
      [
        "somebody",
        -9.232057406321273
      ],
      [
        "produce",
        -9.233050867010373
      ],
      [
        "comes",
        -9.233121323367653
      ],
      [
        "throw",
        -9.233130952184577
      ],
      [
        "wrote",
        -9.234529847901753
      ],
      [
        "view",
        -9.23672846225513
      ],
      [
        "peter",
        -9.237127343342785
      ],
      [
        "per",
        -9.23833249120764
      ],
      [
        "commune",
        -9.238492484223052
      ],
      [
        "television",
        -9.243030771420404
      ],
      [
        "14",
        -9.246610693137214
      ],
      [
        "class",
        -9.247353636911118
      ],
      [
        "gun",
        -9.248042452672763
      ],
      [
        "attack",
        -9.24927229941324
      ],
      [
        "bed",
        -9.250183978554643
      ],
      [
        "hour",
        -9.25513750972798
      ],
      [
        "—",
        -9.258989623684222
      ],
      [
        "video",
        -9.26026222957783
      ],
      [
        "ran",
        -9.260325934772075
      ],
      [
        "tree",
        -9.260340891895225
      ],
      [
        "figure",
        -9.261509391339356
      ],
      [
        "report",
        -9.26197634662325
      ],
      [
        "position",
        -9.262171677468938
      ],
      [
        "ring",
        -9.264922484550858
      ],
      [
        "makes",
        -9.265320955259954
      ],
      [
        "fun",
        -9.267132650260116
      ],
      [
        "program",
        -9.26828707706376
      ],
      [
        "0",
        -9.269187768926985
      ],
      [
        "members",
        -9.272620511476433
      ],
      [
        "seven",
        -9.272638158347636
      ],
      [
        "lay",
        -9.273027409054112
      ],
      [
        "fell",
        -9.273156367280212
      ],
      [
        "drive",
        -9.273934623971215
      ],
      [
        "although",
        -9.274084165506412
      ],
      [
        "list",
        -9.275581016243045
      ],
      [
        "promise",
        -9.279612647152408
      ],
      [
        "daddy",
        -9.280541873104106
      ],
      [
        "hours",
        -9.280855530969355
      ],
      [
        "experience",
        -9.28141717608477
      ],
      [
        "george",
        -9.281610501984867
      ],
      [
        "truth",
        -9.281728176373532
      ],
      [
        "shut",
        -9.282328274235008
      ],
      [
        "worry",
        -9.282827090380874
      ],
      [
        "pick",
        -9.283905127034245
      ],
      [
        "picture",
        -9.285656112659954
      ],
      [
        "strong",
        -9.285800243488005
      ],
      [
        "communit",
        -9.286275964562751
      ],
      [
        "serious",
        -9.28668830252958
      ],
      [
        "follow",
        -9.288384301739793
      ],
      [
        "tonight",
        -9.289967726423502
      ],
      [
        "feet",
        -9.29065216282325
      ],
      [
        "2013",
        -9.290994550601724
      ],
      [
        "boys",
        -9.291766777612736
      ],
      [
        "stand",
        -9.293511994993183
      ],
      [
        "horse",
        -9.296040847138709
      ],
      [
        "board",
        -9.299647003513133
      ],
      [
        "international",
        -9.300380163854406
      ],
      [
        "letter",
        -9.3013875932685
      ],
      [
        "ought",
        -9.303754118906838
      ],
      [
        "equal",
        -9.306708723921005
      ],
      [
        "league",
        -9.309586955860764
      ],
      [
        "2010",
        -9.31008752778158
      ],
      [
        "running",
        -9.31089766836729
      ],
      [
        "excuse",
        -9.312321068579827
      ],
      [
        "195",
        -9.313844974114932
      ],
      [
        "low",
        -9.314422197285047
      ],
      [
        "13",
        -9.31752194717065
      ],
      [
        "box",
        -9.319367613585417
      ],
      [
        "type",
        -9.322125340806437
      ],
      [
        "kids",
        -9.325153910985588
      ],
      [
        "longer",
        -9.3262001287413
      ],
      [
        "meeting",
        -9.326387007811626
      ],
      [
        "sun",
        -9.326653317961508
      ],
      [
        "queen",
        -9.328163246553832
      ],
      [
        "clean",
        -9.328868592690137
      ],
      [
        "afraid",
        -9.330826150484608
      ],
      [
        "fish",
        -9.331149910776933
      ],
      [
        "middle",
        -9.331212983811358
      ],
      [
        "due",
        -9.332796315051965
      ],
      [
        "fucking",
        -9.333803859089931
      ],
      [
        "25",
        -9.341598805013653
      ],
      [
        "dance",
        -9.342605991770963
      ],
      [
        "ca",
        -9.342923899357881
      ],
      [
        "worth",
        -9.347606684777226
      ],
      [
        "supposed",
        -9.34813449184932
      ],
      [
        "square",
        -9.352978482311702
      ],
      [
        "cannot",
        -9.353924495242799
      ],
      [
        "james",
        -9.35393619712615
      ],
      [
        "fast",
        -9.35480880940815
      ],
      [
        "mouth",
        -9.356861544224579
      ],
      [
        "learn",
        -9.358266783288387
      ],
      [
        "career",
        -9.358596974458287
      ],
      [
        "194",
        -9.362603482329689
      ],
      [
        "cup",
        -9.364195856820686
      ],
      [
        "summer",
        -9.364525559508401
      ],
      [
        "union",
        -9.365362786257482
      ],
      [
        "cover",
        -9.365460874826015
      ],
      [
        "waiting",
        -9.369139423195943
      ],
      [
        "kept",
        -9.379526207613054
      ],
      [
        "center",
        -9.379724935867362
      ],
      [
        "interest",
        -9.379963699606442
      ],
      [
        "100",
        -9.380401303584751
      ],
      [
        "kid",
        -9.382103972568341
      ],
      [
        "games",
        -9.382470685421708
      ],
      [
        "wonder",
        -9.382739079949467
      ],
      [
        "art",
        -9.385275010862706
      ],
      [
        "match",
        -9.386560629800968
      ],
      [
        "color",
        -9.387114465455664
      ],
      [
        "crie",
        -9.38843768023992
      ],
      [
        "fair",
        -9.390006025770926
      ],
      [
        "total",
        -9.390790120147841
      ],
      [
        "send",
        -9.394208437325368
      ],
      [
        "value",
        -9.397401425708878
      ],
      [
        "title",
        -9.399749993597373
      ],
      [
        "final",
        -9.400614228097492
      ],
      [
        "science",
        -9.400966078361588
      ],
      [
        "lead",
        -9.401319870298142
      ],
      [
        "share",
        -9.404154160146916
      ],
      [
        "honey",
        -9.40639117235132
      ],
      [
        "plant",
        -9.407962424122728
      ],
      [
        "province",
        -9.408325691129093
      ],
      [
        "news",
        -9.408996242122704
      ],
      [
        "sign",
        -9.410898079207586
      ],
      [
        "mommy",
        -9.412635819608548
      ],
      [
        "seemed",
        -9.412704889723685
      ],
      [
        "draw",
        -9.413397650353824
      ],
      [
        "mhm",
        -9.415893559408694
      ],
      [
        "above",
        -9.41683456112059
      ],
      [
        "quick",
        -9.418096156296539
      ],
      [
        "others",
        -9.418744800875654
      ],
      [
        "pound",
        -9.420059701674809
      ],
      [
        "wind",
        -9.422151938127705
      ],
      [
        "period",
        -9.424453967215166
      ],
      [
        "indian",
        -9.424881012255103
      ],
      [
        "michael",
        -9.425413096187222
      ],
      [
        "further",
        -9.426223262070048
      ],
      [
        "famous",
        -9.427558947068462
      ],
      [
        "project",
        -9.429829569596972
      ],
      [
        "22",
        -9.429862281268047
      ],
      [
        "created",
        -9.430485970589132
      ],
      [
        "within",
        -9.431003950771188
      ],
      [
        "popular",
        -9.431192758174946
      ],
      [
        "study",
        -9.433453479480193
      ],
      [
        "jack",
        -9.434404333915579
      ],
      [
        "visit",
        -9.434921392931646
      ],
      [
        "social",
        -9.435048720841479
      ],
      [
        "role",
        -9.435266591196353
      ],
      [
        "sweet",
        -9.43770646232173
      ],
      [
        "provide",
        -9.438441869241291
      ],
      [
        "funny",
        -9.43920443294456
      ],
      [
        "forget",
        -9.439302624800522
      ],
      [
        "central",
        -9.44160453177497
      ],
      [
        "evening",
        -9.442123629633517
      ],
      [
        "sep",
        -9.442221877333159
      ],
      [
        "mark",
        -9.443055381939963
      ],
      [
        "bill",
        -9.447103099985343
      ],
      [
        "according",
        -9.448841268481367
      ],
      [
        "amount",
        -9.449067884862032
      ],
      [
        "chief",
        -9.44944882560943
      ],
      [
        "societ",
        -9.455671571357197
      ],
      [
        "feeling",
        -9.456371015831497
      ],
      [
        "thou",
        -9.45672152820472
      ],
      [
        "difficult",
        -9.457173188442006
      ],
      [
        "page",
        -9.457513930351842
      ],
      [
        "natural",
        -9.458218432854942
      ],
      [
        "cool",
        -9.458562399847573
      ],
      [
        "rose",
        -9.459817179589866
      ],
      [
        "raise",
        -9.459942944238335
      ],
      [
        "girls",
        -9.463249481383768
      ],
      [
        "bridge",
        -9.46424579975681
      ],
      [
        "wear",
        -9.464967999215347
      ],
      [
        "floor",
        -9.466258111514358
      ],
      [
        "direct",
        -9.467249770571598
      ],
      [
        "hill",
        -9.467920058458366
      ],
      [
        "official",
        -9.468937945021615
      ],
      [
        "step",
        -9.469718932881287
      ],
      [
        "trust",
        -9.470849932881972
      ],
      [
        "lives",
        -9.47147729572892
      ],
      [
        "feature",
        -9.47185929731611
      ],
      [
        "*",
        -9.473510345189421
      ],
      [
        "bar",
        -9.476157513799519
      ],
      [
        "capital",
        -9.47761109070074
      ],
      [
        "tember",
        -9.478009362712072
      ],
      [
        "future",
        -9.478979866142396
      ],
      [
        "japan",
        -9.479895377788415
      ],
      [
        "market",
        -9.48115393793162
      ],
      [
        "works",
        -9.482170135286477
      ],
      [
        "50",
        -9.48383824389877
      ],
      [
        "decided",
        -9.483917969173898
      ],
      [
        "hospital",
        -9.484389348591288
      ],
      [
        "cross",
        -9.48582180888311
      ],
      [
        "minister",
        -9.488485472569185
      ],
      [
        "193",
        -9.488727673916534
      ],
      [
        "seat",
        -9.489985634335136
      ],
      [
        "wow",
        -9.490522053178491
      ],
      [
        "normal",
        -9.491221108062845
      ],
      [
        "ities",
        -9.493577569016207
      ],
      [
        "bigge",
        -9.496335370258588
      ],
      [
        "bear",
        -9.497663531250247
      ],
      [
        "foot",
        -9.498666553311294
      ],
      [
        "served",
        -9.50034552768387
      ],
      [
        "test",
        -9.505284864046875
      ],
      [
        "train",
        -9.505394647241811
      ],
      [
        "size",
        -9.506104580510328
      ],
      [
        "india",
        -9.507985601672926
      ],
      [
        "accept",
        -9.50810069726111
      ],
      [
        "teacher",
        -9.508375769395375
      ],
      [
        "nobody",
        -9.508992104336375
      ],
      [
        "enjoy",
        -9.509046608497492
      ],
      [
        "complete",
        -9.509555974987682
      ],
      [
        "crazy",
        -9.509913521908961
      ],
      [
        "month",
        -9.510750048125725
      ],
      [
        "telling",
        -9.510980797204033
      ],
      [
        "24",
        -9.511760201706377
      ],
      [
        "offer",
        -9.51269397482616
      ],
      [
        "stood",
        -9.513886869721448
      ],
      [
        "forest",
        -9.514074675956806
      ],
      [
        "ebru",
        -9.51468365634636
      ],
      [
        "quiet",
        -9.514755840451292
      ],
      [
        "soldier",
        -9.51544153280287
      ],
      [
        "japanese",
        -9.515525341755932
      ],
      [
        "design",
        -9.518027262508461
      ],
      [
        "whose",
        -9.519988874807972
      ],
      [
        "passed",
        -9.522320643889127
      ],
      [
        "version",
        -9.525218791569792
      ],
      [
        "bag",
        -9.529091782049367
      ],
      [
        "&",
        -9.529631518839523
      ],
      [
        "david",
        -9.53072526580383
      ],
      [
        "parents",
        -9.531663204733452
      ],
      [
        "suppose",
        -9.531837159220949
      ],
      [
        "protect",
        -9.532649659436593
      ],
      [
        "straight",
        -9.533964716529713
      ],
      [
        "ice",
        -9.53556684173051
      ],
      [
        "pened",
        -9.536701693380216
      ],
      [
        "beginning",
        -9.537286918559065
      ],
      [
        "effect",
        -9.53760930478716
      ],
      [
        "finally",
        -9.538109528413106
      ],
      [
        "similar",
        -9.541567805575117
      ],
      [
        "rich",
        -9.543128112701396
      ],
      [
        "writing",
        -9.54319222505794
      ],
      [
        "welcome",
        -9.546391848975556
      ],
      [
        "touch",
        -9.546821217716595
      ],
      [
        "agree",
        -9.54763317121961
      ],
      [
        "prince",
        -9.549520712773298
      ],
      [
        "race",
        -9.549817545515097
      ],
      [
        "oving",
        -9.550270001913935
      ],
      [
        "computer",
        -9.550295770223979
      ],
      [
        "post",
        -9.551185574117763
      ],
      [
        "difference",
        -9.551684924026082
      ],
      [
        "henry",
        -9.551742925322262
      ],
      [
        "stage",
        -9.552136612499304
      ],
      [
        "battle",
        -9.552359020976818
      ],
      [
        "returned",
        -9.553162298830326
      ],
      [
        "reache",
        -9.555493011323964
      ],
      [
        "interesting",
        -9.555520511026206
      ],
      [
        "sitting",
        -9.556715446320371
      ],
      [
        "01",
        -9.55819576115319
      ],
      [
        "award",
        -9.559489017997382
      ],
      [
        "modern",
        -9.560306948606456
      ],
      [
        "especially",
        -9.56138002943181
      ],
      [
        "”",
        -9.562643738375861
      ],
      [
        "professional",
        -9.56289709479657
      ],
      [
        "finished",
        -9.563663566991993
      ],
      [
        "action",
        -9.565854382228036
      ],
      [
        "specie",
        -9.566273883185115
      ],
      [
        "kingdom",
        -9.567306190964231
      ],
      [
        "sex",
        -9.573401102935012
      ],
      [
        "paid",
        -9.573614460132244
      ],
      [
        "wide",
        -9.574517697364612
      ],
      [
        "simple",
        -9.574576971282848
      ],
      [
        "strange",
        -9.574653322920074
      ],
      [
        "followed",
        -9.575817855052666
      ],
      [
        "lose",
        -9.57601421115861
      ],
      [
        "except",
        -9.578037560628065
      ],
      [
        "royal",
        -9.578170360868269
      ],
      [
        "officer",
        -9.579064889229446
      ],
      [
        "uncle",
        -9.579940511532154
      ],
      [
        "situation",
        -9.582198519894957
      ],
      [
        "allow",
        -9.582838462000801
      ],
      [
        "director",
        -9.5838935837101
      ],
      [
        "basic",
        -9.584446824924644
      ],
      [
        "health",
        -9.58449574639868
      ],
      [
        "leaving",
        -9.585369871322744
      ],
      [
        "mary",
        -9.5859645536031
      ],
      [
        "boat",
        -9.586505040232192
      ],
      [
        "site",
        -9.586840316117662
      ],
      [
        "giving",
        -9.587215212106933
      ],
      [
        "mention",
        -9.58748804519958
      ],
      [
        "themsel",
        -9.588080778622878
      ],
      [
        "animals",
        -9.588124879949461
      ],
      [
        "weeks",
        -9.589144903235855
      ],
      [
        "election",
        -9.590081663863696
      ],
      [
        "safe",
        -9.590850010107694
      ],
      [
        "anybody",
        -9.59168030740966
      ],
      [
        "pass",
        -9.591964080806248
      ],
      [
        "germany",
        -9.592154924055489
      ],
      [
        "catch",
        -9.593181027998224
      ],
      [
        "actor",
        -9.593651804420752
      ],
      [
        "forward",
        -9.593808273660525
      ],
      [
        "miles",
        -9.594436771652155
      ],
      [
        "stone",
        -9.596648344888312
      ],
      [
        "council",
        -9.59698173027104
      ],
      [
        "paul",
        -9.598774090347572
      ],
      [
        "condition",
        -9.599624958613717
      ],
      [
        "scene",
        -9.602605293571688
      ],
      [
        "development",
        -9.603804375620918
      ],
      [
        "political",
        -9.60594311184239
      ],
      [
        "appear",
        -9.606328765657883
      ],
      [
        "key",
        -9.60789964222706
      ],
      [
        "brown",
        -9.610656922833705
      ],
      [
        "appeared",
        -9.61180987607898
      ],
      [
        "secret",
        -9.611881893796344
      ],
      [
        "books",
        -9.612960132345743
      ],
      [
        "personal",
        -9.61329556808423
      ],
      [
        "subject",
        -9.61333618031286
      ],
      [
        "price",
        -9.615253618534599
      ],
      [
        "decision",
        -9.61574047085415
      ],
      [
        "glad",
        -9.616120434427621
      ],
      [
        "nature",
        -9.616188538330244
      ],
      [
        "flower",
        -9.616747204591178
      ],
      [
        "dream",
        -9.617566002513737
      ],
      [
        "private",
        -9.61914925598698
      ],
      [
        "model",
        -9.619410541447797
      ],
      [
        "chair",
        -9.620251090758089
      ],
      [
        "23",
        -9.62076440274851
      ],
      [
        "western",
        -9.622841815665343
      ],
      [
        "deep",
        -9.623177084124466
      ],
      [
        "towards",
        -9.623932240831579
      ],
      [
        "21",
        -9.624665290364035
      ],
      [
        "answered",
        -9.625033059545652
      ],
      [
        "leader",
        -9.625114670705113
      ],
      [
        "remain",
        -9.626120788568496
      ],
      [
        "indeed",
        -9.627576129955278
      ],
      [
        "beat",
        -9.6296698970093
      ],
      [
        "students",
        -9.630169462411146
      ],
      [
        "murder",
        -9.6308321513936
      ],
      [
        "education",
        -9.63608120806403
      ],
      [
        "publishe",
        -9.636162702436318
      ],
      [
        "window",
        -9.637348520109134
      ],
      [
        "located",
        -9.638136244097812
      ],
      [
        "lie",
        -9.640156582265199
      ],
      [
        "process",
        -9.640216038206303
      ],
      [
        "fear",
        -9.640554130266672
      ],
      [
        "cat",
        -9.645084779198832
      ],
      [
        "lower",
        -9.645311254327684
      ],
      [
        "radio",
        -9.646195443550301
      ],
      [
        "begin",
        -9.647156196798875
      ],
      [
        "standing",
        -9.652406226900286
      ],
      [
        "europe",
        -9.653731998281405
      ],
      [
        "garden",
        -9.654601811791434
      ],
      [
        "coast",
        -9.656175426815835
      ],
      [
        "product",
        -9.659166281152952
      ],
      [
        "ahead",
        -9.659409852157191
      ],
      [
        "happens",
        -9.659717906780376
      ],
      [
        "expect",
        -9.660681967859773
      ],
      [
        "pull",
        -9.66336622621043
      ],
      [
        "perfect",
        -9.663543338728108
      ],
      [
        "stick",
        -9.665043424489564
      ],
      [
        "port",
        -9.665433066204086
      ],
      [
        "dinner",
        -9.665758331695606
      ],
      [
        "somewhere",
        -9.668742713830367
      ],
      [
        "card",
        -9.669594800891563
      ],
      [
        "various",
        -9.669894980098587
      ],
      [
        "energy",
        -9.66993688533239
      ],
      [
        "plus",
        -9.671711943487521
      ],
      [
        "arm",
        -9.674447715554896
      ],
      [
        "wants",
        -9.674679441462093
      ],
      [
        "division",
        -9.676419676687317
      ],
      [
        "increase",
        -9.676694723031645
      ],
      [
        "grand",
        -9.677110106490145
      ],
      [
        "california",
        -9.677567225868906
      ],
      [
        "sick",
        -9.678433998420065
      ],
      [
        "ment",
        -9.679052286332798
      ],
      [
        "clothes",
        -9.680540152945046
      ],
      [
        "bank",
        -9.681182572143515
      ],
      [
        "date",
        -9.68304354504783
      ],
      [
        "william",
        -9.683648804398311
      ],
      [
        "damn",
        -9.685007374859401
      ],
      [
        "push",
        -9.685751076660718
      ],
      [
        "movement",
        -9.686708743936371
      ],
      [
        "trade",
        -9.68740109331432
      ],
      [
        "studie",
        -9.690734600506568
      ],
      [
        "machine",
        -9.690744884563324
      ],
      [
        "lected",
        -9.694935874233696
      ],
      [
        "speed",
        -9.69908073490408
      ],
      [
        "suggest",
        -9.69960464491546
      ],
      [
        "pain",
        -9.700255778206916
      ],
      [
        "obvious",
        -9.700951245307245
      ],
      [
        "explain",
        -9.702616924811874
      ],
      [
        "seeing",
        -9.704020408373097
      ],
      [
        "careful",
        -9.704025217927533
      ],
      [
        "robert",
        -9.704567739956614
      ],
      [
        "material",
        -9.70484428974765
      ],
      [
        "patient",
        -9.70530273368557
      ],
      [
        "llowed",
        -9.70584042976866
      ],
      [
        "describe",
        -9.706098822532823
      ],
      [
        "rate",
        -9.707120311849119
      ],
      [
        "wall",
        -9.708848583822476
      ],
      [
        "cook",
        -9.708886951479219
      ],
      [
        "message",
        -9.70941624351848
      ],
      [
        "involved",
        -9.712955120919442
      ],
      [
        "shoot",
        -9.71400568300768
      ],
      [
        "28",
        -9.714420564888423
      ],
      [
        "disease",
        -9.716805086311982
      ],
      [
        "militar",
        -9.71745787532603
      ],
      [
        "ailed",
        -9.720399295611113
      ],
      [
        "account",
        -9.721542396938215
      ],
      [
        "track",
        -9.72170821176311
      ],
      [
        "warm",
        -9.722849484125351
      ],
      [
        "mad",
        -9.724690291012795
      ],
      [
        "championship",
        -9.72612371760314
      ],
      [
        "ch",
        -9.727514296090751
      ],
      [
        "research",
        -9.730301190847468
      ],
      [
        "build",
        -9.73052156622136
      ],
      [
        "wild",
        -9.734048773851072
      ],
      [
        "sky",
        -9.7369242959016
      ],
      [
        "blow",
        -9.738155170351813
      ],
      [
        "dick",
        -9.73844451408802
      ],
      [
        "needed",
        -9.739940833406896
      ],
      [
        "lake",
        -9.740254610466863
      ],
      [
        "spirit",
        -9.741212255148396
      ],
      [
        "prime",
        -9.74349551055317
      ],
      [
        "finish",
        -9.743801842268287
      ],
      [
        "thus",
        -9.743998563067631
      ],
      [
        "immediate",
        -9.744669288796697
      ],
      [
        "frank",
        -9.74653128806978
      ],
      [
        "attention",
        -9.746984353790056
      ],
      [
        "previous",
        -9.74698546398337
      ],
      [
        "beside",
        -9.75157648202041
      ],
      [
        "eating",
        -9.752281307255751
      ],
      [
        "boss",
        -9.752354259520022
      ],
      [
        "broke",
        -9.75273766158984
      ],
      [
        "covered",
        -9.75462295881308
      ],
      [
        "spent",
        -9.755815929592927
      ],
      [
        "grow",
        -9.756588691334773
      ],
      [
        "hang",
        -9.75678238829255
      ],
      [
        "40",
        -9.757627810392096
      ],
      [
        "census",
        -9.760078872676889
      ],
      [
        "pop",
        -9.761767515967444
      ],
      [
        "dollar",
        -9.76260544859554
      ],
      [
        "artist",
        -9.762827119222177
      ],
      [
        "added",
        -9.763730921964159
      ],
      [
        "coach",
        -9.76469828442277
      ],
      [
        "peace",
        -9.764873783643552
      ],
      [
        "realize",
        -9.76609952366908
      ],
      [
        "animal",
        -9.766322011785928
      ],
      [
        "current",
        -9.76696122641132
      ],
      [
        "bu",
        -9.767601193610584
      ],
      [
        "?”",
        -9.768125947943386
      ],
      [
        "castle",
        -9.76829031317851
      ],
      [
        "rain",
        -9.771968414100165
      ],
      [
        "section",
        -9.77246490502086
      ],
      [
        "bought",
        -9.77316699000787
      ],
      [
        "grew",
        -9.7739925685729
      ],
      [
        "mountain",
        -9.775088292856946
      ],
      [
        "stopped",
        -9.776083935018859
      ],
      [
        "mum",
        -9.77757012850846
      ],
      [
        "clock",
        -9.779262445866951
      ],
      [
        "fellow",
        -9.779484202788792
      ],
      [
        "degree",
        -9.779845240000643
      ],
      [
        "glass",
        -9.780737597021643
      ],
      [
        "code",
        -9.78257329919748
      ],
      [
        "purpose",
        -9.783609715583422
      ],
      [
        "separate",
        -9.784926099674845
      ],
      [
        "reach",
        -9.785977854870188
      ],
      [
        "whom",
        -9.786365858860405
      ],
      [
        "episode",
        -9.786769091955616
      ],
      [
        "christian",
        -9.786796804364595
      ],
      [
        "asking",
        -9.787804574391966
      ],
      [
        "2009",
        -9.788149398083142
      ],
      [
        "quickl",
        -9.78838816948201
      ],
      [
        "arms",
        -9.78876865082021
      ],
      [
        "require",
        -9.790051220292268
      ],
      [
        "search",
        -9.792172404996844
      ],
      [
        "store",
        -9.794130505512161
      ],
      [
        "ancient",
        -9.796607057775837
      ],
      [
        "richard",
        -9.796678267140063
      ],
      [
        "hurry",
        -9.796936722595339
      ],
      [
        "honest",
        -9.79782036040411
      ],
      [
        "media",
        -9.799435458187252
      ],
      [
        "milk",
        -9.800395848091977
      ],
      [
        "production",
        -9.8008965107092
      ],
      [
        "alan",
        -9.800931590350068
      ],
      [
        "factor",
        -9.801327427946173
      ],
      [
        "practice",
        -9.804952743842449
      ],
      [
        "terribl",
        -9.80524518078569
      ],
      [
        "stairs",
        -9.805532349873888
      ],
      [
        "european",
        -9.806490730274344
      ],
      [
        "relationship",
        -9.807849979692325
      ],
      [
        "ves",
        -9.808459316983603
      ],
      [
        "marriage",
        -9.80893641548776
      ],
      [
        "\")",
        -9.810230276333616
      ],
      [
        "2008",
        -9.810838988183594
      ],
      [
        "soul",
        -9.811475994273463
      ],
      [
        "exist",
        -9.812081686846133
      ],
      [
        "stupid",
        -9.812513819187664
      ],
      [
        "simply",
        -9.813177193038586
      ],
      [
        "italian",
        -9.813306372031288
      ],
      [
        "virginia",
        -9.813662988424698
      ],
      [
        "travel",
        -9.813747713148498
      ],
      [
        "announce",
        -9.815077388771343
      ],
      [
        "entire",
        -9.815389162169035
      ],
      [
        "china",
        -9.815764306022345
      ],
      [
        "princess",
        -9.816574424143301
      ],
      [
        "contain",
        -9.817082084634183
      ],
      [
        "absolutel",
        -9.817152713502235
      ],
      [
        "27",
        -9.821679985586282
      ],
      [
        "completely",
        -9.822175816305734
      ],
      [
        "association",
        -9.822860952220019
      ],
      [
        "ended",
        -9.823089804667447
      ],
      [
        "imagine",
        -9.823362597649673
      ],
      [
        "network",
        -9.823651053229643
      ],
      [
        "wonderful",
        -9.82428730522314
      ],
      [
        "joined",
        -9.82469149847713
      ],
      [
        "watching",
        -9.826111436338964
      ],
      [
        "2000",
        -9.82643251675566
      ],
      [
        "length",
        -9.8267591843709
      ],
      [
        "carry",
        -9.82713986550134
      ],
      [
        "double",
        -9.827438685787033
      ],
      [
        "source",
        -9.827487500486715
      ],
      [
        "unless",
        -9.828098600268383
      ],
      [
        "meaning",
        -9.831129919463095
      ],
      [
        "thirty",
        -9.831978819881304
      ],
      [
        "vote",
        -9.831984666861928
      ],
      [
        "jim",
        -9.832625270702204
      ],
      [
        "sounds",
        -9.832914805043238
      ],
      [
        "politician",
        -9.833128857069536
      ],
      [
        "anne",
        -9.835903731603462
      ],
      [
        "joe",
        -9.836587090710914
      ],
      [
        "broken",
        -9.837298158529137
      ],
      [
        "style",
        -9.837502397363306
      ],
      [
        "opportunit",
        -9.838520136244663
      ],
      [
        "civil",
        -9.8390117852748
      ],
      [
        "heavy",
        -9.839681920173806
      ],
      [
        "proper",
        -9.841074263571919
      ],
      [
        "successful",
        -9.842246018927693
      ],
      [
        "lying",
        -9.84240951309793
      ],
      [
        "southern",
        -9.842807786189862
      ],
      [
        "jesu",
        -9.844749180847082
      ],
      [
        "individual",
        -9.84615826769922
      ],
      [
        "path",
        -9.847281360132047
      ],
      [
        "coffee",
        -9.850086190200507
      ],
      [
        "saint",
        -9.851961403180503
      ],
      [
        "bus",
        -9.855804967262452
      ],
      [
        "29",
        -9.855930625873041
      ],
      [
        "higher",
        -9.856011186011958
      ],
      [
        "26",
        -9.8563380933812
      ],
      [
        "professor",
        -9.856511907177172
      ],
      [
        "suddenl",
        -9.856783806285698
      ],
      [
        "northern",
        -9.85711881794348
      ],
      [
        "distance",
        -9.85807217796787
      ],
      [
        "edge",
        -9.859758681736295
      ],
      [
        "spring",
        -9.860433849551477
      ],
      [
        "join",
        -9.860828944667848
      ],
      [
        "founded",
        -9.86145712047875
      ],
      [
        "direction",
        -9.861586421186168
      ],
      [
        "below",
        -9.863062735759065
      ],
      [
        "influence",
        -9.863064727855367
      ],
      [
        "smile",
        -9.863378345946654
      ],
      [
        "storm",
        -9.863910331295397
      ],
      [
        "laugh",
        -9.864220901795415
      ],
      [
        "respect",
        -9.866492116393864
      ],
      [
        "agent",
        -9.867866211128536
      ],
      [
        "luck",
        -9.868187583560786
      ],
      [
        "evidence",
        -9.868382281848731
      ],
      [
        "winter",
        -9.869137062546248
      ],
      [
        "carried",
        -9.869235250879907
      ],
      [
        "securit",
        -9.8698270457684
      ],
      [
        "q",
        -9.86990385800309
      ],
      [
        "ation",
        -9.870562342396912
      ],
      [
        "charles",
        -9.871103536767627
      ],
      [
        "tired",
        -9.871880502363933
      ],
      [
        "training",
        -9.8768044933644
      ],
      [
        "mistake",
        -9.877949399705395
      ],
      [
        "spend",
        -9.878686854444304
      ],
      [
        "brain",
        -9.878739724686
      ],
      [
        "risk",
        -9.879024808025608
      ],
      [
        "christ",
        -9.879142495607635
      ],
      [
        "drop",
        -9.880316511413866
      ],
      [
        "hotel",
        -9.8804535484113
      ],
      [
        "washington",
        -9.880523421440571
      ],
      [
        "included",
        -9.881204465607894
      ],
      [
        "dry",
        -9.88146127546765
      ],
      [
        "regular",
        -9.88172188089513
      ],
      [
        "(\"",
        -9.882947438210035
      ],
      [
        "yesterday",
        -9.88313089783913
      ],
      [
        "marry",
        -9.883559136542939
      ],
      [
        "bottom",
        -9.88449263245075
      ],
      [
        "birthday",
        -9.886347662729346
      ],
      [
        "organization",
        -9.886530592894852
      ],
      [
        "families",
        -9.88751124598951
      ],
      [
        "aunt",
        -9.889289778686567
      ],
      [
        "happening",
        -9.890719313988917
      ],
      [
        "judge",
        -9.891676138838802
      ],
      [
        "cell",
        -9.892507520185845
      ],
      [
        "firm",
        -9.89503910223754
      ],
      [
        "represent",
        -9.895135554414152
      ],
      [
        "data",
        -9.896238666636709
      ],
      [
        "dress",
        -9.897998242393975
      ],
      [
        "thomas",
        -9.899482430200194
      ],
      [
        "choice",
        -9.899503372262469
      ],
      [
        "female",
        -9.899621691683787
      ],
      [
        "charge",
        -9.89998374281932
      ],
      [
        "alked",
        -9.901682899559344
      ],
      [
        "base",
        -9.901796850522679
      ],
      [
        "ride",
        -9.902100471376666
      ],
      [
        "interested",
        -9.904022885183739
      ],
      [
        "route",
        -9.904990285449344
      ],
      [
        "press",
        -9.905031695574984
      ],
      [
        "success",
        -9.905336710406424
      ],
      [
        "jump",
        -9.90766469708135
      ],
      [
        "empire",
        -9.90780992184628
      ],
      [
        "governor",
        -9.90886132199239
      ],
      [
        "spoke",
        -9.908875971594965
      ],
      [
        "prize",
        -9.909415251186743
      ],
      [
        "command",
        -9.90954448974432
      ],
      [
        "basket",
        -9.90980368246875
      ],
      [
        "performance",
        -9.911918085971697
      ],
      [
        "object",
        -9.915080786737995
      ],
      [
        "structure",
        -9.916936217032173
      ],
      [
        "studio",
        -9.917240540796403
      ],
      [
        "ear",
        -9.917291209958062
      ],
      [
        "doubt",
        -9.917311722688513
      ],
      [
        "score",
        -9.91917053302715
      ],
      [
        "van",
        -9.919609010886484
      ],
      [
        "()",
        -9.919980592292804
      ],
      [
        "spread",
        -9.920912822345489
      ],
      [
        "nearly",
        -9.921269321788895
      ],
      [
        "cry",
        -9.922979145091462
      ],
      [
        "camp",
        -9.924426026401875
      ],
      [
        "engine",
        -9.925019522821106
      ],
      [
        "available",
        -9.925907225393594
      ],
      [
        "riving",
        -9.925971255883807
      ],
      [
        "scot",
        -9.926054803497752
      ],
      [
        "developed",
        -9.926144537153363
      ],
      [
        "congress",
        -9.926360198790203
      ],
      [
        "heaven",
        -9.928075810769284
      ],
      [
        "huge",
        -9.928263666566906
      ],
      [
        "storie",
        -9.928459737230693
      ],
      [
        "centre",
        -9.931297914371148
      ],
      [
        "serve",
        -9.93162332013322
      ],
      [
        "create",
        -9.931971319451819
      ],
      [
        "sell",
        -9.933461222396279
      ],
      [
        "lock",
        -9.933610903478723
      ],
      [
        "standard",
        -9.933896831875055
      ],
      [
        "crew",
        -9.933978521357393
      ],
      [
        "worse",
        -9.934025402621941
      ],
      [
        "divide",
        -9.934514065108445
      ],
      [
        "writer",
        -9.93459206837839
      ],
      [
        "moon",
        -9.934931991330522
      ],
      [
        "engineer",
        -9.936772725263307
      ],
      [
        "gas",
        -9.936970707834181
      ],
      [
        "super",
        -9.937604482497665
      ],
      [
        "australia",
        -9.938214267334342
      ],
      [
        "culture",
        -9.938621379626106
      ],
      [
        "smell",
        -9.939013049687016
      ],
      [
        "showed",
        -9.939857209760484
      ],
      [
        "palace",
        -9.942961880236027
      ],
      [
        "scared",
        -9.94310961039411
      ],
      [
        "image",
        -9.943474496011016
      ],
      [
        "fourth",
        -9.945236768863028
      ],
      [
        "shouldn",
        -9.945296018814378
      ],
      [
        "wave",
        -9.948184257975331
      ],
      [
        "ville",
        -9.949080637057598
      ],
      [
        "native",
        -9.953713078007134
      ],
      [
        "prison",
        -9.956425305826064
      ],
      [
        "bob",
        -9.95733843775319
      ],
      [
        "propert",
        -9.961277457117486
      ],
      [
        "hmm",
        -9.961608531399548
      ],
      [
        "eastern",
        -9.96235179448071
      ],
      [
        "larges",
        -9.963436106040326
      ],
      [
        "fighting",
        -9.964301025732123
      ],
      [
        "holding",
        -9.968176095337562
      ],
      [
        "calm",
        -9.968272220445048
      ],
      [
        "rise",
        -9.968306615853557
      ],
      [
        "committee",
        -9.969103325341969
      ],
      [
        "silver",
        -9.969751341042686
      ],
      [
        "minus",
        -9.970269039832603
      ],
      [
        "chose",
        -9.971199450810293
      ],
      [
        "kiss",
        -9.971967277868085
      ],
      [
        "190",
        -9.972253260822628
      ],
      [
        "trees",
        -9.973459552952516
      ],
      [
        "afternoon",
        -9.973555591745258
      ],
      [
        "economic",
        -9.974579717856944
      ],
      [
        "escape",
        -9.97605073075208
      ],
      [
        "specific",
        -9.976890968772262
      ],
      [
        "flight",
        -9.977330943082482
      ],
      [
        "demand",
        -9.97748525782814
      ],
      [
        "grant",
        -9.98036642626862
      ],
      [
        "ray",
        -9.98054191319548
      ],
      [
        "reading",
        -9.981123912127295
      ],
      [
        "contract",
        -9.981637196970407
      ],
      [
        "louis",
        -9.983528127546958
      ],
      [
        "refer",
        -9.984393847538078
      ],
      [
        "angry",
        -9.985439410664675
      ],
      [
        "detail",
        -9.987302346352259
      ],
      [
        "songs",
        -9.988342459563837
      ],
      [
        "paris",
        -9.988381424905604
      ],
      [
        "jo",
        -9.989636519273613
      ],
      [
        "walked",
        -9.989787775076103
      ],
      [
        "learned",
        -9.990140948383257
      ],
      [
        "technolog",
        -9.991766127426043
      ],
      [
        "authorit",
        -9.992410995724143
      ],
      [
        "honor",
        -9.992561386182285
      ],
      [
        "roman",
        -9.99271793131468
      ],
      [
        "railway",
        -9.995019135861263
      ],
      [
        "mid",
        -9.997180022050145
      ],
      [
        "platform",
        -9.997462235776243
      ],
      [
        "loved",
        -9.99861233369975
      ],
      [
        "review",
        -9.998812866659911
      ],
      [
        "2004",
        -10.000549254787344
      ],
      [
        "valley",
        -10.000841739273557
      ],
      [
        "abilit",
        -10.001332184225152
      ],
      [
        "corner",
        -10.002324292811288
      ],
      [
        "bright",
        -10.002585871625195
      ],
      [
        "shop",
        -10.002995686781219
      ],
      [
        "leg",
        -10.003659459336816
      ],
      [
        "takes",
        -10.004918812847645
      ],
      [
        "effort",
        -10.005025911417329
      ],
      [
        "signe",
        -10.006021707890051
      ],
      [
        "closed",
        -10.00622214925792
      ],
      [
        "yellow",
        -10.007329320482082
      ],
      [
        "earlier",
        -10.009053991507454
      ],
      [
        "lawyer",
        -10.009663655555418
      ],
      [
        "guard",
        -10.009753184110451
      ],
      [
        "element",
        -10.009960749400022
      ],
      [
        "weight",
        -10.01044041193894
      ],
      [
        "lines",
        -10.012304894883268
      ],
      [
        "advance",
        -10.01274249349002
      ],
      [
        "policy",
        -10.013150907115623
      ],
      [
        "skin",
        -10.013746982253345
      ],
      [
        "fift",
        -10.014301011132753
      ],
      [
        "wine",
        -10.014444947935374
      ],
      [
        "handle",
        -10.014625942672502
      ],
      [
        "iron",
        -10.014843891337733
      ],
      [
        "trip",
        -10.015932760166521
      ],
      [
        "camera",
        -10.016042568617443
      ],
      [
        "singer",
        -10.016641090331376
      ],
      [
        "fault",
        -10.017523478863719
      ],
      [
        "busy",
        -10.018264651945872
      ],
      [
        "mike",
        -10.018984302485975
      ],
      [
        "lies",
        -10.01920369638983
      ],
      [
        "catholic",
        -10.025086662572866
      ],
      [
        "introduce",
        -10.025431445745767
      ],
      [
        "2020",
        -10.026320185551686
      ],
      [
        "medicine",
        -10.027397611593305
      ],
      [
        "religion",
        -10.029819467862035
      ],
      [
        "establishe",
        -10.029825236057707
      ],
      [
        "fund",
        -10.03039611266175
      ],
      [
        "museum",
        -10.032900648774945
      ],
      [
        "mass",
        -10.034612671670052
      ],
      [
        "quarter",
        -10.034680902996733
      ],
      [
        "pair",
        -10.035827762137494
      ],
      [
        "measure",
        -10.036542107800106
      ],
      [
        "remove",
        -10.03739647221528
      ],
      [
        "access",
        -10.040935353873405
      ],
      [
        "contact",
        -10.041023268211266
      ],
      [
        "enemy",
        -10.041042537158308
      ],
      [
        "loud",
        -10.04154737487666
      ],
      [
        "benefit",
        -10.042375703420234
      ],
      [
        "necessary",
        -10.04251813864606
      ],
      [
        "medical",
        -10.042698939009878
      ],
      [
        "ight",
        -10.04306895337616
      ],
      [
        "fix",
        -10.044032446116514
      ],
      [
        "crime",
        -10.044589599152422
      ],
      [
        "africa",
        -10.044928153252823
      ],
      [
        "extra",
        -10.045726749529713
      ],
      [
        "campaign",
        -10.046392906366881
      ],
      [
        "fresh",
        -10.04677727924457
      ],
      [
        "zero",
        -10.047024971836663
      ],
      [
        "wake",
        -10.047100984179572
      ],
      [
        "beyond",
        -10.047174720016805
      ],
      [
        "definitely",
        -10.047592585360478
      ],
      [
        "currently",
        -10.048169368904373
      ],
      [
        "depend",
        -10.049800766523003
      ],
      [
        "nose",
        -10.051087753564929
      ],
      [
        "ance",
        -10.051668682778509
      ],
      [
        "average",
        -10.052725827377277
      ],
      [
        "opening",
        -10.052966055773684
      ],
      [
        "surface",
        -10.053349006750157
      ],
      [
        "twelve",
        -10.055120890845004
      ],
      [
        "florid",
        -10.055146821895608
      ],
      [
        "stars",
        -10.055235081985867
      ],
      [
        "stock",
        -10.055286997343847
      ],
      [
        "treat",
        -10.055430880070503
      ],
      [
        "ladies",
        -10.055473267219876
      ],
      [
        "regard",
        -10.056136112040024
      ],
      [
        "canad",
        -10.056550082521316
      ],
      [
        "letters",
        -10.057027722984515
      ],
      [
        "mission",
        -10.05848165325084
      ],
      [
        "correct",
        -10.05932128151894
      ],
      [
        "weather",
        -10.059366232282981
      ],
      [
        "function",
        -10.060169580582015
      ],
      [
        "brand",
        -10.060831516650975
      ],
      [
        "range",
        -10.061121967786487
      ],
      [
        "ocean",
        -10.06163431129545
      ],
      [
        "worker",
        -10.063017416471965
      ],
      [
        "sight",
        -10.063332266308121
      ],
      [
        "method",
        -10.064800200785005
      ],
      [
        "concern",
        -10.066082736042183
      ],
      [
        "arrived",
        -10.06689312537085
      ],
      [
        "walking",
        -10.067428755504622
      ],
      [
        "taste",
        -10.06757932925558
      ],
      [
        "legs",
        -10.068428649456546
      ],
      [
        "smith",
        -10.068706795181576
      ],
      [
        "beach",
        -10.06897199288912
      ],
      [
        "address",
        -10.070020032909216
      ],
      [
        "older",
        -10.070068455851864
      ],
      [
        "neither",
        -10.071170852475749
      ],
      [
        "giant",
        -10.071281954090018
      ],
      [
        "ural",
        -10.071355870325014
      ],
      [
        "spot",
        -10.071738683934601
      ],
      [
        "attempt",
        -10.072069319063552
      ],
      [
        "hole",
        -10.072152219454843
      ],
      [
        "pocket",
        -10.072547819915467
      ],
      [
        "twic",
        -10.073834561418128
      ],
      [
        "notice",
        -10.074405923415833
      ],
      [
        "festival",
        -10.07453849284992
      ],
      [
        "recognize",
        -10.075676315209844
      ],
      [
        "bitch",
        -10.07624123252124
      ],
      [
        "staff",
        -10.07638715266524
      ],
      [
        "bay",
        -10.077131005559348
      ],
      [
        "opinion",
        -10.0778580166138
      ],
      [
        "victor",
        -10.07803861304398
      ],
      [
        "wise",
        -10.079533272538356
      ],
      [
        "golden",
        -10.080117698612373
      ],
      [
        "manager",
        -10.082658017308653
      ],
      [
        "christmas",
        -10.08441446544123
      ],
      [
        "1980",
        -10.084876517676241
      ],
      [
        "damage",
        -10.085619857526648
      ],
      [
        "pre",
        -10.086481467000546
      ],
      [
        "knowledge",
        -10.087982601819139
      ],
      [
        "shows",
        -10.08799730920487
      ],
      [
        "1990",
        -10.08983859207909
      ],
      [
        "related",
        -10.090638018878867
      ],
      [
        "shoulder",
        -10.090645499792988
      ],
      [
        "lucky",
        -10.091050695583132
      ],
      [
        "dangerous",
        -10.091052228559521
      ],
      [
        "panish",
        -10.09294100380591
      ],
      [
        "article",
        -10.093160582924565
      ],
      [
        "planet",
        -10.09359928625
      ],
      [
        "newspaper",
        -10.096418274384408
      ],
      [
        "traditional",
        -10.096693048124262
      ],
      [
        "joseph",
        -10.09946636213
      ],
      [
        "eventually",
        -10.099591102346919
      ],
      [
        "content",
        -10.100488893497161
      ],
      [
        "author",
        -10.10060763395142
      ],
      [
        "decide",
        -10.10298508297851
      ],
      [
        "events",
        -10.103201008765136
      ],
      [
        "neck",
        -10.1034266095919
      ],
      [
        "flow",
        -10.10376951634234
      ],
      [
        "belong",
        -10.104130595452064
      ],
      [
        "pen",
        -10.104387225523567
      ],
      [
        "60",
        -10.104764735171855
      ],
      [
        "accident",
        -10.106462516805923
      ],
      [
        "conference",
        -10.107791927880855
      ],
      [
        "wearing",
        -10.109184812867573
      ],
      [
        "growing",
        -10.109231427384756
      ],
      [
        "competition",
        -10.109491492089623
      ],
      [
        "joy",
        -10.110035668736337
      ],
      [
        "circle",
        -10.11016020087102
      ],
      [
        "tony",
        -10.110552882365008
      ],
      [
        "location",
        -10.112020225748566
      ],
      [
        "republic",
        -10.114211433933894
      ],
      [
        "troop",
        -10.115117334485154
      ],
      [
        "therefor",
        -10.11621846174034
      ],
      [
        "ending",
        -10.11655856299967
      ],
      [
        "constant",
        -10.117718446203313
      ],
      [
        "drew",
        -10.11963862115333
      ],
      [
        "religious",
        -10.123127208865899
      ],
      [
        "pressure",
        -10.123314186578535
      ],
      [
        "metal",
        -10.123624918918564
      ],
      [
        "believed",
        -10.123892871850781
      ],
      [
        "student",
        -10.125082078214033
      ],
      [
        "anywhere",
        -10.12615790582254
      ],
      [
        "loss",
        -10.126680449048058
      ],
      [
        "choose",
        -10.12670647541314
      ],
      [
        "scale",
        -10.126867212470575
      ],
      [
        "industr",
        -10.127133495270426
      ],
      [
        "resource",
        -10.127566264554158
      ],
      [
        "capture",
        -10.127873474755134
      ],
      [
        "gets",
        -10.12825573763639
      ],
      [
        "smart",
        -10.128944421174191
      ],
      [
        "00",
        -10.129746070245654
      ],
      [
        "channel",
        -10.130138931199305
      ],
      [
        "elves",
        -10.130827589913782
      ],
      [
        "justice",
        -10.130887970151626
      ],
      [
        "droppe",
        -10.130929396810863
      ],
      [
        "legal",
        -10.131729229568343
      ],
      [
        "proud",
        -10.131799646876793
      ],
      [
        "wheel",
        -10.131998272573188
      ],
      [
        "secretar",
        -10.13280680129592
      ],
      [
        "fruit",
        -10.133408196675312
      ],
      [
        "forth",
        -10.13347256554568
      ],
      [
        "positive",
        -10.133478912232492
      ],
      [
        "unit",
        -10.13412588945291
      ],
      [
        "bell",
        -10.134398152586527
      ],
      [
        "memory",
        -10.135486708367424
      ],
      [
        "guest",
        -10.13601469339174
      ],
      [
        "discovere",
        -10.136829199679507
      ],
      [
        "abad",
        -10.13683665241918
      ],
      [
        "russian",
        -10.138363417579527
      ],
      [
        "speech",
        -10.13849749283533
      ],
      [
        "hide",
        -10.139227368444448
      ],
      [
        "claim",
        -10.14011059545713
      ],
      [
        "gentlemen",
        -10.140591616589923
      ],
      [
        "enter",
        -10.14342926130408
      ],
      [
        "forced",
        -10.144492002046153
      ],
      [
        "iran",
        -10.144882780759566
      ],
      [
        "apple",
        -10.145056068058102
      ],
      [
        "develop",
        -10.146064395153555
      ],
      [
        "elling",
        -10.14640705310498
      ],
      [
        "pictures",
        -10.146645555501227
      ],
      [
        "fashion",
        -10.147562649680044
      ],
      [
        "laid",
        -10.148034701934026
      ],
      [
        "negative",
        -10.148760637858391
      ],
      [
        "tape",
        -10.149203294477893
      ],
      [
        "forty",
        -10.150271660452344
      ],
      [
        "darling",
        -10.150797197324739
      ],
      [
        "tuck",
        -10.152160593052297
      ],
      [
        "truck",
        -10.152990078549582
      ],
      [
        "block",
        -10.15389507426934
      ],
      [
        "federal",
        -10.155286063466473
      ],
      [
        "challenge",
        -10.155844310789679
      ],
      [
        "victim",
        -10.156249669956889
      ],
      [
        "foreign",
        -10.157434527645758
      ],
      [
        "physical",
        -10.158907429178257
      ],
      [
        "gotte",
        -10.160975399132472
      ],
      [
        "illy",
        -10.163696792505677
      ],
      [
        "relative",
        -10.165249827475513
      ],
      [
        "event",
        -10.165480901448372
      ],
      [
        "operation",
        -10.16586900679562
      ],
      [
        "grown",
        -10.166295534511555
      ],
      [
        "pleasure",
        -10.16709209446438
      ],
      [
        "greater",
        -10.167554259019006
      ],
      [
        "chines",
        -10.168286125664975
      ],
      [
        "credit",
        -10.169105698779429
      ],
      [
        "percent",
        -10.172999201901781
      ],
      [
        "slowly",
        -10.173380362752996
      ],
      [
        "ember",
        -10.17345455882668
      ],
      [
        "greek",
        -10.174363106327903
      ],
      [
        "killing",
        -10.176351274253513
      ],
      [
        "suit",
        -10.176768344141474
      ],
      [
        "independent",
        -10.176968754054375
      ],
      [
        "stream",
        -10.177764712264423
      ],
      [
        "universe",
        -10.177819060018338
      ],
      [
        "roll",
        -10.178094051490557
      ],
      [
        "ja",
        -10.178714621223921
      ],
      [
        "los",
        -10.178907390458464
      ],
      [
        "statement",
        -10.18024332650371
      ],
      [
        "slow",
        -10.180634385451361
      ],
      [
        "tower",
        -10.182393326804764
      ],
      [
        "partner",
        -10.184477283224975
      ],
      [
        "male",
        -10.184618351008274
      ],
      [
        "desire",
        -10.184885923393159
      ],
      [
        "sports",
        -10.185972005196604
      ],
      [
        "plays",
        -10.18655286075823
      ],
      [
        "smoke",
        -10.187226846570704
      ],
      [
        "easily",
        -10.188063492096934
      ],
      [
        "active",
        -10.189567875407501
      ],
      [
        "plane",
        -10.189907266405497
      ],
      [
        "municipalit",
        -10.190743257182557
      ],
      [
        "nation",
        -10.19081228051552
      ],
      [
        "bottle",
        -10.192544153504105
      ],
      [
        "cast",
        -10.19284625277729
      ],
      [
        "1970",
        -10.192953096697607
      ],
      [
        "shore",
        -10.193335585448413
      ],
      [
        "soft",
        -10.194119010315145
      ],
      [
        "magazine",
        -10.19426555896032
      ],
      [
        "emperor",
        -10.194278572288841
      ],
      [
        "lack",
        -10.194502533569171
      ],
      [
        "expected",
        -10.19474136951925
      ],
      [
        "coat",
        -10.195803683758626
      ],
      [
        "holy",
        -10.195815543515224
      ],
      [
        "forme",
        -10.197486993226374
      ],
      [
        "wedding",
        -10.198152951873844
      ],
      [
        "helpe",
        -10.1984256489445
      ],
      [
        "dogs",
        -10.198705134777926
      ],
      [
        "academ",
        -10.199321410902435
      ],
      [
        "31",
        -10.199435160783683
      ],
      [
        "grey",
        -10.201028131678104
      ],
      [
        "apparent",
        -10.201685328274525
      ],
      [
        "brothers",
        -10.20234702207534
      ],
      [
        "flat",
        -10.203208425664654
      ],
      [
        "rénée",
        -10.203535046946985
      ],
      [
        "african",
        -10.204301596679299
      ],
      [
        "evil",
        -10.204815698885662
      ],
      [
        "qualit",
        -10.205393147060315
      ],
      [
        "surprise",
        -10.20587986191566
      ],
      [
        "500",
        -10.206775732453348
      ],
      [
        "mate",
        -10.206911660156376
      ],
      [
        "powerful",
        -10.207467891460796
      ],
      [
        "waste",
        -10.207967719766582
      ],
      [
        "shape",
        -10.209521075200975
      ],
      [
        "entere",
        -10.210972779732264
      ],
      [
        "atlantique",
        -10.211018504736655
      ],
      [
        "sept",
        -10.21163402147812
      ],
      [
        "!”",
        -10.213100315132515
      ],
      [
        "affair",
        -10.215084225478643
      ],
      [
        "dresse",
        -10.215551911646722
      ],
      [
        "solution",
        -10.21572764628296
      ],
      [
        "kitchen",
        -10.21663730317227
      ],
      [
        "chicago",
        -10.216661806798037
      ],
      [
        "ex",
        -10.216764999910815
      ],
      [
        "empty",
        -10.21862170535024
      ],
      [
        "forgot",
        -10.219252424778801
      ],
      [
        "split",
        -10.21993767692749
      ],
      [
        "filled",
        -10.220495396712604
      ],
      [
        "rough",
        -10.220816644919001
      ],
      [
        "max",
        -10.22158883406678
      ],
      [
        "actress",
        -10.222326573428633
      ],
      [
        "knock",
        -10.223682273374148
      ],
      [
        "avoid",
        -10.223721294035773
      ],
      [
        "southwestern",
        -10.224560864090204
      ],
      [
        "border",
        -10.224709334730354
      ],
      [
        "republican",
        -10.22476742784125
      ],
      [
        "trial",
        -10.22498003310001
      ],
      [
        "root",
        -10.22611195483872
      ],
      [
        "weird",
        -10.226200498090066
      ],
      [
        "dish",
        -10.226880104188949
      ],
      [
        "ill",
        -10.227860983294295
      ],
      [
        "companie",
        -10.227969026069506
      ],
      [
        "jackson",
        -10.228481493506784
      ],
      [
        "birth",
        -10.229117970009435
      ],
      [
        "adult",
        -10.230448628922467
      ],
      [
        "signal",
        -10.230656994733874
      ],
      [
        "fool",
        -10.231132938100274
      ],
      [
        "worried",
        -10.231240580715196
      ],
      [
        "majest",
        -10.231769044353635
      ],
      [
        "appearance",
        -10.231791474946586
      ],
      [
        "com",
        -10.233617124175808
      ],
      [
        "parliament",
        -10.234441970333043
      ],
      [
        "load",
        -10.23508915810675
      ],
      [
        "replie",
        -10.237648931814595
      ],
      [
        "host",
        -10.238317802056793
      ],
      [
        "devil",
        -10.239137623848446
      ],
      [
        "shire",
        -10.24112633983942
      ],
      [
        "screen",
        -10.243443522842567
      ],
      [
        "faith",
        -10.245093240818331
      ],
      [
        "deliver",
        -10.245420396621075
      ],
      [
        "2021",
        -10.246476079412744
      ],
      [
        "colour",
        -10.246620870577546
      ],
      [
        "commander",
        -10.246748496593217
      ],
      [
        "map",
        -10.247217594044184
      ],
      [
        "lieutenant",
        -10.247401304908346
      ],
      [
        "sunday",
        -10.24744234798386
      ],
      [
        "joke",
        -10.24785367552516
      ],
      [
        "target",
        -10.248151165150485
      ],
      [
        "lots",
        -10.24858423092735
      ],
      [
        "strength",
        -10.249271852101415
      ],
      [
        "addition",
        -10.249790487175575
      ],
      [
        "leading",
        -10.249890249730822
      ],
      [
        "ideas",
        -10.2499184782342
      ],
      [
        "eggs",
        -10.25080730782339
      ],
      [
        "shirt",
        -10.250850442028177
      ],
      [
        "survive",
        -10.253592719736549
      ],
      [
        "significant",
        -10.253881805012778
      ],
      [
        "fly",
        -10.254126708588
      ],
      [
        "angel",
        -10.255863141557636
      ],
      [
        "burn",
        -10.256006639216974
      ],
      [
        "picke",
        -10.256089510216704
      ],
      [
        "plain",
        -10.256872431500987
      ],
      [
        "reveal",
        -10.258043077316984
      ],
      [
        "cash",
        -10.258765846288807
      ],
      [
        "aware",
        -10.25964889519555
      ],
      [
        "refuse",
        -10.260115789114298
      ],
      [
        "focus",
        -10.261003625195357
      ],
      [
        "scientist",
        -10.261014271463786
      ],
      [
        "ur",
        -10.262231117818743
      ],
      [
        "designe",
        -10.26237593725391
      ],
      [
        "amazing",
        -10.262974004391308
      ],
      [
        "gate",
        -10.264673037678309
      ],
      [
        "reported",
        -10.26592399507883
      ],
      [
        "manner",
        -10.26630546246022
      ],
      [
        "sudden",
        -10.268471617031627
      ],
      [
        "airport",
        -10.269179416026983
      ],
      [
        "clearly",
        -10.270636997320953
      ],
      [
        "tournament",
        -10.27085808160458
      ],
      [
        "afterward",
        -10.27094870870377
      ],
      [
        "directly",
        -10.271138880647934
      ],
      [
        "danger",
        -10.271966886543211
      ],
      [
        "prove",
        -10.272436662294377
      ],
      [
        "ounded",
        -10.272588556413105
      ],
      [
        "tool",
        -10.273928730914633
      ],
      [
        "35",
        -10.27490048174394
      ],
      [
        "management",
        -10.274902355126773
      ],
      [
        "remaine",
        -10.275589458992924
      ],
      [
        "impossibl",
        -10.277050474034285
      ],
      [
        "dragon",
        -10.277164284629833
      ],
      [
        "finding",
        -10.27752432873855
      ],
      [
        "brief",
        -10.277785621024412
      ],
      [
        "reduce",
        -10.278818284730534
      ],
      [
        "cancer",
        -10.279042490041832
      ],
      [
        "exas",
        -10.279431610499072
      ],
      [
        "teeth",
        -10.279531545554162
      ],
      [
        "maintain",
        -10.280449984221729
      ],
      [
        "breakfast",
        -10.281119579777073
      ],
      [
        "bound",
        -10.282020873611597
      ],
      [
        "ley",
        -10.282247540400977
      ],
      [
        "scott",
        -10.283168103544465
      ],
      [
        "bread",
        -10.283643124079275
      ],
      [
        "ell",
        -10.283924875139956
      ],
      [
        "vice",
        -10.284495321011798
      ],
      [
        "missed",
        -10.284782560605883
      ],
      [
        "beaut",
        -10.286309591345006
      ],
      [
        "meant",
        -10.287144357810048
      ],
      [
        "otherwise",
        -10.28794024958326
      ],
      [
        "financial",
        -10.288930551695636
      ],
      [
        "environment",
        -10.289523423132591
      ],
      [
        "sub",
        -10.289835020928566
      ],
      [
        "initial",
        -10.290597518449442
      ],
      [
        "finger",
        -10.290651721908624
      ],
      [
        "forgive",
        -10.291467338336268
      ],
      [
        "ways",
        -10.292146338322773
      ],
      [
        "replaced",
        -10.292403141827242
      ],
      [
        "rid",
        -10.292474960683451
      ],
      [
        "audience",
        -10.292991725740364
      ],
      [
        "temperature",
        -10.292993207220075
      ],
      [
        "operate",
        -10.293757295528248
      ],
      [
        "dude",
        -10.293838262280719
      ],
      [
        "request",
        -10.29438497544334
      ],
      [
        "prevent",
        -10.294920900386611
      ],
      [
        "graduate",
        -10.295236937480112
      ],
      [
        "1999",
        -10.296558034987424
      ],
      [
        "sake",
        -10.296643706893523
      ],
      [
        "construction",
        -10.297122656104094
      ],
      [
        "silence",
        -10.297231815102165
      ],
      [
        "quit",
        -10.297990216728795
      ],
      [
        "wound",
        -10.29899143938865
      ],
      [
        "learning",
        -10.299018611939221
      ],
      [
        "folk",
        -10.301444447802039
      ],
      [
        "painting",
        -10.30162472624762
      ],
      [
        "gives",
        -10.302574892038518
      ],
      [
        "aged",
        -10.303084978106297
      ],
      [
        "collection",
        -10.303362946716849
      ],
      [
        "tail",
        -10.303487030338445
      ],
      [
        "journey",
        -10.30618582094703
      ],
      [
        "recently",
        -10.307192356409427
      ],
      [
        "effective",
        -10.307757350204586
      ],
      [
        "novel",
        -10.307854116777772
      ],
      [
        "202",
        -10.308815240976486
      ],
      [
        "drama",
        -10.30905344342391
      ],
      [
        "madam",
        -10.310771850421352
      ],
      [
        "shoes",
        -10.311451890707172
      ],
      [
        "ghost",
        -10.311989235153792
      ],
      [
        "possibl",
        -10.312262137804344
      ],
      [
        "crying",
        -10.312309500154939
      ],
      [
        "worst",
        -10.312549604662433
      ],
      [
        "performe",
        -10.312647211839629
      ],
      [
        "tax",
        -10.31280177355093
      ],
      [
        "lunch",
        -10.314309046081132
      ],
      [
        "bath",
        -10.314996356357913
      ],
      [
        "gain",
        -10.315147172818534
      ],
      [
        "département",
        -10.315626153991747
      ],
      [
        "lad",
        -10.317614443590314
      ],
      [
        "holiday",
        -10.317806003050226
      ],
      [
        "bowl",
        -10.31904118814785
      ],
      [
        "flying",
        -10.31904759801775
      ],
      [
        "45",
        -10.320995770741426
      ],
      [
        "prepared",
        -10.325755115423503
      ],
      [
        "teaching",
        -10.326831916793086
      ],
      [
        "mama",
        -10.327121296628366
      ],
      [
        "1960",
        -10.327796493542282
      ],
      [
        "listening",
        -10.328315389429632
      ],
      [
        "treatment",
        -10.328353892141505
      ],
      [
        "link",
        -10.328528453023797
      ],
      [
        "conversation",
        -10.329005533563173
      ],
      [
        "burie",
        -10.329483514451148
      ],
      [
        "asier",
        -10.329647067192171
      ],
      [
        "retire",
        -10.330125480796404
      ],
      [
        "generation",
        -10.330304406208988
      ],
      [
        "button",
        -10.330554713781698
      ],
      [
        "becoming",
        -10.331833786456091
      ],
      [
        "multiple",
        -10.33224281534232
      ],
      [
        "poet",
        -10.332404750839212
      ],
      [
        "lift",
        -10.333866691135864
      ],
      [
        "turning",
        -10.33458245099554
      ],
      [
        "highe",
        -10.33640741650131
      ],
      [
        "broad",
        -10.336716004973091
      ],
      [
        "schools",
        -10.337373138214883
      ],
      [
        "limit",
        -10.33772646222305
      ],
      [
        "sleeping",
        -10.338076456712752
      ],
      [
        "mountains",
        -10.338178789006303
      ],
      [
        "brave",
        -10.338401917399938
      ],
      [
        "typical",
        -10.338899699236372
      ],
      [
        "189",
        -10.340204506920253
      ],
      [
        "goodbye",
        -10.340220844951546
      ],
      [
        "ears",
        -10.340675888791056
      ],
      [
        "yard",
        -10.340749591224405
      ],
      [
        "drug",
        -10.34086291407193
      ],
      [
        "cow",
        -10.341110350543406
      ],
      [
        "blind",
        -10.341355679084504
      ],
      [
        "ticket",
        -10.341642639415927
      ],
      [
        "taly",
        -10.3417905645187
      ],
      [
        "branch",
        -10.34193951931189
      ],
      [
        "upper",
        -10.342340582218522
      ],
      [
        "favorite",
        -10.343103904198916
      ],
      [
        "jane",
        -10.343617167670633
      ],
      [
        "propose",
        -10.344188311878913
      ],
      [
        "frog",
        -10.344936879601295
      ],
      [
        "awards",
        -10.344953833117373
      ],
      [
        "mail",
        -10.345026297571767
      ],
      [
        "cap",
        -10.345564940681982
      ],
      [
        "concerned",
        -10.345568670754073
      ],
      [
        "grave",
        -10.345656019976593
      ],
      [
        "breath",
        -10.34576780834337
      ],
      [
        "fifth",
        -10.34653012207556
      ],
      [
        "=",
        -10.347593279596147
      ],
      [
        "recorde",
        -10.347598206269705
      ],
      [
        "anti",
        -10.347663609623744
      ],
      [
        "80",
        -10.348323102938025
      ],
      [
        "arts",
        -10.349493629578676
      ],
      [
        "sam",
        -10.350069765380168
      ],
      [
        "display",
        -10.350814962836424
      ],
      [
        "surprised",
        -10.351077651017546
      ],
      [
        "mac",
        -10.351360905729075
      ],
      [
        "rank",
        -10.35346243012783
      ],
      [
        "chicken",
        -10.3534952912776
      ],
      [
        "cake",
        -10.353507938002672
      ],
      [
        "illin",
        -10.354205265495445
      ],
      [
        "officers",
        -10.354336800062114
      ],
      [
        "armed",
        -10.354931928457509
      ],
      [
        "text",
        -10.355422358314208
      ],
      [
        "heat",
        -10.356977829986697
      ],
      [
        "librar",
        -10.35706079974456
      ],
      [
        "mayor",
        -10.357560591008623
      ],
      [
        "killer",
        -10.357708682435222
      ],
      [
        "creature",
        -10.358143065380897
      ],
      [
        "planning",
        -10.358284131042879
      ],
      [
        "martin",
        -10.358344173206095
      ],
      [
        "orange",
        -10.359432761238761
      ],
      [
        "sentence",
        -10.359625963239264
      ],
      [
        "soviet",
        -10.36038197706877
      ],
      [
        "chocolate",
        -10.36066443298763
      ],
      [
        "winning",
        -10.360910300751408
      ],
      [
        "producer",
        -10.361414568648147
      ],
      [
        "salt",
        -10.361614402391432
      ],
      [
        "mess",
        -10.361708260722725
      ],
      [
        "disappear",
        -10.365137657501139
      ],
      [
        "sold",
        -10.365248834909956
      ],
      [
        "fill",
        -10.36529570612829
      ],
      [
        "row",
        -10.36559850729283
      ],
      [
        "string",
        -10.368019191113437
      ],
      [
        "hook",
        -10.368109286803625
      ],
      [
        "reaction",
        -10.368762131645866
      ],
      [
        "sugar",
        -10.369711887551198
      ],
      [
        "egg",
        -10.370338208349345
      ],
      [
        "daniel",
        -10.370679644017443
      ],
      [
        "inter",
        -10.371987318685935
      ],
      [
        "gay",
        -10.372187001202537
      ],
      [
        "farm",
        -10.372494555019575
      ],
      [
        "comment",
        -10.372635812884582
      ],
      [
        "fox",
        -10.37268141542065
      ],
      [
        "rabbit",
        -10.373021525203928
      ],
      [
        "complex",
        -10.373054940527577
      ],
      [
        "sweetie",
        -10.373204402908517
      ],
      [
        "friday",
        -10.37357452246782
      ],
      [
        "teach",
        -10.37388565072195
      ],
      [
        "horses",
        -10.374009870942874
      ],
      [
        "institute",
        -10.374403553582871
      ],
      [
        "mexic",
        -10.37627899400671
      ],
      [
        "origin",
        -10.377685633060477
      ],
      [
        "ling",
        -10.378313528489581
      ],
      [
        "strike",
        -10.379316117415875
      ],
      [
        "roof",
        -10.379459368382676
      ],
      [
        "honour",
        -10.37948658772717
      ],
      [
        "nineteen",
        -10.38036660240961
      ],
      [
        "rapid",
        -10.380381983388496
      ],
      [
        "discuss",
        -10.381013487053082
      ],
      [
        "saturday",
        -10.382318242365578
      ],
      [
        "pool",
        -10.382635226625078
      ],
      [
        "types",
        -10.387302754306553
      ],
      [
        "perform",
        -10.388175564988769
      ],
      [
        "suspect",
        -10.38898291902701
      ],
      [
        "client",
        -10.389016254631215
      ],
      [
        "temple",
        -10.389371141949255
      ],
      [
        "losing",
        -10.389570783164807
      ],
      [
        "forever",
        -10.390153504122217
      ],
      [
        "pirate",
        -10.39019613003153
      ],
      [
        "declare",
        -10.390869465605807
      ],
      [
        "stole",
        -10.39125282252256
      ],
      [
        "awful",
        -10.391695192856693
      ],
      [
        "compare",
        -10.39177368460856
      ],
      [
        "goal",
        -10.392843501258579
      ],
      [
        "destroy",
        -10.39291936652386
      ],
      [
        "carter",
        -10.394120401522281
      ],
      [
        "drunk",
        -10.394623428594002
      ],
      [
        "owner",
        -10.39487729083315
      ],
      [
        "constitution",
        -10.394963310175406
      ],
      [
        "meal",
        -10.394997062672351
      ],
      [
        "seek",
        -10.395620443235781
      ],
      [
        "historical",
        -10.396030274770364
      ],
      [
        "file",
        -10.396635913032874
      ],
      [
        "safety",
        -10.39665407160222
      ],
      [
        "bush",
        -10.396763572203923
      ],
      [
        "windows",
        -10.396928610498776
      ],
      [
        "dale",
        -10.397969362784323
      ],
      [
        "connection",
        -10.39965455469158
      ],
      [
        "teams",
        -10.400765116412343
      ],
      [
        "1998",
        -10.401819005064148
      ],
      [
        "cloud",
        -10.402238735557939
      ],
      [
        "appointed",
        -10.402493170008004
      ],
      [
        "musical",
        -10.402599713988678
      ],
      [
        "threw",
        -10.402987336756556
      ],
      [
        "servant",
        -10.403150648913499
      ],
      [
        "blame",
        -10.404407527809324
      ],
      [
        "succeed",
        -10.404831602287175
      ],
      [
        "limite",
        -10.40626413154413
      ],
      [
        "spain",
        -10.406654970454294
      ],
      [
        "sexual",
        -10.40706696770432
      ],
      [
        "192",
        -10.407574836639036
      ],
      [
        "understood",
        -10.41020690343715
      ],
      [
        "nurse",
        -10.410986880109881
      ],
      [
        "gift",
        -10.411418117442828
      ],
      [
        "leaves",
        -10.41161490413164
      ],
      [
        "electric",
        -10.411626922003911
      ],
      [
        "plans",
        -10.411679604677602
      ],
      [
        "democratic",
        -10.412542525915251
      ],
      [
        "cting",
        -10.412976281722212
      ],
      [
        "nick",
        -10.41357344207936
      ],
      [
        "application",
        -10.41395948426321
      ],
      [
        "duck",
        -10.414571118598872
      ],
      [
        "item",
        -10.414576751897261
      ],
      [
        "cop",
        -10.414760587635932
      ],
      [
        "chemical",
        -10.414944061889965
      ],
      [
        "serie",
        -10.4153770553891
      ],
      [
        "meat",
        -10.415902909846327
      ],
      [
        "steal",
        -10.41602430076746
      ],
      [
        "iding",
        -10.416407422957182
      ],
      [
        "pattern",
        -10.420106365460517
      ],
      [
        "argument",
        -10.420810563856048
      ],
      [
        "drawing",
        -10.42093838287169
      ],
      [
        "medal",
        -10.420969922054953
      ],
      [
        "politic",
        -10.421258708313246
      ],
      [
        "adam",
        -10.42138945503048
      ],
      [
        "willing",
        -10.422168824507132
      ],
      [
        "ou",
        -10.423309338905073
      ],
      [
        "senator",
        -10.423339691960766
      ],
      [
        "grade",
        -10.423761380546381
      ],
      [
        "duke",
        -10.425136905068006
      ],
      [
        "names",
        -10.425558168186864
      ],
      [
        "slight",
        -10.426443360823408
      ],
      [
        "interview",
        -10.426582344440089
      ],
      [
        "prisoner",
        -10.426643236681809
      ],
      [
        "conduct",
        -10.426851692536399
      ],
      [
        "admit",
        -10.427698690629128
      ],
      [
        "par",
        -10.428081924801162
      ],
      [
        "solve",
        -10.429427077332736
      ],
      [
        "laughing",
        -10.433679712204768
      ],
      [
        "ver",
        -10.434363108822016
      ],
      [
        "toward",
        -10.434784393690322
      ],
      [
        "pro",
        -10.435262951942931
      ],
      [
        "knee",
        -10.436591540229369
      ],
      [
        "realit",
        -10.437619993545567
      ],
      [
        "grandma",
        -10.4379030859035
      ],
      [
        "angeles",
        -10.438312442762271
      ],
      [
        "occur",
        -10.438434981469587
      ],
      [
        "throat",
        -10.43957722204362
      ],
      [
        "assume",
        -10.439741445930107
      ],
      [
        "grass",
        -10.440943860406964
      ],
      [
        "fixed",
        -10.440948320614318
      ],
      [
        "uses",
        -10.443717971753589
      ],
      [
        "canadian",
        -10.444387091296996
      ],
      [
        "everywhere",
        -10.444560359330946
      ],
      [
        "belief",
        -10.444724098146075
      ],
      [
        "actual",
        -10.444910642742693
      ],
      [
        "shake",
        -10.445745707615329
      ],
      [
        "dirt",
        -10.447708155588678
      ],
      [
        "responsibl",
        -10.448814690868206
      ],
      [
        "amp",
        -10.448847115607059
      ],
      [
        "tommy",
        -10.449762110733172
      ],
      [
        "kansa",
        -10.450171592671897
      ],
      [
        "concert",
        -10.451322368141025
      ],
      [
        "70",
        -10.451520895966302
      ],
      [
        "jail",
        -10.452269671769917
      ],
      [
        "beer",
        -10.452311196194916
      ],
      [
        "ham",
        -10.453122399666054
      ],
      [
        "gu",
        -10.454930315902995
      ],
      [
        "alex",
        -10.456541461898913
      ],
      [
        "kennedy",
        -10.458595375576548
      ],
      [
        "commercial",
        -10.460524373751202
      ],
      [
        "russia",
        -10.461267181576332
      ],
      [
        "loose",
        -10.461477693029973
      ],
      [
        "managed",
        -10.462796084051801
      ],
      [
        "magic",
        -10.462949613023289
      ],
      [
        "despite",
        -10.463547205157635
      ],
      [
        "priest",
        -10.463550293400047
      ],
      [
        "feed",
        -10.463781720259886
      ],
      [
        "lips",
        -10.463930018621717
      ],
      [
        "90",
        -10.464206701771072
      ],
      [
        "additional",
        -10.465077353757554
      ],
      [
        "favor",
        -10.46514057328357
      ],
      [
        "jimm",
        -10.465561064918383
      ],
      [
        "approach",
        -10.465750000034824
      ],
      [
        "settlement",
        -10.465868532555046
      ],
      [
        "freedom",
        -10.47071348023596
      ],
      [
        "sides",
        -10.470759527329301
      ],
      [
        "opposite",
        -10.470797164498167
      ],
      [
        "instant",
        -10.471068815260857
      ],
      [
        "musician",
        -10.471169030176096
      ],
      [
        "driver",
        -10.47122696480968
      ],
      [
        "faster",
        -10.471364676071431
      ],
      [
        "vehicle",
        -10.473077524947774
      ],
      [
        "fifteen",
        -10.47308870870386
      ],
      [
        "senior",
        -10.473098061904318
      ],
      [
        "colonel",
        -10.473154465930909
      ],
      [
        "cars",
        -10.473237661646834
      ],
      [
        "hop",
        -10.47324820233323
      ],
      [
        "hung",
        -10.473260311471924
      ],
      [
        "chain",
        -10.474707329234661
      ],
      [
        "cha",
        -10.4764692137091
      ],
      [
        "sharp",
        -10.477291826539634
      ],
      [
        "bomb",
        -10.477770518118193
      ],
      [
        "hersel",
        -10.478315040463318
      ],
      [
        "critic",
        -10.479886388868403
      ],
      [
        "pure",
        -10.479936627973762
      ],
      [
        "variet",
        -10.480031504170668
      ],
      [
        "latin",
        -10.4802366938294
      ],
      [
        "territor",
        -10.480279349256357
      ],
      [
        "responsibilit",
        -10.48041237398779
      ],
      [
        "debut",
        -10.48045250083169
      ],
      [
        "engage",
        -10.480757597137263
      ],
      [
        "silent",
        -10.481158162024741
      ],
      [
        "compete",
        -10.48135395261558
      ],
      [
        "rail",
        -10.482635425300105
      ],
      [
        "sum",
        -10.482678091968584
      ],
      [
        "unfortunate",
        -10.482887126076452
      ],
      [
        "scottis",
        -10.483687358006271
      ],
      [
        "define",
        -10.483729134825305
      ],
      [
        "bang",
        -10.483835791741951
      ],
      [
        "achieve",
        -10.484094312625762
      ],
      [
        "dying",
        -10.484103363326167
      ],
      [
        "exchange",
        -10.484169238672443
      ],
      [
        "defeate",
        -10.48470619488235
      ],
      [
        "jury",
        -10.484919193791367
      ],
      [
        "destroye",
        -10.484946939595533
      ],
      [
        "wings",
        -10.486380540800992
      ],
      [
        "units",
        -10.486612563228363
      ],
      [
        "laura",
        -10.487698974503491
      ],
      [
        "chart",
        -10.487958906092917
      ],
      [
        "gentleman",
        -10.488401667682654
      ],
      [
        "asia",
        -10.489710685341219
      ],
      [
        "recent",
        -10.489901443794418
      ],
      [
        "placed",
        -10.490290848386682
      ],
      [
        "steel",
        -10.491291889736406
      ],
      [
        "maria",
        -10.492044891179722
      ],
      [
        "allen",
        -10.49215869435637
      ],
      [
        "showing",
        -10.492338624879995
      ],
      [
        "breaking",
        -10.493773036332977
      ],
      [
        "pete",
        -10.493974336473464
      ],
      [
        "youth",
        -10.49412563827255
      ],
      [
        "muslim",
        -10.495252480342923
      ],
      [
        "tongue",
        -10.495411839196185
      ],
      [
        "spoken",
        -10.496239992603115
      ],
      [
        "falling",
        -10.496400994026079
      ],
      [
        "brita",
        -10.496790856223718
      ],
      [
        "sergeant",
        -10.497743767732402
      ],
      [
        "copy",
        -10.49959756230911
      ],
      [
        "bodies",
        -10.499628850909753
      ],
      [
        "criminal",
        -10.49994952186536
      ],
      [
        "laws",
        -10.500283057912092
      ],
      [
        "consist",
        -10.500297091246754
      ],
      [
        "cream",
        -10.501573970313522
      ],
      [
        "shooting",
        -10.502704926640568
      ],
      [
        "uniform",
        -10.502780874245726
      ],
      [
        "bubble",
        -10.504339637594276
      ],
      [
        "billion",
        -10.50575474772134
      ],
      [
        "option",
        -10.506001518898488
      ],
      [
        "eleven",
        -10.506374967945604
      ],
      [
        "grab",
        -10.50662029203723
      ],
      [
        "drugs",
        -10.506864339649137
      ],
      [
        "climate",
        -10.507259031909264
      ],
      [
        "passenger",
        -10.507781696369259
      ],
      [
        "response",
        -10.507834645459232
      ],
      [
        "recording",
        -10.508345722678914
      ],
      [
        "appeal",
        -10.509619915901725
      ],
      [
        "chairman",
        -10.510069070794327
      ],
      [
        "crown",
        -10.510360522337958
      ],
      [
        "pardon",
        -10.510755620249043
      ],
      [
        "shift",
        -10.511674519584686
      ],
      [
        "bastard",
        -10.512687586161748
      ],
      [
        "failure",
        -10.512845857606164
      ],
      [
        "orchestra",
        -10.514886920622214
      ],
      [
        "weekend",
        -10.51489647430486
      ],
      [
        "advantage",
        -10.515275652289334
      ],
      [
        "northwest",
        -10.515809227202114
      ],
      [
        "struck",
        -10.515835108519134
      ],
      [
        "advice",
        -10.515971501976662
      ],
      [
        "budget",
        -10.51618190530353
      ],
      [
        "sport",
        -10.516671708018038
      ],
      [
        "proof",
        -10.51702688237151
      ],
      [
        "core",
        -10.517053320354226
      ],
      [
        "reference",
        -10.51749007054045
      ],
      [
        "improve",
        -10.520010790388113
      ],
      [
        "ard",
        -10.520035092073712
      ],
      [
        "crosse",
        -10.522200871737292
      ],
      [
        "champion",
        -10.523234598432811
      ],
      [
        "nathan",
        -10.52323746902691
      ],
      [
        "highway",
        -10.526994855700678
      ],
      [
        "jean",
        -10.527353039553383
      ],
      [
        "switch",
        -10.527637036041178
      ],
      [
        "instance",
        -10.527751265398152
      ],
      [
        "monster",
        -10.528169771525059
      ],
      [
        "eaten",
        -10.528208604101362
      ],
      [
        "theatre",
        -10.528464118571641
      ],
      [
        "arrange",
        -10.528804774118964
      ],
      [
        "hanging",
        -10.529064426387514
      ],
      [
        "kick",
        -10.529086429842712
      ],
      [
        "ordere",
        -10.529651537533152
      ],
      [
        "susan",
        -10.529791851766195
      ],
      [
        "weak",
        -10.530013113205335
      ],
      [
        "appreciate",
        -10.530162481726421
      ],
      [
        "chase",
        -10.530282180438636
      ],
      [
        "knife",
        -10.530636459039412
      ],
      [
        "expression",
        -10.530813840907207
      ],
      [
        "pink",
        -10.532570293790016
      ],
      [
        "setting",
        -10.533206781067394
      ],
      [
        "principle",
        -10.533321860550688
      ],
      [
        "practical",
        -10.53338056660196
      ],
      [
        "32",
        -10.533952704766207
      ],
      [
        "1992",
        -10.535399031156803
      ],
      [
        "restaurant",
        -10.535912988113388
      ],
      [
        "cheer",
        -10.536857638042537
      ],
      [
        "australian",
        -10.537021659502141
      ],
      [
        "speaker",
        -10.53815969202514
      ],
      [
        "pig",
        -10.538980808585848
      ],
      [
        "bride",
        -10.53933230488262
      ],
      [
        "pulle",
        -10.540056124939827
      ],
      [
        "agreement",
        -10.541202988715424
      ],
      [
        "connected",
        -10.542188341959918
      ],
      [
        "ships",
        -10.542353724548857
      ],
      [
        "atlanti",
        -10.54360106960971
      ],
      [
        "majorit",
        -10.543682749103505
      ],
      [
        "traffic",
        -10.544296863195708
      ],
      [
        "hearing",
        -10.544504752067413
      ],
      [
        "settle",
        -10.54518340839757
      ],
      [
        "serving",
        -10.545348713948272
      ],
      [
        "tradition",
        -10.545536654240607
      ],
      [
        "status",
        -10.546192182818153
      ],
      [
        "arrest",
        -10.546770161596493
      ],
      [
        "chris",
        -10.548146112434335
      ],
      [
        "crash",
        -10.548323874120033
      ],
      [
        "manage",
        -10.548443663959716
      ],
      [
        "han",
        -10.549000944967393
      ],
      [
        "expensive",
        -10.549047787908492
      ],
      [
        "stranger",
        -10.550480094978711
      ],
      [
        "secure",
        -10.551638605968488
      ],
      [
        "promote",
        -10.5518724021106
      ],
      [
        "dancing",
        -10.551880230923834
      ],
      [
        "guide",
        -10.551901860684671
      ],
      [
        "noticed",
        -10.55445727577106
      ],
      [
        "becomes",
        -10.554602812563449
      ],
      [
        "occasion",
        -10.555754155030886
      ],
      [
        "carbon",
        -10.55648375296401
      ],
      [
        "tough",
        -10.55663690358098
      ],
      [
        "noise",
        -10.556857303598935
      ],
      [
        "boston",
        -10.556910974413718
      ],
      [
        "pan",
        -10.556987257746108
      ],
      [
        "entirely",
        -10.559056504700598
      ],
      [
        "sail",
        -10.559342175082886
      ],
      [
        "‘",
        -10.559535215049715
      ],
      [
        "excellent",
        -10.559551165009541
      ],
      [
        "edition",
        -10.559926651674424
      ],
      [
        "closer",
        -10.560088735834945
      ],
      [
        "lesson",
        -10.560429793602808
      ],
      [
        "defeat",
        -10.560955234334006
      ],
      [
        "fingers",
        -10.561633119771544
      ],
      [
        "cock",
        -10.562635180552439
      ],
      [
        "arry",
        -10.562719344119433
      ],
      [
        "useful",
        -10.563256801712301
      ],
      [
        "prior",
        -10.563336624040613
      ],
      [
        "internet",
        -10.565630868741973
      ],
      [
        "celebrate",
        -10.565783497170138
      ],
      [
        "reasons",
        -10.566963442892416
      ],
      [
        "instrument",
        -10.567087489571964
      ],
      [
        "guilty",
        -10.567201670092775
      ],
      [
        "diamond",
        -10.569269917359762
      ],
      [
        "witch",
        -10.570555749963848
      ],
      [
        "rome",
        -10.570634300073948
      ],
      [
        "swear",
        -10.570967149359888
      ],
      [
        "desert",
        -10.571152606409175
      ],
      [
        "é",
        -10.57144079374038
      ],
      [
        "craft",
        -10.571980342868347
      ],
      [
        "treated",
        -10.572092998612824
      ],
      [
        "anna",
        -10.572881389450274
      ],
      [
        "kong",
        -10.57289071522801
      ],
      [
        "idiot",
        -10.57296948786275
      ],
      [
        "afford",
        -10.573746633401928
      ],
      [
        "cheese",
        -10.57439314129985
      ],
      [
        "changing",
        -10.574624235216803
      ],
      [
        "laughe",
        -10.575065642905857
      ],
      [
        "alcohol",
        -10.575441232822726
      ],
      [
        "chapter",
        -10.575616822997183
      ],
      [
        "opera",
        -10.575733008046399
      ],
      [
        "crowd",
        -10.577358466113443
      ],
      [
        "fancy",
        -10.578720192738517
      ],
      [
        "rob",
        -10.578833228453895
      ],
      [
        "lights",
        -10.580256176816636
      ],
      [
        "instruction",
        -10.581064297410002
      ],
      [
        "broadcast",
        -10.58256975321373
      ],
      [
        "rush",
        -10.58258477219809
      ],
      [
        "gray",
        -10.58285242799952
      ],
      [
        "symbol",
        -10.583486292049745
      ],
      [
        "amendment",
        -10.583740795610975
      ],
      [
        "observe",
        -10.583806280524882
      ],
      [
        "lion",
        -10.584035034960634
      ],
      [
        "burne",
        -10.584516872154424
      ],
      [
        "cousin",
        -10.584776113599744
      ],
      [
        "extremely",
        -10.585412902594243
      ],
      [
        "holly",
        -10.585947775968275
      ],
      [
        "300",
        -10.586427567500971
      ],
      [
        "planne",
        -10.58741005062829
      ],
      [
        "via",
        -10.588970278299778
      ],
      [
        "programme",
        -10.589452626062634
      ],
      [
        "rescue",
        -10.589742249641521
      ],
      [
        "severe",
        -10.591871010710378
      ],
      [
        "height",
        -10.592357453297932
      ],
      [
        "remind",
        -10.592518436223799
      ],
      [
        "ken",
        -10.59273460279285
      ],
      [
        "senate",
        -10.59477471541802
      ],
      [
        "revolution",
        -10.594994946650118
      ],
      [
        "piano",
        -10.595364387621895
      ],
      [
        "bother",
        -10.596292701674583
      ],
      [
        "spare",
        -10.5969267332944
      ],
      [
        "protection",
        -10.599906251116181
      ],
      [
        "expert",
        -10.60033215411508
      ],
      [
        "mile",
        -10.600690076751246
      ],
      [
        "foundation",
        -10.601011997985253
      ],
      [
        "primar",
        -10.60136568400733
      ],
      [
        "vision",
        -10.601733045644336
      ],
      [
        "bond",
        -10.601807475816639
      ],
      [
        "presence",
        -10.602182194845149
      ],
      [
        "innocent",
        -10.603132338864725
      ],
      [
        "wolf",
        -10.6033048361815
      ],
      [
        "cookie",
        -10.603642624820417
      ],
      [
        "collect",
        -10.604203912806607
      ],
      [
        "treasure",
        -10.60499878300631
      ],
      [
        "nest",
        -10.605249580365133
      ],
      [
        "walls",
        -10.605555350187888
      ],
      [
        "passing",
        -10.605915437197158
      ],
      [
        "connect",
        -10.606125140675713
      ],
      [
        "64",
        -10.606574412929337
      ],
      [
        "rocks",
        -10.60732116578713
      ],
      [
        "perfectly",
        -10.608004626255418
      ],
      [
        "bull",
        -10.60805466238899
      ],
      [
        "supreme",
        -10.608542249491311
      ],
      [
        "fur",
        -10.60855493715319
      ],
      [
        "smalle",
        -10.60864003570882
      ],
      [
        "tiger",
        -10.609156522547725
      ],
      [
        "argue",
        -10.609720865857115
      ],
      [
        "expand",
        -10.610221879703584
      ],
      [
        "transfer",
        -10.610523061648568
      ],
      [
        "plent",
        -10.610897324333655
      ],
      [
        "plate",
        -10.612143977733428
      ],
      [
        "activit",
        -10.612536628302419
      ],
      [
        "pot",
        -10.612717359460664
      ],
      [
        "background",
        -10.612797515851458
      ],
      [
        "motion",
        -10.613185181609198
      ],
      [
        "pope",
        -10.613240643229654
      ],
      [
        "chamber",
        -10.613504813961814
      ],
      [
        "econom",
        -10.613867966007522
      ],
      [
        "flew",
        -10.61416626716448
      ],
      [
        "indiana",
        -10.614266993123257
      ],
      [
        "regional",
        -10.614542658735417
      ],
      [
        "shame",
        -10.616453037557084
      ],
      [
        "ju",
        -10.616774968548079
      ],
      [
        "struggle",
        -10.617382798319554
      ],
      [
        "unlike",
        -10.61761628676642
      ],
      [
        "sarah",
        -10.617753454215805
      ],
      [
        "vessel",
        -10.619783258554712
      ],
      [
        "reform",
        -10.620925290630737
      ],
      [
        "organize",
        -10.621390048495485
      ],
      [
        "soil",
        -10.621789136201778
      ],
      [
        "diet",
        -10.622636404641945
      ],
      [
        "unique",
        -10.622687839926058
      ],
      [
        "apartment",
        -10.622730173870028
      ],
      [
        "violence",
        -10.625417079210349
      ],
      [
        "thick",
        -10.625490042802191
      ],
      [
        "photo",
        -10.626058405608553
      ],
      [
        "fail",
        -10.627279230365287
      ],
      [
        "apart",
        -10.627369944605952
      ],
      [
        "photograph",
        -10.627484796105918
      ],
      [
        "scientific",
        -10.628294121975909
      ],
      [
        "climb",
        -10.629735206681957
      ],
      [
        "bunch",
        -10.629823208642119
      ],
      [
        "balance",
        -10.629999402319708
      ],
      [
        "prefer",
        -10.630631755442252
      ],
      [
        "trick",
        -10.630924280094916
      ],
      [
        "critical",
        -10.63116803301371
      ],
      [
        "annual",
        -10.631773823571812
      ],
      [
        "guns",
        -10.631824689535712
      ],
      [
        "executive",
        -10.633953864447331
      ],
      [
        "turkey",
        -10.63405758100085
      ],
      [
        "volume",
        -10.634147043260493
      ],
      [
        "alice",
        -10.634150548756391
      ],
      [
        "upset",
        -10.634437968307898
      ],
      [
        "vector",
        -10.635428781901611
      ],
      [
        "stan",
        -10.635533104645294
      ],
      [
        "attacke",
        -10.63574442344694
      ],
      [
        "experiment",
        -10.635901741554765
      ],
      [
        "edward",
        -10.636173086420278
      ],
      [
        "combine",
        -10.636398763055523
      ],
      [
        "bury",
        -10.636462372193797
      ],
      [
        "hurricane",
        -10.636815058931019
      ],
      [
        "assistant",
        -10.637968445299617
      ],
      [
        "shark",
        -10.639144348161132
      ],
      [
        "wire",
        -10.641924063296464
      ],
      [
        "frequent",
        -10.64239973895879
      ],
      [
        "hire",
        -10.642685328876974
      ],
      [
        "pack",
        -10.644769812950065
      ],
      [
        "tears",
        -10.644881103379118
      ],
      [
        "totall",
        -10.645175717444566
      ],
      [
        "gang",
        -10.645286014153063
      ],
      [
        "administration",
        -10.645461665888728
      ],
      [
        "bishop",
        -10.646223438763403
      ],
      [
        "rice",
        -10.646613749538243
      ],
      [
        "dreams",
        -10.647092988195322
      ],
      [
        "steps",
        -10.647432700407045
      ],
      [
        "185",
        -10.647438643635397
      ],
      [
        "robin",
        -10.647862163103508
      ],
      [
        "andrew",
        -10.648314067395676
      ],
      [
        "combination",
        -10.648428853158581
      ],
      [
        "runs",
        -10.648913224168258
      ],
      [
        "headed",
        -10.648915977795657
      ],
      [
        "flag",
        -10.64896592909443
      ],
      [
        "riding",
        -10.649019172367236
      ],
      [
        "dozen",
        -10.649083456964112
      ],
      [
        "addon",
        -10.649932198322464
      ],
      [
        "excited",
        -10.650824624399643
      ],
      [
        "girlfriend",
        -10.650936818615786
      ],
      [
        "mirror",
        -10.651273798350632
      ],
      [
        "entertainment",
        -10.651282003765191
      ],
      [
        "remembered",
        -10.651316349041299
      ],
      [
        "pacific",
        -10.651323910918691
      ],
      [
        "bow",
        -10.651894917809155
      ],
      [
        "sword",
        -10.652414295739186
      ],
      [
        "greed",
        -10.653949355672193
      ],
      [
        "possibilit",
        -10.654182173046046
      ],
      [
        "confirm",
        -10.65431235087763
      ],
      [
        "insurance",
        -10.654522254920902
      ],
      [
        "defense",
        -10.654646604868073
      ],
      [
        "arrow",
        -10.654824887915108
      ],
      [
        "label",
        -10.655007041793635
      ],
      [
        "whenever",
        -10.655067118038554
      ],
      [
        "wore",
        -10.655456420121212
      ],
      [
        "carrying",
        -10.655750987081905
      ],
      [
        "plastic",
        -10.657361251064529
      ],
      [
        "mental",
        -10.657649470659674
      ],
      [
        "steve",
        -10.658214950548343
      ],
      [
        "turns",
        -10.658724731598426
      ],
      [
        "matche",
        -10.659645818331281
      ],
      [
        "arthur",
        -10.660068548425947
      ],
      [
        "watche",
        -10.660168039386418
      ],
      [
        "understanding",
        -10.660245510643229
      ],
      [
        "coal",
        -10.660347081643865
      ],
      [
        "divorce",
        -10.660490809880631
      ],
      [
        "anger",
        -10.660708981900747
      ],
      [
        "relax",
        -10.660711429476931
      ],
      [
        "approve",
        -10.661020736735619
      ],
      [
        "streets",
        -10.661337329509548
      ],
      [
        "drove",
        -10.661583175635863
      ],
      [
        "global",
        -10.662156284958836
      ],
      [
        "encourage",
        -10.66235224289693
      ],
      [
        "186",
        -10.662368933908938
      ],
      [
        "boom",
        -10.663049722454888
      ],
      [
        "boyfriend",
        -10.663333828688044
      ],
      [
        "koh",
        -10.663798334880063
      ],
      [
        "launche",
        -10.66548380841618
      ],
      [
        "pilot",
        -10.665728839758927
      ],
      [
        "potential",
        -10.665987308398531
      ],
      [
        "involve",
        -10.666243956245413
      ],
      [
        "fortune",
        -10.667563991505585
      ],
      [
        "juice",
        -10.66788455254466
      ],
      [
        "hockey",
        -10.669014645743836
      ],
      [
        "grace",
        -10.669293953657453
      ],
      [
        "1950",
        -10.669899201905968
      ],
      [
        "cycle",
        -10.669910239578963
      ],
      [
        "growth",
        -10.670459374476568
      ],
      [
        "cricket",
        -10.671204242761645
      ],
      [
        "clever",
        -10.671205841151252
      ],
      [
        "ated",
        -10.671222588041655
      ],
      [
        "detective",
        -10.671954620674242
      ],
      [
        "palm",
        -10.673632412576332
      ],
      [
        "dail",
        -10.674051389247392
      ],
      [
        "supply",
        -10.674846203108668
      ],
      [
        "transport",
        -10.676560452053693
      ],
      [
        "weapon",
        -10.677627924993722
      ],
      [
        "deck",
        -10.677850813030958
      ],
      [
        "profit",
        -10.678028366342957
      ],
      [
        "tha",
        -10.67820020828608
      ],
      [
        "pleased",
        -10.678569361710153
      ],
      [
        "pipe",
        -10.678630603874176
      ],
      [
        "]",
        -10.678764832344566
      ],
      [
        "pal",
        -10.678903734739675
      ],
      [
        "agency",
        -10.679257938228659
      ],
      [
        "witness",
        -10.679459923760588
      ],
      [
        "comfortable",
        -10.679468421035555
      ],
      [
        "commission",
        -10.679508102289528
      ],
      [
        "ually",
        -10.67998760459956
      ],
      [
        "circumstance",
        -10.680811825627604
      ],
      [
        "shakespeare",
        -10.680911982111393
      ],
      [
        "progress",
        -10.681054351750396
      ],
      [
        "mixe",
        -10.681111969349887
      ],
      [
        "composer",
        -10.681472968019733
      ],
      [
        "chest",
        -10.68224276480953
      ],
      [
        "winner",
        -10.68374569059631
      ],
      [
        "nervous",
        -10.683829571553522
      ],
      [
        "febr",
        -10.684534014200587
      ],
      [
        "concept",
        -10.687051060032264
      ],
      [
        "sheep",
        -10.687382926800197
      ],
      [
        "budd",
        -10.68817379317294
      ],
      [
        "spell",
        -10.689442776073673
      ],
      [
        "flash",
        -10.68984581157411
      ],
      [
        "knowing",
        -10.689938258031901
      ],
      [
        "locked",
        -10.690557193119856
      ],
      [
        "independenc",
        -10.691271226688851
      ],
      [
        "johnson",
        -10.691791026334162
      ],
      [
        "deput",
        -10.69179968104428
      ],
      [
        "impact",
        -10.691930649955957
      ],
      [
        "acid",
        -10.69213332063564
      ],
      [
        "labour",
        -10.69289882347853
      ],
      [
        "facilit",
        -10.693178486239692
      ],
      [
        "--\"",
        -10.693265504765627
      ],
      [
        "joint",
        -10.694705634652609
      ],
      [
        "awarde",
        -10.694909764999894
      ],
      [
        "mont",
        -10.695543075090495
      ],
      [
        "carolina",
        -10.695655264670144
      ],
      [
        "pie",
        -10.695834924913333
      ],
      [
        "dave",
        -10.697459928379232
      ],
      [
        "occurre",
        -10.697469407389878
      ],
      [
        "rent",
        -10.698646990562388
      ],
      [
        "formation",
        -10.699684586410623
      ],
      [
        "36",
        -10.699859633785596
      ],
      [
        "express",
        -10.70014121853484
      ],
      [
        "knight",
        -10.700187732695131
      ],
      [
        "beast",
        -10.700730221806854
      ],
      [
        "mix",
        -10.701039722254738
      ],
      [
        "fame",
        -10.703250686439954
      ],
      [
        "partie",
        -10.703758388566927
      ],
      [
        "narrow",
        -10.70395421541685
      ],
      [
        "online",
        -10.704346167870568
      ],
      [
        "indicate",
        -10.707778688017424
      ],
      [
        "pleasant",
        -10.708174281591994
      ],
      [
        "philosoph",
        -10.709615309029104
      ],
      [
        "pretend",
        -10.70995503960436
      ],
      [
        "sigh",
        -10.710197905487185
      ],
      [
        "operations",
        -10.710886275200117
      ],
      [
        "attitude",
        -10.7112947684771
      ],
      [
        "investigation",
        -10.711531137589864
      ],
      [
        "tied",
        -10.711577614346497
      ],
      [
        "applie",
        -10.711749632059071
      ],
      [
        "bullet",
        -10.711815898438832
      ],
      [
        "invited",
        -10.712502363640587
      ],
      [
        "worn",
        -10.712959657129742
      ],
      [
        "oldes",
        -10.713099780439098
      ],
      [
        "lung",
        -10.713637727002787
      ],
      [
        "powder",
        -10.71435146821304
      ],
      [
        "waited",
        -10.71476108387951
      ],
      [
        "ireland",
        -10.71511314387918
      ],
      [
        "billy",
        -10.715571476417459
      ],
      [
        "mount",
        -10.716226210422304
      ],
      [
        "glance",
        -10.71694958976202
      ],
      [
        "baseball",
        -10.71774714244473
      ],
      [
        "korea",
        -10.718085270174951
      ],
      [
        "cent",
        -10.718618608011028
      ],
      [
        "maid",
        -10.718674359157983
      ],
      [
        "zone",
        -10.719525868569502
      ],
      [
        "1987",
        -10.719811335668446
      ],
      [
        "cal",
        -10.72005876333683
      ],
      [
        "dutch",
        -10.720142351900224
      ],
      [
        "equation",
        -10.72057243417316
      ],
      [
        "literature",
        -10.720614601644396
      ],
      [
        "stomach",
        -10.720680147111567
      ],
      [
        "unknown",
        -10.721022480386976
      ],
      [
        "minor",
        -10.7222005613534
      ],
      [
        "frame",
        -10.722551606389661
      ],
      [
        "column",
        -10.7234613305152
      ],
      [
        "institution",
        -10.723578625068852
      ],
      [
        "ryan",
        -10.72381712034571
      ],
      [
        "calls",
        -10.724753574789727
      ],
      [
        "kim",
        -10.725083845186365
      ],
      [
        "jones",
        -10.72524078259119
      ],
      [
        "paint",
        -10.725480494071125
      ],
      [
        "jersey",
        -10.72683464068394
      ],
      [
        "faces",
        -10.726885224442416
      ],
      [
        "arrested",
        -10.727329521606507
      ],
      [
        "latter",
        -10.728345791671973
      ],
      [
        "hunter",
        -10.728478155580106
      ],
      [
        "khan",
        -10.729000923645035
      ],
      [
        "tune",
        -10.729954387075821
      ],
      [
        "activities",
        -10.730274499128484
      ],
      [
        "raw",
        -10.73115371130334
      ],
      [
        "rope",
        -10.73176081160343
      ],
      [
        "cultural",
        -10.733141170165453
      ],
      [
        "ization",
        -10.733823503484938
      ],
      [
        "anny",
        -10.735496511945477
      ],
      [
        "ummy",
        -10.736206602476601
      ],
      [
        "pennsylvania",
        -10.736294497011897
      ],
      [
        "increasing",
        -10.73635051254084
      ],
      [
        "idney",
        -10.736599367882299
      ],
      [
        "handsome",
        -10.737411393196929
      ],
      [
        "monday",
        -10.737582983355406
      ],
      [
        "feelings",
        -10.737586498493485
      ],
      [
        "presente",
        -10.737733426404464
      ],
      [
        "ruin",
        -10.738746849260043
      ],
      [
        "suffering",
        -10.739189353668452
      ],
      [
        "mar",
        -10.739459890274194
      ],
      [
        "motor",
        -10.73948763459608
      ],
      [
        "participate",
        -10.739542003335362
      ],
      [
        "associated",
        -10.739793094576271
      ],
      [
        "happiness",
        -10.740048146560675
      ],
      [
        "emergency",
        -10.741012143887122
      ],
      [
        "fate",
        -10.741951197076256
      ],
      [
        "apply",
        -10.742187985426646
      ],
      [
        "moral",
        -10.742755916563706
      ],
      [
        "olympics",
        -10.742793661998999
      ],
      [
        "deserve",
        -10.742825015006678
      ],
      [
        "roger",
        -10.742843671368066
      ],
      [
        "ungry",
        -10.744583906945863
      ],
      [
        "delay",
        -10.744902849973368
      ],
      [
        "nations",
        -10.745537786498167
      ],
      [
        "shout",
        -10.746186759278661
      ],
      [
        "chi",
        -10.746485383931045
      ],
      [
        "basi",
        -10.747260446129294
      ],
      [
        "eric",
        -10.748244806067714
      ],
      [
        "defend",
        -10.748570421353413
      ],
      [
        "communication",
        -10.748916298670387
      ],
      [
        "environmental",
        -10.748936869610365
      ],
      [
        "marked",
        -10.7498184806754
      ],
      [
        "determined",
        -10.750113202071496
      ],
      [
        "communist",
        -10.750423851891366
      ],
      [
        "pakistan",
        -10.75225353021677
      ],
      [
        "massachusett",
        -10.752269222714567
      ],
      [
        "michigan",
        -10.752274767172224
      ],
      [
        "weapons",
        -10.752489206872095
      ],
      [
        "mobile",
        -10.75298371026193
      ],
      [
        "aspect",
        -10.75354954791396
      ],
      [
        "exercise",
        -10.754199741014741
      ],
      [
        "papa",
        -10.755181419245552
      ],
      [
        "familiar",
        -10.75567001370797
      ],
      [
        "corn",
        -10.756062627327928
      ],
      [
        "38",
        -10.756178652477168
      ],
      [
        "nominate",
        -10.757137946090035
      ],
      [
        "hunting",
        -10.757342469717582
      ],
      [
        "187",
        -10.757526574427537
      ],
      [
        "williams",
        -10.757609168705365
      ],
      [
        "wondering",
        -10.758474601318182
      ],
      [
        "jill",
        -10.758499338679748
      ],
      [
        "error",
        -10.758676357427984
      ],
      [
        "garage",
        -10.758847750939879
      ],
      [
        "railroad",
        -10.7589166528109
      ],
      [
        "ninet",
        -10.75955667959687
      ],
      [
        "classic",
        -10.760045326311559
      ],
      [
        "earned",
        -10.760820824375482
      ],
      [
        "sale",
        -10.76135024931065
      ],
      [
        "harm",
        -10.761650467222935
      ],
      [
        "website",
        -10.761993098078174
      ],
      [
        "conservative",
        -10.762057992078264
      ],
      [
        "dumb",
        -10.762199822213478
      ],
      [
        "hood",
        -10.762824201234187
      ],
      [
        "talent",
        -10.76305986785143
      ],
      [
        "butter",
        -10.76335912831419
      ],
      [
        "sixth",
        -10.763768996317253
      ],
      [
        "prayer",
        -10.763867803522547
      ],
      [
        "horn",
        -10.764141132262669
      ],
      [
        "onto",
        -10.764605007495454
      ],
      [
        "lincoln",
        -10.765235730480864
      ],
      [
        "investment",
        -10.765364684376962
      ],
      [
        "assembly",
        -10.765475546166433
      ],
      [
        "surround",
        -10.765738176795075
      ],
      [
        "customer",
        -10.765769668812279
      ],
      [
        "schedule",
        -10.767407910605835
      ],
      [
        "acted",
        -10.76761734943629
      ],
      [
        "pol",
        -10.767948548088714
      ],
      [
        "alternative",
        -10.768538593559796
      ],
      [
        "colon",
        -10.768577914771726
      ],
      [
        "brilliant",
        -10.768609908132394
      ],
      [
        "suicide",
        -10.769864384309804
      ],
      [
        "license",
        -10.770247159928044
      ],
      [
        "metro",
        -10.770736581037884
      ],
      [
        "mere",
        -10.770781382477391
      ],
      [
        "labor",
        -10.770913645095142
      ],
      [
        "pole",
        -10.771098302394337
      ],
      [
        "ordinary",
        -10.771163987037959
      ],
      [
        "ross",
        -10.771566673442017
      ],
      [
        "corporation",
        -10.771818970603181
      ],
      [
        "ful",
        -10.771859701903363
      ],
      [
        "hans",
        -10.77287286354115
      ],
      [
        "affect",
        -10.77335864419906
      ],
      [
        "glasse",
        -10.775214677973192
      ],
      [
        "admiral",
        -10.775305266637128
      ],
      [
        "shadow",
        -10.776661666651055
      ],
      [
        "pity",
        -10.777255197433131
      ],
      [
        "33",
        -10.778088243186367
      ],
      [
        "debt",
        -10.778498917148088
      ],
      [
        "ram",
        -10.778514429286453
      ],
      [
        "gilu",
        -10.77882647907476
      ],
      [
        "hidden",
        -10.778968998565308
      ],
      [
        "37",
        -10.779220052591592
      ],
      [
        "borough",
        -10.780204519428079
      ],
      [
        "mor",
        -10.780426262645417
      ],
      [
        "cheap",
        -10.780680335078682
      ],
      [
        "statistic",
        -10.78100052906417
      ],
      [
        "revenge",
        -10.781783114535871
      ],
      [
        "theater",
        -10.781799781827896
      ],
      [
        "balls",
        -10.78192392485884
      ],
      [
        "desperate",
        -10.783009992281539
      ],
      [
        "legend",
        -10.78398971980641
      ],
      [
        "chester",
        -10.784291424248593
      ],
      [
        "`",
        -10.785005340831402
      ],
      [
        "elizabeth",
        -10.785809289043755
      ],
      [
        "lab",
        -10.78582516321585
      ],
      [
        "heads",
        -10.786493023613971
      ],
      [
        "dean",
        -10.786689696914937
      ],
      [
        "ide",
        -10.78732817330776
      ],
      [
        "repeat",
        -10.787524370510074
      ],
      [
        "jewis",
        -10.787619845823542
      ],
      [
        "iggler",
        -10.787722829659602
      ],
      [
        "[",
        -10.787976616391454
      ],
      [
        "trace",
        -10.78813742369225
      ],
      [
        "threat",
        -10.788237468226647
      ],
      [
        "iowa",
        -10.78826412602901
      ],
      [
        "laughter",
        -10.788507133921579
      ],
      [
        "technical",
        -10.788605326107707
      ],
      [
        "existence",
        -10.788621010299263
      ],
      [
        "pet",
        -10.788722655045458
      ],
      [
        "technique",
        -10.789518814655619
      ],
      [
        "wales",
        -10.790084957255473
      ],
      [
        "ward",
        -10.790233423896257
      ],
      [
        "conscious",
        -10.791616893044944
      ],
      [
        "wrestling",
        -10.791684168807354
      ],
      [
        "curious",
        -10.791701554953748
      ],
      [
        "classe",
        -10.792387002819954
      ],
      [
        "screw",
        -10.793559086907548
      ],
      [
        "rising",
        -10.793584672961241
      ],
      [
        "literally",
        -10.79524516850278
      ],
      [
        "reward",
        -10.796819229799244
      ],
      [
        "pale",
        -10.796930560053436
      ],
      [
        "handed",
        -10.79718607039474
      ],
      [
        "suffere",
        -10.797469793687998
      ],
      [
        "purchase",
        -10.797838838905781
      ],
      [
        "component",
        -10.798405997407208
      ],
      [
        "fuel",
        -10.800016979614536
      ],
      [
        "mill",
        -10.800019937710953
      ],
      [
        "jenn",
        -10.800785537517648
      ],
      [
        "irish",
        -10.800804502645189
      ],
      [
        "praise",
        -10.8009908264771
      ],
      [
        "courage",
        -10.801459698066148
      ],
      [
        "snake",
        -10.80201237836318
      ],
      [
        "decade",
        -10.80209551834087
      ],
      [
        "1971",
        -10.803524498027198
      ],
      [
        "les",
        -10.803736561614745
      ],
      [
        "pray",
        -10.803949594248493
      ],
      [
        "34",
        -10.8039864787157
      ],
      [
        "1985",
        -10.80512186013314
      ],
      [
        "false",
        -10.805216191136438
      ],
      [
        "peasant",
        -10.805298465180451
      ],
      [
        "dust",
        -10.806970278516165
      ],
      [
        "tube",
        -10.807296600293324
      ],
      [
        "merry",
        -10.807493409093176
      ],
      [
        "discovery",
        -10.808071371284878
      ],
      [
        "discussion",
        -10.808835737817025
      ],
      [
        "sample",
        -10.810548068774784
      ],
      [
        "helen",
        -10.810701101159289
      ],
      [
        "ends",
        -10.81159428473115
      ],
      [
        "unusual",
        -10.81221856112058
      ],
      [
        "sheet",
        -10.812313523701874
      ],
      [
        "brian",
        -10.812745260377728
      ],
      [
        "angle",
        -10.813104390286224
      ],
      [
        "jobs",
        -10.813327597982592
      ],
      [
        "simon",
        -10.8134355320001
      ],
      [
        "solid",
        -10.813960850130282
      ],
      [
        "prepare",
        -10.814023559887609
      ],
      [
        "matters",
        -10.814205764542105
      ],
      [
        "kisse",
        -10.814476294344589
      ],
      [
        "mily",
        -10.81460780198642
      ],
      [
        "flood",
        -10.815013042825832
      ],
      [
        "plot",
        -10.815035056638965
      ],
      [
        "cheek",
        -10.815449143963116
      ],
      [
        "founder",
        -10.815904150817575
      ],
      [
        "absolute",
        -10.817309795717307
      ],
      [
        "dealing",
        -10.817518721544253
      ],
      [
        "excit",
        -10.817918840245115
      ],
      [
        "shock",
        -10.818122991399015
      ],
      [
        "400",
        -10.818269980439876
      ],
      [
        "conflict",
        -10.81836594289772
      ],
      [
        "principal",
        -10.818728666816309
      ],
      [
        "col",
        -10.819020836813639
      ],
      [
        "attende",
        -10.820128082550472
      ],
      [
        "counter",
        -10.820350118267022
      ],
      [
        "tale",
        -10.821283260606636
      ],
      [
        "rode",
        -10.821349604777476
      ],
      [
        "script",
        -10.821729265261311
      ],
      [
        "reserve",
        -10.821731838010827
      ],
      [
        "grunt",
        -10.823057141405137
      ],
      [
        "ung",
        -10.823369556214761
      ],
      [
        "entry",
        -10.823858816868917
      ],
      [
        "wend",
        -10.824807229445506
      ],
      [
        "fleet",
        -10.82522638134067
      ],
      [
        "guitar",
        -10.825499193537263
      ],
      [
        "bitter",
        -10.825869456922891
      ],
      [
        "crop",
        -10.826497648370673
      ],
      [
        "pants",
        -10.82795570230494
      ],
      [
        "sales",
        -10.82803598943973
      ],
      [
        "bal",
        -10.828318678758732
      ],
      [
        "supporte",
        -10.829273507139703
      ],
      [
        "graph",
        -10.829469167108389
      ],
      [
        "categor",
        -10.829499390699434
      ],
      [
        "copie",
        -10.829630963784055
      ],
      [
        "unable",
        -10.829855072522566
      ],
      [
        "exact",
        -10.830274589216454
      ],
      [
        "arab",
        -10.83039468338799
      ],
      [
        "wealth",
        -10.830870847010459
      ],
      [
        "sang",
        -10.831099998245433
      ],
      [
        "reflect",
        -10.832352009780893
      ],
      [
        "stroke",
        -10.832994686316896
      ],
      [
        "visitor",
        -10.834407593865055
      ],
      [
        "oursel",
        -10.834723026126852
      ],
      [
        "benea",
        -10.835631059108978
      ],
      [
        "convention",
        -10.835954009155213
      ],
      [
        "procedure",
        -10.836211038903247
      ],
      [
        "inspire",
        -10.836309803466035
      ],
      [
        "oping",
        -10.836399761056931
      ],
      [
        "romantic",
        -10.837844444462679
      ],
      [
        "incident",
        -10.83813330177977
      ],
      [
        "funeral",
        -10.838875309008097
      ],
      [
        "75",
        -10.839315085072098
      ],
      [
        "dawn",
        -10.83955636459802
      ],
      [
        "identit",
        -10.840129662913785
      ],
      [
        "hills",
        -10.841085015967785
      ],
      [
        "charli",
        -10.842892327312338
      ],
      [
        "jacket",
        -10.84293838428956
      ],
      [
        "sufficient",
        -10.843170255517217
      ],
      [
        "zealand",
        -10.843253137127924
      ],
      [
        "lane",
        -10.844476748486125
      ],
      [
        "180",
        -10.84467472284049
      ],
      [
        "walter",
        -10.844723334212688
      ],
      [
        "mood",
        -10.844835564856151
      ],
      [
        "fairy",
        -10.844922147433003
      ],
      [
        "draft",
        -10.845627330098598
      ],
      [
        "crack",
        -10.846243769909186
      ],
      [
        "congratulation",
        -10.846778029256225
      ],
      [
        "swimming",
        -10.846815163844205
      ],
      [
        "analysi",
        -10.84682351558618
      ],
      [
        "defence",
        -10.846996791789548
      ],
      [
        "bite",
        -10.847012700770644
      ],
      [
        "hunt",
        -10.847140918332286
      ],
      [
        "pending",
        -10.847251200292442
      ],
      [
        "scheme",
        -10.847302893286514
      ],
      [
        "pointed",
        -10.848130567011417
      ],
      [
        "ladder",
        -10.848528925299181
      ],
      [
        "underground",
        -10.848687488833365
      ],
      [
        "industrial",
        -10.849839980424422
      ],
      [
        "symptom",
        -10.850322971109323
      ],
      [
        "merchant",
        -10.85032589708063
      ],
      [
        "buying",
        -10.850415416880232
      ],
      [
        "chuck",
        -10.850974634061675
      ],
      [
        "jew",
        -10.851765172914805
      ],
      [
        "tropica",
        -10.853556598317988
      ],
      [
        "fishing",
        -10.85369425555199
      ],
      [
        "stadium",
        -10.853962517136472
      ],
      [
        "poem",
        -10.854229721169554
      ],
      [
        "+",
        -10.854456526319812
      ],
      [
        "elder",
        -10.854477858184012
      ],
      [
        "asian",
        -10.855113215272869
      ],
      [
        "romaniz",
        -10.857310183281818
      ],
      [
        "ridiculous",
        -10.857451016439143
      ],
      [
        "aircraft",
        -10.857634705535233
      ],
      [
        "evolution",
        -10.85791608210855
      ],
      [
        "complicated",
        -10.857963252976575
      ],
      [
        "passion",
        -10.859292123676724
      ],
      [
        "explained",
        -10.859315035523977
      ],
      [
        "document",
        -10.859850848366241
      ],
      [
        "burning",
        -10.860282214037225
      ],
      [
        "nerve",
        -10.86082031973024
      ],
      [
        "math",
        -10.861003286698779
      ],
      [
        "eddie",
        -10.861178690517825
      ],
      [
        "entrance",
        -10.861391870943748
      ],
      [
        "enemi",
        -10.861684904634735
      ],
      [
        "exception",
        -10.86176991620566
      ],
      [
        "coin",
        -10.862320524286101
      ],
      [
        "vietnam",
        -10.862551295911576
      ],
      [
        "violent",
        -10.862746025231338
      ],
      [
        "estimate",
        -10.862989995016346
      ],
      [
        "horrible",
        -10.863260011290656
      ],
      [
        "merge",
        -10.863647275088017
      ],
      [
        "zoo",
        -10.864045196327838
      ],
      [
        "dramatic",
        -10.864416697602904
      ],
      [
        "berlin",
        -10.864817326655679
      ],
      [
        "kentuck",
        -10.864861352566702
      ],
      [
        "painte",
        -10.865247348079347
      ],
      [
        "suffer",
        -10.865742992947578
      ],
      [
        "whoever",
        -10.86766957609374
      ],
      [
        "envelope",
        -10.868798191409802
      ],
      [
        "mister",
        -10.869246315427665
      ],
      [
        "santa",
        -10.869708703357093
      ],
      [
        "tank",
        -10.87032045902929
      ],
      [
        "healthy",
        -10.870736297111883
      ],
      [
        "goddess",
        -10.871878854005956
      ],
      [
        "expedition",
        -10.871940493245518
      ],
      [
        "clause",
        -10.872095818468885
      ],
      [
        "noble",
        -10.872690829696207
      ],
      [
        "eventy",
        -10.873034708574066
      ],
      [
        "favour",
        -10.873818384646594
      ],
      [
        "crap",
        -10.87397110873183
      ],
      [
        "discover",
        -10.873993260762948
      ],
      [
        "committed",
        -10.875589136270726
      ],
      [
        "touche",
        -10.875676705720256
      ],
      [
        "strateg",
        -10.87584537379887
      ],
      [
        "trains",
        -10.87647634124
      ],
      [
        "tang",
        -10.877455776575434
      ],
      [
        "trained",
        -10.878065305505753
      ],
      [
        "journal",
        -10.878103203197426
      ],
      [
        "liquid",
        -10.878248885902641
      ],
      [
        "ike",
        -10.879000401803886
      ],
      [
        "lonel",
        -10.879905108915038
      ],
      [
        "cute",
        -10.880115892618964
      ],
      [
        "occasional",
        -10.880711175959693
      ],
      [
        "hong",
        -10.881849181711534
      ],
      [
        "39",
        -10.882262968285968
      ],
      [
        "stronger",
        -10.882648876988767
      ],
      [
        "attorney",
        -10.88281444903959
      ],
      [
        "horror",
        -10.882832738542426
      ],
      [
        "islam",
        -10.882895628300822
      ],
      [
        "linois",
        -10.882897015411032
      ],
      [
        "\").",
        -10.883597375432586
      ],
      [
        "loan",
        -10.884277143261311
      ],
      [
        "lover",
        -10.884529070569176
      ],
      [
        "ministr",
        -10.885473681322978
      ],
      [
        "fantastic",
        -10.885486862564825
      ],
      [
        "peak",
        -10.88573570893189
      ],
      [
        "parent",
        -10.886168506306433
      ],
      [
        "jealous",
        -10.886493006235687
      ],
      [
        "scarce",
        -10.886554313304297
      ],
      [
        "bathroom",
        -10.886918872524866
      ],
      [
        "(;",
        -10.887516764850261
      ],
      [
        "korean",
        -10.887686218729815
      ],
      [
        "basse",
        -10.887715778947305
      ],
      [
        "cotton",
        -10.888031663140225
      ],
      [
        "saving",
        -10.888540339591088
      ],
      [
        "ceremon",
        -10.888897112317544
      ],
      [
        "phase",
        -10.889498833688652
      ],
      [
        "lept",
        -10.890171154587257
      ],
      [
        "passage",
        -10.890175479601869
      ],
      [
        "purple",
        -10.890303502764116
      ],
      [
        "kent",
        -10.890626897230433
      ],
      [
        "journalist",
        -10.891411687344945
      ],
      [
        "electronic",
        -10.892053394560216
      ],
      [
        "listed",
        -10.892934910296507
      ],
      [
        "chemist",
        -10.89365322555302
      ],
      [
        "memorial",
        -10.893898075933375
      ],
      [
        "mazra",
        -10.893952804554885
      ],
      [
        "citizens",
        -10.894129788444447
      ],
      [
        "satisfie",
        -10.89419737570693
      ],
      [
        "parish",
        -10.894604403032226
      ],
      [
        "seize",
        -10.894635479251114
      ],
      [
        "goddamn",
        -10.894738138365156
      ],
      [
        "miller",
        -10.895036521380101
      ],
      [
        "device",
        -10.895771839014554
      ],
      [
        "emma",
        -10.895858745484443
      ],
      [
        "extreme",
        -10.895898374516346
      ],
      [
        "capabl",
        -10.896149130261309
      ],
      [
        "debate",
        -10.89637805420324
      ],
      [
        "leaders",
        -10.897115746801237
      ],
      [
        "francisco",
        -10.898004097202655
      ],
      [
        "rear",
        -10.898129732904069
      ],
      [
        "permanent",
        -10.898649297373026
      ],
      [
        "proved",
        -10.898685396874512
      ],
      [
        "dynast",
        -10.900381344651437
      ],
      [
        "creation",
        -10.90067168938156
      ],
      [
        "register",
        -10.901019964072866
      ],
      [
        "continent",
        -10.901202329560771
      ],
      [
        "burst",
        -10.901259608727724
      ],
      [
        "headquarter",
        -10.902216568336213
      ],
      [
        "acquire",
        -10.902934533745388
      ],
      [
        "seconds",
        -10.903513076732654
      ],
      [
        "jacob",
        -10.904667622388459
      ],
      [
        "\\",
        -10.905078725954311
      ],
      [
        "lily",
        -10.905173456080117
      ],
      [
        "proceed",
        -10.90564170865039
      ],
      [
        "finance",
        -10.906369097452163
      ],
      [
        "monkey",
        -10.909273694454608
      ],
      [
        "pond",
        -10.909438850368119
      ],
      [
        "nuclear",
        -10.909447198426903
      ],
      [
        "bones",
        -10.90987722356872
      ],
      [
        "alvado",
        -10.91019125382154
      ],
      [
        "sacrifice",
        -10.910451558733708
      ],
      [
        "figures",
        -10.910865782711586
      ],
      [
        "cabin",
        -10.911269459242547
      ],
      [
        "egypt",
        -10.911613969299927
      ],
      [
        "toilet",
        -10.911776494837692
      ],
      [
        "junior",
        -10.912626025894482
      ],
      [
        "oxford",
        -10.912698449075414
      ],
      [
        "lecture",
        -10.912894483718798
      ],
      [
        "pit",
        -10.914160422973776
      ],
      [
        "translate",
        -10.914573789528736
      ],
      [
        "alien",
        -10.91484301350361
      ],
      [
        "roles",
        -10.915402602309396
      ],
      [
        "cats",
        -10.915425408145808
      ],
      [
        "slide",
        -10.91543716992116
      ],
      [
        "ridge",
        -10.915487665888485
      ],
      [
        "switzerland",
        -10.916401525580568
      ],
      [
        "overall",
        -10.916690395670859
      ],
      [
        "wipe",
        -10.916855076887927
      ],
      [
        "bible",
        -10.917143018091572
      ],
      [
        "habit",
        -10.917509423692714
      ],
      [
        "hopeful",
        -10.917717816243865
      ],
      [
        "babi",
        -10.91777144238727
      ],
      [
        "berg",
        -10.918066500942047
      ],
      [
        "print",
        -10.918236556119847
      ],
      [
        "particle",
        -10.919151893382761
      ],
      [
        "invent",
        -10.919162018622611
      ],
      [
        "compound",
        -10.920175502124309
      ],
      [
        "neighbour",
        -10.920184341240647
      ],
      [
        "subsequent",
        -10.920201932465899
      ],
      [
        "shopping",
        -10.92096254405962
      ],
      [
        "composed",
        -10.921036583001378
      ],
      [
        "1940",
        -10.92126083946084
      ],
      [
        "swing",
        -10.921372223656409
      ],
      [
        "pride",
        -10.9237746200437
      ],
      [
        "bach",
        -10.923895347092104
      ],
      [
        "illegal",
        -10.924223378291575
      ],
      [
        "breathe",
        -10.924477130084565
      ],
      [
        "historic",
        -10.924837431794206
      ],
      [
        "...\"",
        -10.925127826101477
      ],
      [
        "1930",
        -10.92562771135798
      ],
      [
        "arrangement",
        -10.92589722116488
      ],
      [
        "swim",
        -10.926154945428351
      ],
      [
        "atherin",
        -10.926342598825842
      ],
      [
        "shook",
        -10.927153906972508
      ],
      [
        "gil",
        -10.927589881130235
      ],
      [
        "del",
        -10.927670978813163
      ],
      [
        "rasmus",
        -10.927909770996116
      ],
      [
        "perating",
        -10.928908207071713
      ],
      [
        "rang",
        -10.928974859951724
      ],
      [
        "con",
        -10.929261926993435
      ],
      [
        "betty",
        -10.93095390122378
      ],
      [
        "¶",
        -10.931696234876714
      ],
      [
        "confidence",
        -10.93169767561563
      ],
      [
        "layer",
        -10.931815804484678
      ],
      [
        "inspector",
        -10.932392651459264
      ],
      [
        "internal",
        -10.932954782557701
      ],
      [
        "domestic",
        -10.933457207779016
      ],
      [
        "desk",
        -10.933749449424692
      ],
      [
        "trunk",
        -10.936264753455127
      ],
      [
        "tourist",
        -10.936675644738916
      ],
      [
        "normand",
        -10.937592395116514
      ],
      [
        "folks",
        -10.938726685098462
      ],
      [
        "beating",
        -10.938940526798186
      ],
      [
        "ages",
        -10.938965647007215
      ],
      [
        "numerous",
        -10.93943654735039
      ],
      [
        "session",
        -10.939474078779227
      ],
      [
        "superior",
        -10.939570704781278
      ],
      [
        "massive",
        -10.93968268619734
      ],
      [
        "banana",
        -10.939716603120573
      ],
      [
        "victoria",
        -10.93987613877335
      ],
      [
        "frightene",
        -10.940502257555053
      ],
      [
        "random",
        -10.940828738857606
      ],
      [
        "trul",
        -10.942041930415106
      ],
      [
        "crossing",
        -10.942064263177844
      ],
      [
        "atmosphere",
        -10.942377014409223
      ],
      [
        "realise",
        -10.9428371473569
      ],
      [
        "equipment",
        -10.9433274560301
      ],
      [
        "margaret",
        -10.943357605774219
      ],
      [
        "proposal",
        -10.943425767917017
      ],
      [
        "approximately",
        -10.943625378259823
      ],
      [
        "breast",
        -10.94645051846652
      ],
      [
        "editor",
        -10.946516876721056
      ],
      [
        "aved",
        -10.947202322082008
      ],
      [
        "oliver",
        -10.94746966138274
      ],
      [
        "permission",
        -10.947593528944253
      ],
      [
        "surger",
        -10.947900431086076
      ],
      [
        "dig",
        -10.94809112461568
      ],
      [
        "affected",
        -10.948202759848424
      ],
      [
        "maiden",
        -10.94825608888036
      ],
      [
        "cole",
        -10.948260760318714
      ],
      [
        "emotional",
        -10.949940888025047
      ],
      [
        "cutting",
        -10.950658910373498
      ],
      [
        "150",
        -10.951631385802585
      ],
      [
        "clark",
        -10.951778169606062
      ],
      [
        "ent",
        -10.95211222920442
      ],
      [
        "mmm",
        -10.95234830450079
      ],
      [
        "fourteen",
        -10.952703257436266
      ],
      [
        "georgia",
        -10.953254698767655
      ],
      [
        "inch",
        -10.954195968341853
      ],
      [
        "gosh",
        -10.954224199077391
      ],
      [
        "nuts",
        -10.95442755253424
      ],
      [
        "intelligence",
        -10.955177735865309
      ],
      [
        "portion",
        -10.955639537860066
      ],
      [
        "columbia",
        -10.955681805567984
      ],
      [
        "belt",
        -10.95611448568501
      ],
      [
        "48",
        -10.956796564642858
      ],
      [
        "cruel",
        -10.957118867689896
      ],
      [
        "ugh",
        -10.957576349641936
      ],
      [
        "johnn",
        -10.958493759017147
      ],
      [
        "telephone",
        -10.959043380124637
      ],
      [
        "95",
        -10.959272280206637
      ],
      [
        "sailor",
        -10.960856010427133
      ],
      [
        "polish",
        -10.96234487240891
      ],
      [
        "urban",
        -10.96300114046149
      ],
      [
        "identify",
        -10.963010359455037
      ],
      [
        "delicious",
        -10.963018928697489
      ],
      [
        "alexander",
        -10.963029441054022
      ],
      [
        "pregnant",
        -10.963133568055639
      ],
      [
        "bbc",
        -10.963455221188536
      ],
      [
        "task",
        -10.963565608017092
      ],
      [
        "expose",
        -10.964197541061178
      ],
      [
        "cave",
        -10.964663561834687
      ],
      [
        "clothing",
        -10.96579799805618
      ],
      [
        "buck",
        -10.965961432887363
      ],
      [
        "worship",
        -10.966169008709151
      ],
      [
        "cancel",
        -10.966917991275945
      ],
      [
        "description",
        -10.967273703602276
      ],
      [
        "discipline",
        -10.96729373994999
      ],
      [
        "infection",
        -10.96756932765686
      ],
      [
        "physic",
        -10.968736301508283
      ],
      [
        "ave",
        -10.968798898963431
      ],
      [
        "crystal",
        -10.969697222343717
      ],
      [
        "parallel",
        -10.969789298013152
      ],
      [
        "naked",
        -10.970598337595984
      ],
      [
        "circuit",
        -10.970994359362962
      ],
      [
        "stuart",
        -10.971053291727149
      ],
      [
        "44",
        -10.97115793514436
      ],
      [
        "ried",
        -10.971204991263436
      ],
      [
        "lou",
        -10.971328119461456
      ],
      [
        "historian",
        -10.97164260574009
      ],
      [
        "protest",
        -10.97170447917011
      ],
      [
        "log",
        -10.971886244927964
      ],
      [
        "claime",
        -10.971929580838701
      ],
      [
        "doors",
        -10.9727174961604
      ],
      [
        "sixt",
        -10.973061668367162
      ],
      [
        "slave",
        -10.973636051921442
      ],
      [
        "marie",
        -10.974202492005237
      ],
      [
        "gentle",
        -10.974246284082753
      ],
      [
        "cure",
        -10.974593244554036
      ],
      [
        "appointment",
        -10.974920761247276
      ],
      [
        "architecture",
        -10.97502126259182
      ],
      [
        "punishment",
        -10.975050106047743
      ],
      [
        "appropriate",
        -10.975951183898909
      ],
      [
        "relations",
        -10.976220313895496
      ],
      [
        "gene",
        -10.976250891632823
      ],
      [
        "ties",
        -10.976313987701356
      ],
      [
        "fans",
        -10.976826873045678
      ],
      [
        "confused",
        -10.977581175078774
      ],
      [
        "disney",
        -10.979057187214362
      ],
      [
        "49",
        -10.979326464193948
      ],
      [
        "doll",
        -10.979700372258069
      ],
      [
        "pause",
        -10.98006739035302
      ],
      [
        "albert",
        -10.980822996894531
      ],
      [
        "cor",
        -10.981404288126424
      ],
      [
        "accuse",
        -10.982014636691785
      ],
      [
        "{",
        -10.982869638617192
      ],
      [
        "mexican",
        -10.9829824466918
      ],
      [
        "neighborhood",
        -10.9831051909627
      ],
      [
        "adopted",
        -10.983264702776367
      ],
      [
        "bike",
        -10.983371018580133
      ],
      [
        "multi",
        -10.983449467572992
      ],
      [
        "classical",
        -10.983897775869908
      ],
[...]
